[PAD]
[UNK]
[CLS]
[SEP]
[MASK]
!
"
#
$
%
&
'
(
)
*
+
,
-
.
/
0
1
2
3
4
5
6
7
8
9
:
;
<
=
>
?
@
A
B
C
D
E
F
G
H
I
J
K
L
M
N
O
P
Q
R
S
T
U
V
W
X
Y
Z
[
\
]
^
_
`
a
b
c
d
e
f
g
h
i
j
k
l
m
n
o
p
q
r
s
t
u
v
w
x
y
z
{
|
}
~
¤
¦
©
®
°
·
×
þ
œ
̄
а
в
д
е
и
к
л
м
н
о
п
р
с
т
у
،
ء
آ
أ
ؤ
إ
ئ
ا
ب
ة
ت
ث
ج
ح
خ
د
ذ
ر
ز
س
ش
ص
ض
ط
ظ
ع
غ
ف
ق
ك
ل
م
ن
ه
و
ى
ي
ً
ٌ
ٍ
َ
ُ
ِ
ّ
ْ
ٰ
ی
ۡ
ं
अ
आ
क
ग
च
ज
ट
ड
ण
त
द
न
प
ब
भ
म
य
र
ल
व
श
स
ह
ा
ि
ी
ु
ू
े
ै
ो
्
।
॥
ঁ
ং
ঃ
অ
আ
ই
ঈ
উ
ঊ
ঋ
এ
ঐ
ও
ঔ
ক
খ
গ
ঘ
ঙ
চ
ছ
জ
ঝ
ঞ
ট
ঠ
ড
ঢ
ণ
ত
থ
দ
ধ
ন
প
ফ
ব
ভ
ম
য
র
ল
শ
ষ
স
হ
়
ঽ
া
ি
ী
ু
ূ
ৃ
ে
ৈ
ো
ৌ
্
ৎ
৐
৤
০
১
২
৩
৪
৫
৬
৭
৮
৯
ৰ
ৱ
ં
ક
જ
ત
ન
પ
મ
ય
ર
વ
સ
હ
ા
ી
ુ
ે
ો
્
க
ச
ட
த
ந
ன
ப
ம
ய
ர
ற
ல
வ
ா
ி
ு
ை
்
ం
క
న
ర
ా
ి
ు
్
ಂ
ಕ
ಗ
ತ
ದ
ನ
ಮ
ರ
ಲ
ವ
ಾ
ಿ
ು
ೆ
್
ക
ട
ത
ന
ാ
ി
ു
്
―
†
‡
•
′
→
√
░
■
▬
►
◆
●
★
☆
☺
♣
♥
♦
✍
❏
❤
➡
。
的
️
🌹
🍁
🎶
💐
💕
💖
💝
💞
😀
😁
😂
😄
😅
😉
😊
😍
😏
😒
😔
😘
😜
😠
😡
😢
😭
😱
🙂
🙄
🙏
🤔
🤣
##গ
##ু
##ণ
##্
##ঠ
##ে
##র
##জ
##ো
##ল
##া
##ি
##স
##ন
##য
##়
##ৌ
##ম
##ট
##ই
##ব
##প
##চ
##ী
##ড
##ভ
##ত
##ক
##ফ
##ং
##H
##K
##W
##M
##😔
##এ
##উ
##হ
##e
##w
##a
##h
##o
##u
##g
##t
##দ
##শ
##c
##p
##i
##ಂ
##ಿ
##ಲ
##ঃ
##ূ
##থ
##খ
##ও
##ৃ
##d
##f
##m
##l
##ঁ
##অ
##৫
##r
##B
##n
##y
##ছ
##v
##s
##ঙ
##N
##🙏
##💕
##S
##C
##ষ
##ঘ
##২
##১
##০
##৭
##৬
##ا
##س
##b
##ঞ
##j
##R
##ধ
##и
##н
##k
##ঈ
##ঽ
##৪
##5
##6
##0
##1
##о
##л
##с
##т
##в
##а
##৤
##U
##D
##A
##ु
##र
##ो
##7
##4
##3
##е
##8
##আ
##️
##ಾ
##ಕ
##ವ
##ಗ
##ل
##ْ
##ي
##َ
##و
##م
##ُ
##T
##E
##P
##ৰ
##ৈ
##I
##V
##的
##2
##أ
##ت
##ৎ
##9
##Y
##★
##్
##ు
##ం
##ك
##ن
##L
##F
##x
##৩
##ج
##ز
##ر
##ة
##O
##z
##G
##😠
##😡
##ش
##ح
##৮
##ನ
##ತ
##್
##ು
##ന
##്
##ി
##ു
##ത
##न
##म
##क
##े
##ف
##ء
##ً
##৯
##ग
##ल
##న
##ి
##ِ
##°
##ص
##د
##ّ
##ق
##❤
##💖
##ு
##ர
##ன
##ா
##க
##்
##ட
##ঐ
##q
##ह
##😍
##ி
##ற
##ந
##த
##வ
##ঝ
##ৱ
##خ
##ه
##ை
##ய
##ம
##🙄
##J
##р
##д
##ல
##ঢ
##ঊ
##ঋ
##😭
##©
##X
##Z
##ط
##к
##у
##ా
##😘
##¤
##ा
##ं
##ب
##्
##ण
##غ
##ع
##ર
##ા
##વ
##ી
##ۡ
##द
##ी
##ض
##ക
##ാ
##ട
##😉
##Q
##ન
##ಮ
##ی
##प
##😏
##ट
##×
##ય
##ો
##स
##ٌ
##ರ
##ದ
##ٍ
##ئ
##🎶
##►
##œ
##ப
##ि
##إ
##त
##ક
##य
##श
##آ
##🤔
##ೆ
##😊
##м
##♣
##ब
##ड
##😁
##व
##п
##્
##મ
##च
##भ
##ى
##ذ
##ે
##ત
##ં
##😒
##ै
##🙂
##🍁
##¦
##ज
##ू
##ظ
##😂
##░
##→
##ث
##®
##ٰ
##ુ
##☺
##క
##😜
##જ
##🌹
##😅
##➡
##♦
##ؤ
##♥
##ঔ
##સ
##🤣
##હ
##😢
##💞
##ச
##😀
##◆
##ర
##😱
##💝
##▬
##अ
##✍
##■
##😄
##💐
##●
##आ
##પ
##̄
##þ
##☆
##√
##৐
##য়
##ার
##ের
##্র
##্য
##ান
##য়ে
কর
##্ত
##লে
##কে
##তে
##ছে
##িন
##ায়
##ড়
##বে
##াম
##াল
প্র
##িয়ে
##িক
##ির
আম
##্ব
বা
এক
##াক
##াই
##্ট
করে
##াদ
##িল
না
দে
বি
##ুর
##াস
##টা
##িত
##ন্
##নে
পর
##াত
##টি
##্ষ
##ুল
সে
##য়া
##র্
##াজ
##াব
সম
আর
তা
কি
##েন
##তি
##েল
##্যা
নি
##োন
হয়ে
##রা
তার
##েকে
বল
##বার
এই
যে
##লেন
##দের
##েশ
##চ্
##ন্য
##রে
##িস
সা
##থা
##ঙ্
থেকে
##্প
হয়
দেখ
তো
##ক্ষ
##না
পা
পার
##খন
##গে
##নি
##ন্ত
মা
##াদের
আমি
কা
##্ম
##ুক
##য়ার
##কার
##নের
##দ্
##লো
যা
##ছেন
##্থ
##ুম
##সে
##ছি
##ষ্ট
##ীর
দি
##ানে
নে
কে
আমার
##লা
##ুন
##ন্দ
##িনি
##ধ্য
দু
জান
কোন
##াকে
নিয়ে
সব
##িন্ত
##ছিল
##াগ
##বি
আস
##াপ
বলে
##ড়ে
##ছু
##োগ
জন্য
এব
দিয়ে
এবং
##োর
##তা
সং
##াবে
##দ্ধ
মে
ব্য
মু
##াড়
করা
##ুষ
##্তি
কিছু
কথা
হবে
এর
কিন্ত
কার
##পর
##জন
করতে
কিন্তু
##্ন
##তো
##িশ
##ওয়া
মান
রা
##্ল
তাঁ
অব
থাক
পরি
##কা
##মন
আপ
##্ড
সু
##ীয়
##চ্ছে
##দি
স্ব
##স্ত
অন
নির
একটা
##াহ
##িয়া
##টে
##্রে
তিনি
ছিল
বিশ
##িতে
খু
##িম
##থে
সর
##ঙ্গ
প্রতি
ভাল
যায়
##ন্ধ
##াঁ
##্চ
নিজ
##ারা
##েষ
আছে
উপ
অনে
হয়েছে
##েলে
##দিন
##ৃত
##লাম
##মে
##খে
মধ্য
সেই
##োক
বে
শু
##াতে
কো
অভ
একটি
##ঙ্গে
##গুল
নাম
##্ক
চে
মনে
আজ
সময়
বাড়
##াকা
দিন
রাজ
বাং
এখন
##মান
কাজ
তোম
##িয়
##্দ
##াত্র
অনেক
##র্ত
বু
বেশ
##রের
##িজ
##নার
##্জ
মানুষ
##বা
মধ্যে
##খানে
পড়
##ীব
##োট
##্যান
##ভাবে
##্ঠ
আমাদের
##ুরু
সঙ্গে
সাম
##ত্ত
##ারে
পে
##ওয়ার
##ন্ত্র
গে
##ান্ত
##য়ের
দেশ
সাথে
##স্থ
রে
##্স
##যোগ
##লাদ
##িব
##ত্য
করেন
উঠ
নেই
ব্যা
এসে
ভালো
কম
ক্ষ
সি
##মা
তাদের
সম্প
আমরা
##্ঞ
##ীন
##লের
##ানের
##স্
কাছে
##ত্র
তাই
বলেন
ব্যব
জন
মো
বছ
অন্য
গ্র
কোনো
তবে
##রি
##লাদেশ
প্রথ
##ক্ত
##হার
বিশ্ব
বাংলাদেশ
নয়
##চার
##গ্র
আগে
##কের
গেল
##টার
গিয়ে
তখন
তাঁর
দিকে
##বেন
##ানা
##ুমি
##ূর
##িক্ষ
খুব
##চে
##গুলো
##েম
কেন
আল
বড়
##স্ট
হাস
##িং
শেষ
##েই
তুমি
শুরু
থাকে
সহ
এমন
##সব
করার
অর্
লা
যদি
গো
##পুর
##প্র
লে
রাখ
##er
##্ভ
##্যাল
##ুদ্ধ
চল
##ল্প
ভে
বিষ
##ধান
##জে
হচ্ছে
ভার
##েলা
##োধ
পারে
চো
পুর
চলে
আবার
প্রথম
সরকার
২০
মি
পড়ে
##ড়া
কারণ
##টু
##ছিলেন
##ানো
মহ
ঠিক
জীব
আই
হলে
বিভ
কী
লাগ
##তার
কর্ম
বন্ধ
তারা
##ংশ
দেখে
##কাল
ওই
১৯
তু
##র্ণ
##ুক্ত
বুঝ
আব
বির
প্রশ
##ূল
##াড়া
##িপ
##সা
##েক
তোমার
দেখা
হাত
##ঁচ
গত
ঘট
বার
##ক্র
##রণ
হিস
মতো
##কাশ
হতে
##িকা
ওর
মন
নিজের
##ওয়
কেউ
##ঞ্চ
##টির
##চ্ছ
##ড়িয়ে
অপ
##ষ্ঠ
মার
##বাদ
##ন্ড
##্বা
যেন
আশ
##িকে
##স্থা
ভাব
##ধার
একটু
##ঞ্জ
##ধু
##he
আলো
ধরে
আগ
##in
পরে
গেছে
মেয়ে
অনু
##on
মুখ
দুই
##কি
ধর
##োল
##চিত
##িকার
##ৃষ্ট
চাই
লোক
##ানি
এল
বছর
##থায়
পুল
দিতে
অভি
পর্য
##াশ
শিক্ষ
##ীদের
##বাস
আমাকে
##ন্ট
##ীত
ফির
##্লা
##ন্দ্র
##িন্ন
তাহ
অস
হল
##ামী
লি
##ুত
হই
##্বর
##ালের
##ারের
পুলিশ
পাশ
তিন
বেশি
আদ
##an
অধ
##র্ম
সাহ
এত
নত
##ুপ
মত
##য়েছে
শুধু
##েন্ট
##ার্থ
হলো
মাস
আন
##িদ
বের
##বর
যখন
নতুন
ইউ
যাবে
হাজ
দাঁ
টাকা
ছি
বিদ
##সি
##ক্তি
ছেলে
##ar
##তেই
##স্য
একজন
ভা
চার
স্থ
##শ্চ
##িউ
এটা
উত্ত
##কম
ক্র
##লার
ভারত
##or
বলল
##ক্ষে
চাল
##ণ্ড
বো
##াকার
##ণা
করেছে
##র্শ
হিসে
মাঝ
রো
আপনার
তাকে
কাল
##য়েক
আরও
দেওয়া
দ্ব
আপনি
বসে
##ায়ের
##য়ো
দিল
প্রায়
##াট
ভাই
##পি
সবাই
##ুদ
##ুক্তি
বাস
পর্যন্ত
ছোট
##তিক
চোখ
আহ
গা
##ুট
হিসেবে
স্ট
##at
##প্ত
##ন্ন
##জ্ঞ
পাক
কয়েক
##ণের
জাত
করি
##বো
খে
বর
ব্যাপ
পি
লেখ
দল
ইস
বস
বলতে
দেয়
##দে
কত
দর
##িস্ত
হার
##োষ
##ব্য
কখন
সদ
কল
সার
##াড়ি
##ীল
তৈ
রয়েছে
##ূপ
করেছেন
দুর
##িতা
হাতে
পাল
শহ
করছে
বাবা
শ্র
নার
যেতে
##জা
প্রধান
##es
##ডি
সামনে
উঠে
##শ্য
##ছিলাম
তারপর
##ক্ষা
এখানে
##াস্ত
##াতা
সো
সেটা
##ুব
ট্র
বিভিন্ন
##ূর্ণ
##াধ
বাড়ি
ছবি
হে
##ত্রে
ছিলেন
##িনা
হাজার
সত্য
এবার
প্রা
##en
পারেন
##্যাম
দেখতে
বিষয়
মানুষের
স্ক
##টের
##্যার
##ষ্টা
##িৎ
তাহলে
নির্বা
১০
বাই
রহ
সালে
the
হো
##ষ্ট্র
পাঠ
##ীরা
##বর্ত
মৃত
##ড়ি
রেখে
##টাই
##্যের
##েব
মাম
##ন্ম
মূল
##ীতি
##চ্চ
##সম
##াও
দেশের
ছাড়া
প্রকাশ
উদ
##al
সেখানে
##্রি
##্যে
##ভাব
##নায়
নিয়
তাক
উপর
সম্পর্
##ধারণ
##োনা
##সের
সভ
পেয়ে
##বেশ
##ুণ
##্লাহ
ডাক
##েরে
রাত
বলা
ভাবে
##র্থ
গ্রাম
##বু
পরিচ
##ুদ্ধে
গুল
চেয়ে
ইসলাম
ক্ল
অবস্থ
প্রত
##বিদ
##ন্ত্রী
অর্থ
##্যান্ড
সম্ভ
##াবি
যোগ
##োপ
##ক্ষণ
অফ
বললেন
উদ্
##ীগ
##িয়ার
##ন্দর
##ত্ব
##মিক
##ুষ্ঠ
##োঁ
জীবন
নাই
##ালি
##দিকে
তুলে
পাকিস্ত
কু
##গর
##ীতে
##্যাপ
শর
রাজন
##্লে
অংশ
##ধা
বৈ
বহ
শে
##্বে
##লায়
ফিরে
ঘুম
করবে
##লেই
নাক
চা
নির্বাচ
##ুজ
##েরা
বিশেষ
##দেশ
##ানোর
খা
যাচ্ছে
##লি
##মি
চেষ্টা
##কর
##াবার
মাঝে
পো
আত
##লেও
পাওয়া
ধার
##ৃষ্টি
স্প
সক
উৎ
##িন্দ
পৃ
মাধ্য
সর্ব
ব্যবহার
আসে
ছাত্র
##ৃতি
টি
##জার
##ায়গ
##েলার
২০১
মিল
##িনে
##বল
পৌ
বৃ
##it
হয়েছিল
##জি
##াৎ
ফোন
হা
##ুঁ
এম
জায়গ
এসব
তে
ওপর
জানা
নিজে
##িত্ব
##ঠে
দায়
তৈরি
অত
##সার
##ালা
##য়োজন
উল
বিপ
##ou
দেন
##শন
বাংলাদেশের
টা
তাঁদের
##িজ্ঞ
##ুকে
##om
বই
প্রক
দী
লক্ষ
শুন
##িত্র
##ed
প্রশ্ন
##দী
##ভার
এগ
##is
##বী
উত্তর
##িস্ট
বয়
##দার
##পে
মৃত্য
##স্ক
##াইল
যত
স্ত
অভিযোগ
##ুগ
সূ
##াইন
##গ্রহ
##ুলে
আট
ম্যা
ভূ
##্ধ
প্রতিষ্ঠ
রাস্ত
##চনা
বিরুদ্ধে
কলে
অথ
##গত
নিশ্চ
একে
অনুষ্ঠ
##াকায়
জল
তুই
জে
##বাব
বাহ
গণ
পূর
ঘরে
##nd
কাঁ
খবর
ব্র
##ষ্
ক্ষে
ছে
##শি
তুল
শুনে
##খান
##ব্দ
##িনী
হয়নি
জাম
##ৈতিক
গল্প
পদ
একই
নাকি
অবশ্য
জানিয়ে
নিতে
ভাষ
ফেলে
ঘটনা
কারণে
##য়ন
সম্ম
ব্যবস্থা
মুক্তি
কব
পরিবার
শিশ
গেলে
পরী
ভালোবাস
##ায়ী
সদস্য
সাধারণ
তথ
হওয়ার
##চ্ছা
ওকে
##ন্স
##বিদ্যাল
বাঁ
মাল
অফিস
উপজ
##াসের
পাঁচ
আপন
হত
ইতি
মাধ্যমে
সাং
ফেল
অন্ত
স্থান
টে
হঠ
বিক
ঘুর
জাতীয়
কেমন
গান
##ঙ্ক
বান
পান
পৃথ
বাড়িতে
হয়তো
##সল
মুখে
যান
##ing
ভয়
##শা
মাত্র
আরো
##্যাক
ভুল
দেশে
##ic
ঢাকা
##মন্ত্রী
##০০
##ীরে
##েস
থাকা
সালের
দলের
যেমন
খেল
ধর্ম
ব্ল
বুঝতে
পারি
##এন
##তাম
থাকতে
বিশ্ববিদ্যাল
যাই
হ্যা
আত্ম
আইন
তাঁরা
##ভা
থেকেই
স্ম
##ীকে
##ুখ
##দা
খান
##ণে
তোর
পথ
##ুটি
ব্যক্তি
##টো
সম্ভব
বাইরে
##াসে
##রম
রহমান
দাঁড়িয়ে
##as
মানে
##তম
##কর্ত
##বেদ
হঠাৎ
##গ্রাম
জন্ম
কোনও
of
গুরু
##খ্যা
আয়
গতকাল
##াদা
ডি
বিয়ে
যুক্ত
ভিত
##িখ
##িল্প
##জনের
জানান
সুন্দর
নেত
মাথা
খুঁ
যার
চি
একবার
চিন্ত
কখনো
যারা
কোথায়
##োর্ট
দূ
স্বপ
তর
ছেড়ে
কর্ত
##হে
ওদের
রান
তথ্য
শব্দ
##সেন
জানতে
তাঁকে
চোখে
##দ্র
দশ
##বাহ
জানি
##ান্য
##le
ভি
কাম
এটি
চিক
ক্ষেত্রে
বিষয়ে
তাকিয়ে
##তন
সৌ
এস
ঘোষ
##কেই
##এস
আকাশ
দাবি
নামে
##কালে
##াক্ষ
হাসপ
রাতে
বিশ্বাস
পাশে
##হত
প্রস্ত
##ফল
##ট্ট
##জ্জ
ভেত
যাওয়া
লেখা
বন্ধু
বিচার
হন
##হা
স্
বোঝ
ভাগ
কর্মকর্ত
##ion
পুরো
##মাণ
ফলে
##র্ড
##ালো
##িটি
##সহ
পৃথিব
প্রেম
সিদ্ধ
বছরের
কষ্ট
##re
শেখ
বর্ত
সাই
ক্ষম
খার
থাকবে
##াধীন
লীগ
সন্ত
পায়
ফের
তোমাকে
##ুলের
ধরনের
নম
##জাত
রাষ্ট্র
ওরা
যাওয়ার
কলেজ
কাউ
এগিয়ে
সমাজ
কিং
কেন্দ্র
পরিচাল
দিয়েছে
বাংলা
##্বাস
##স্যা
##ম্প
ভর
##তায়
২০০
সুযোগ
কাছ
জিজ্ঞ
##চ্ছেন
উন্ন
##খ্য
##বন্ধ
সময়ে
স্বাধীন
ব্যাপার
##েশন
গ্রহ
##মের
##িট
রকম
##কারী
এরপর
ফে
জো
কৃ
মুহ
করলে
যুদ্ধ
সত্যি
একা
ছাড়
বিল
##ভূ
ইন
বদ
##সর
বললো
##ভি
সরকারের
উই
প্রয়োজন
আওয়
##ক্স
চিকিৎ
পরিস
খারাপ
##্রী
এসেছে
##চ্ছি
##দান
হাম
বাজ
##ad
চৌ
কান
##ধুর
##ায
জেলা
যাব
১২
##ালী
জয়
##তের
সুর
আরেক
to
নির্ম
সবার
ইউনি
দেব
করিয়া
##চেয়ে
##্বল
আওয়ামী
রূপ
সমস্যা
লিখ
##ুরি
পূর্ব
জু
দক্ষ
হাঁ
##েলের
##পার
তাতে
সাল
আক্র
দেখি
ঘর
##মার
প্রে
চাক
হোক
হলেও
##র্ঘ
##ক্ট
বিজ্ঞ
এতে
দাঁড়
##il
চাপ
সবচেয়ে
মুসল
##িরা
সংগ
##িফ
সকল
##েম্বর
পৌঁ
চায়
ইং
##ুয়ার
সম্পর্কে
##নিক
আসলে
নিজেকে
কিছুই
##ot
##ছিলো
অম
ভেবে
##যো
করছেন
##িলা
in
রক্ত
##্না
করুন
শিল্প
সকাল
নির্
তবু
১১
বেরিয়ে
##াদক
লাল
##াউ
শাহ
আল্লাহ
করল
বক্ত
পাই
১৫
বাড়ির
দেয়া
সিদ্ধান্ত
একদিন
হওয়া
আন্দ
তাল
সভাপ
সী
করবেন
##am
শাস
গাড়ি
##নাকে
ছিলো
গ্রে
নির্বাচন
পত্র
আদাল
##ভে
দ্র
খো
##পন
##স্ব
দরকার
##জর
##িয়ান
রাখা
কার্য
নানা
নির্দ
##রাধ
এখনো
দ্বিত
সাত
ফুট
হোসেন
পু
দেওয়ার
##ুকু
মর
কিংবা
##াদি
রাজনৈতিক
##্যাস
দায়িত্ব
##ানার
শরীর
প্রাণ
কথ
##বান
প্ল
ওয়
কোটি
প্রত্য
বলেছেন
##ংস
মায়ের
সির
হ্যাঁ
সারা
দূর
ভারতের
##াস্থ
দুটি
and
লাভ
প্রচ
ফাঁ
##পা
##্রম
দ্বিতীয়
##সং
##গুলোর
##ারি
১৮
##াে
পথে
অপে
##স্প
##পূর্ণ
##স্থিত
##টাকে
চেয়ার
কাজে
দিনের
##কদের
##োয়া
মাথায়
##ন্ত্রণ
নারী
ক্রিকে
##াফ
লাগে
আসতে
মোহ
নেতা
যেখানে
মৌ
সেদিন
##মাত্র
গু
ভোট
বিএন
ব্যাপারে
ঘটে
##ন্দে
এলাকায়
##াণ
##ষণ
আগেই
##হি
ওঠে
##শে
##ীক
দীর্ঘ
##তু
##el
গুরুত্ব
##ায়ক
##টিতে
কন
সাজ
দোক
নেওয়া
করলেন
পরিবর্ত
##যুক্ত
##আই
কাট
##ন্টার
##াম্ম
লাই
অতি
বিভাগ
##র্ক
##হাস
##ান্ড
জিন
অবস্থা
শ্রে
দিয়েছেন
##জনে
আন্দোল
##ান্তি
##ৃদ
খেয়ে
নী
মোট
##িকের
গাছ
##ছো
রোগ
সাহায
##পের
##ধে
##ঙ্গল
##াপ্ত
অপর
##দন্ত
নিরাপ
##িরে
দুঃ
##দর্শ
শত
প্রার্থ
লাখ
বললাম
দাম
##ানী
নির্দেশ
নিজেদের
উদ্দেশ
##স্কার
##ay
ওয়ে
স্থানীয়
##ূর্ত
বেঁ
আছেন
##ol
শুক
পশ্চ
##ঠন
##খা
নীল
##পক্ষ
কলক
পুরুষ
শেষে
রুম
##বির
সংবাদ
##রাষ্ট্র
##et
স্বপ্ন
##দুল
সরকারি
শক্তি
মেঘ
কোথা
অস্ত
##চিত্র
##ছনে
মনের
সংখ্যা
পারবে
শিশু
##হীন
মৃত্যু
এভাবে
##চের
রাখতে
আন্ত
##ংক
করেছি
##ুদ্র
##পত্র
খুলে
জীবনের
##ধি
নিউ
নেমে
##ুটে
##ড়াই
##তির
আগের
চলছে
চুপ
মিনি
##কেল
গুলো
রায়
মারা
##টায়
চৌধুর
মিশ
চট্ট
জানে
##বেদন
গেলো
##চ্ছিল
##st
##িনীর
##পাশ
উল্লে
চিন্তা
##ম্যান
##াস্ট
th
##্থিত
পানি
##ুই
বাস্ত
ডে
আসছে
##গঞ্জ
##েনি
উচ্চ
নিল
বাদ
##বর্তী
বলি
##টুকু
বন্দ
##িণ
প্রশাস
##ওয়ায়
উপস্থিত
বাবার
##াতের
গোল
বুক
বিদেশ
##োভ
আফ
##নী
পরিস্থিত
সেন
বাত
আশা
পশ্চিম
সম্পর্ক
মেয়ের
গর
অন্ধ
##কেট
সকালে
##ঠি
হইয়া
##িত্য
লিখে
##ঙে
নিয়ম
সমর্থ
দুটো
জ্ব
##পির
যাত্র
বয়স
জম
থাকলে
করছি
##ম্ভ
করলাম
স্যার
মানব
গ্রামের
সভাপতি
পরিবেশ
##্তে
##্যাট
মাহ
##চি
বোধ
##য়াল
সাহেব
প্রিয়
##ডিও
১৯৭
৩০
হারিয়ে
হাসি
সমস্ত
##েলায়
সংস
সম্পাদক
কেটে
গ্রহণ
খাবার
জাহ
##্যাম্প
কর্তৃ
##ent
##িগ
চোখের
পছ
##রিক
কঠ
পাকিস্তান
তেমন
থাকার
কথায়
সাব
আধ
দার
গভ
একদ
জন্যে
কর্মকর্তা
ধীরে
দুপুর
পক্ষ
সৈ
হুম
##ডে
কেবল
##ow
শতা
##রী
##সূ
ডিস
জায়গা
চর
শুভ
##ম্ব
##োহ
##নাথ
বাকি
ফুল
##বন
সপ্ত
খেলা
সম্প্র
আঁ
বাল
যদিও
বিরোধ
##গা
দেবে
ঘুরে
সহজ
##ac
পেল
আসা
##রত
অবাক
##ুতি
পক্ষে
ঘোষণা
##ছাড়া
##টিং
##েনা
##্যাগ
অথবা
শিক্ষা
##ড়ার
চান
এখনও
করেছিলেন
নেয়
##ানায়
দূরে
সৃষ্টি
১৪
তৃ
পুলিশের
##ীকার
বহু
দ্রুত
উদ্য
অথচ
অন্যান্য
জনগ
মামলা
বাঁচ
জায়গায়
আসবে
বাঙ
বাব
গবে
হতো
খেতে
বিষয়টি
উদ্ধ
বক্তব্য
বেড়ে
আপনাকে
##্টা
করলো
##মুখ
মার্ক
##বেক
উল্লেখ
মাই
##ধ্যায়
বৃদ্ধ
##িভ
অধিকার
হেসে
##শীল
যুব
চট্টগ্রাম
জীবনে
নিশ্চিত
##ec
##ur
##িনের
##িতার
ওঠ
নম্বর
গাড়
##যায়ী
আছি
##ায়ে
কুম
দিক
রাগ
হাই
সন্ধ
আমের
দিনে
আচ্ছা
অপরাধ
##াযোগ
##সময়
খুঁজে
হত্যা
পেরে
এতো
পরীক্ষা
উনি
ব্লগ
ইচ্ছে
বিন
পর্ব
দুর্
ভারতীয়
##োনো
##ল্পনা
উচিত
##াশি
##শেষ
পূ
স্কুল
কাপ
##ভাবিক
ড্র
ফ্র
বঙ্গ
ডাক্ত
##ir
হাল
ধরা
স্বাস্থ
##ডেন্ট
আনন্দ
সুবি
তদন্ত
এন
নিষ
কৃষ
কোথাও
ওয়ার
জিনিস
বৃহ
যাতে
পরিবারের
##বারে
প্রথমে
নাট
বর্ণ
জ্ঞ
##গুলি
অনুম
##বিষ
সাক্ষ
অবস্থায়
আলোচনা
পাশাপ
২৫
অভিন
বলেই
দিলেন
স্ত্রী
পাশাপাশি
##ামা
১৬
কিছুটা
পরিষ
শিক্ষক
ফার
গড়ে
পড়তে
যৌ
বন
সড়
করেছিল
##জিব
আলী
করেই
সন্তান
সাহায্য
মুক্ত
সুখ
দৃ
এনে
১৩
শিক্ষার্থ
##োনে
অশ
কৌ
##ষ্কার
কমিশ
আগামী
চাঁ
রু
##ঘাত
নামের
##্নে
বাস্তব
##জের
খোঁ
জর
করিতে
কাজের
যোগাযোগ
লীগের
##দ্দ
পরিচয়
ছয়
ঘরের
করব
বোন
##ak
ফল
দক্ষিণ
##াতালে
ভাঙ
পাত
পরীক্ষ
##ট্র
##সিক
##বস
##তী
##id
অনি
বাচ্চ
##ার্ট
##ফে
##হের
লক্ষ্য
শতাংশ
টাই
##মানে
স্বাস্থ্য
তত
ভেঙে
পরিক
এলো
##তর
প্রধানমন্ত্রী
##ুয়ারি
সন্
##ছিস
নব
দুজন
নিক
খর
##্নের
মিথ
শিব
##এম
সূত্র
##ut
অনুর
সংশ
বাংলাদেশে
চৌধুরী
ভালবাস
##াসা
নদ
হাসপাতালে
##শোর
##ামে
##াহী
আন্তর্
##োনার
##জাতিক
##টিকে
দের
টেক
সফ
অনুযায়ী
অবস্থান
পার্ট
ক্ষতি
থাকেন
পুন
##াদার
##ায়া
খুবই
মোব
বর্তমান
হক
##বহ
জোর
##াম্মদ
পরিচিত
মার্চ
বিদ্য
আসার
মুহূর্ত
##লী
অজ
আলাদ
বাসায়
##িসি
##ন্তব্য
হৃদ
##োদ
পারবেন
যুগ
##খি
আক
আন্তর্জাতিক
##ামের
পোস্ট
ব্যবস
পেতে
ঢুক
তোমাদের
প্রচার
স্বা
বিশ্ববিদ্যালয়ের
কিভাবে
##মণ
রাস্তা
নেতৃত
##ুস
উৎস
উপজেলা
আপনাদের
আমায়
দৌ
কালো
##ve
খুল
দুঃখ
অন্ধকার
কিনা
হইতে
সাংবাদ
বিব
জি
পাহ
১৭
বলছে
শহরের
মন্দ
##্টার
##বাজ
##টন
দর্শ
অর
##াজিক
##িলের
পছন্দ
জিজ্ঞেস
বাগ
আলাদা
দরজা
সোম
অ্যা
রঙ
##জীব
অসু
এলাকার
কোম্প
ভর্তি
মস
গিয়েছে
অপেক্ষা
তাড়
বিমান
বরং
তারিখ
নিরাপত্ত
কই
এদের
মাছ
##ংগ
##ষ্ণ
বেলা
নজর
বাবু
ইত্য
জড়িয়ে
অল
##্লি
##্কা
পালন
মেনে
কাউকে
##ফা
সপ্তাহ
ভেতরে
পড়েছে
ওয়া
##চা
##ডার
নিহত
ব্যক্ত
##াক্ত
মালিক
com
হয়েছেন
জড়
##থি
বাজে
বৈঠ
অর্থন
প্রতিষ্ঠান
বলার
তাহার
ঘটনার
##াইট
##র্গ
নিচে
##মেন্ট
##ig
ইন্টার
শ্রমিক
ঘণ
অঞ্চ
সাংবাদিক
##িন্দু
স্বামী
সূর
টিউ
##শী
উপজেলার
জঙ্গ
লেগে
##্তা
উপরে
ঢুকে
##ul
##াবাহ
ক্ষমতা
অর্থা
মুসলিম
খুশি
##্রেস
লো
##মকে
শহর
রাম
জার
##পরে
দা
##ভাগ
##াইয়া
শান্ত
##ৃহ
নো
##ro
মাসে
বুদ্ধ
##বের
##মূল
ত্র
আবদুল
সময়ের
অর্থাৎ
খাওয়া
কবিতা
চেয়ারম্যান
##োজ
##ময়
##ুকুর
ফেসব
তোমরা
পড়া
সাড়ে
স্বাভাবিক
ভী
##্যাত
##ড়ায়
গেলাম
পরের
##বাবু
পাকিস্তানের
বিজ
প্রমাণ
##ভাই
##লেট
উদ্ধার
##িটির
নৌ
##েনার
##লাপ
টাকার
নিশ্চয়
পরিবর্তন
পঞ্চ
আহমে
প্রস
দাব
শ্রেণ
কোর
রই
তরুণ
অস্ত্র
ধারণা
করো
নিম
##im
##্যাব
হাসপাত
বুঝে
পাগ
মঙ্গল
কঠিন
ইম
##কো
ভাবতে
ডাক্তার
কারো
সঙ্গ
ইংরে
রাজনীতি
##পতি
একদম
##ীতির
প্রেসি
প্রভাব
ম্য
কখনও
ভুলে
##জিত
বলছেন
গভীর
শুনতে
মিলে
নির্ব
এরকম
শান্তি
##রণের
##দ্দিন
##িমা
বিয়ের
গুরুত্বপূর্ণ
মূল্য
##ড্ড
ম্যাচ
পৃথিবীর
##র্ষ
দিলাম
চিকিৎস
##ক্য
##িয়াল
১৯৯
একমাত্র
গায়ে
বৃষ্টি
##ণ্য
##স্ম
টেস্ট
দিলে
##ন্থ
##িকায়
##তর্ক
কম্প
##ত্তি
মধ্যেই
দাও
দ্বারা
##পাল
রি
প্রতিনি
রিপ
কাগ
মেড
##শার
টেল
উঠল
সামাজিক
ব্রি
প্রস্তাব
##ag
##াতার
##ায়ন
হত্য
গলায়
লাগছে
##িয়ন
মার্কিন
ময়
অনুস
##থার
অবশ্যই
দিচ্ছে
বেগ
বাধ্য
ভূম
উৎপ
##ানির
নাগর
##াবাদ
##ho
##কিছু
##য়নের
প্রকল্প
কর্তৃপক্ষ
##মত
ইত্যাদি
##ডের
রাস্তায়
##লিক
##ল্যান্ড
অভিয
শো
মুক্তিয
সন্দে
এদিকে
গ্রেপ্ত
জেনে
প্রকৃত
##পুরের
অগ
##কর্ম
##ামি
##্নি
গেলেন
##িনার
বিস্ত
জুল
##ধ্যে
রাস
##িয়েছে
ফর
পেশ
##র্য
ভাষা
প্রতিটি
রং
কবি
২৪
##ation
লুক
দেখলাম
রাজ্য
বৌ
##টাও
ভবিষ
মিস
ঈশ
ইতিহাস
আমিও
কাঁদ
প্রবেশ
বিশ্বের
চির
ছড়িয়ে
##াতি
##িরের
কাক
ধ্ব
পাওয়ার
সম্মেল
ঠাক
বিশ্ববিদ্যালয়
প্রেসিডেন্ট
সাবেক
তোকে
মন্তব্য
##ীদ
##ুড়
যাক
##শের
##র্ধ
প্রতিদিন
ভবিষ্য
এক্স
অনেকেই
ভেতর
##িক্ত
দেখার
##us
করোনা
শি
ট্রেন
আস্তে
নিঃ
দখ
গুলি
you
বিশাল
বর্তমানে
সিং
##ূহ
##শ্বাস
##িত্ত
চলচ্
মুজিব
পৌঁছ
ঘটনায়
##ab
মেরে
সংস্থা
##োয়
পল
সংস্ক
বিক্রি
ঘো
ব্যস্ত
আচ
চুল
is
##ুৎ
বিনি
হিসাবে
##যোগ্য
থাকি
##ভব
##চিব
##প্রিয়
মৃত্যুর
##ফি
ক্রিকেট
পেছনে
##য়র
পাব
হলেন
বাণ
পূর্ণ
##িপি
##আর
বউ
দৈ
চিঠি
এমনকি
গ্রামে
##োপা
চিত্র
আয়োজন
ব্যাংক
বাজার
যুক্তরাষ্ট্র
মজ
ভিডিও
পিছ
##চক
##্যান্ট
বেঁচে
আরে
অন্যতম
##িয়ায়
##াগুল
রয়ে
আক্রান্ত
##োস
##হারা
আলম
##খানা
শক্ত
ভালোবাসা
গবেষ
সুপার
জানিয়েছেন
##্যায়ে
আহত
পৌঁছে
বিভাগের
সম্ভাব
শহরে
##ড়ের
বিছ
##সী
চলা
অন্তত
শিখ
সেল
একেবারে
বেশী
##তন্ত্র
ইচ্ছা
কয়েকটি
হাতের
##ান্তর
প্রাথ
বঙ্গবন্ধ
পেলে
আন্দোলন
সংক্র
দোকান
আহমেদ
নদী
##ণ্ঠ
যন্ত্র
চাকরি
##য়োগ
বিজে
##্ণ
##ঘট
কাঠ
শুক্র
বিএনপির
বছরে
##ব্র
সবাইকে
স্মৃতি
৫০
থাম
##ঙ্গা
##াতায়
২১
##য়েন্ট
প্রাথমিক
শনি
কথাটা
##াত্ম
প্রতিবাদ
বস্ত
থানার
ফ্ল
দিয়া
##ter
কিশোর
বলছি
মাঠে
##াতাড়ি
##োয়ার
লাগলো
##চল
রেল
##াসী
##্জন
উঠেছে
অনুষ্ঠানে
ডেকে
যাঁ
এরা
চলবে
জমা
##্লো
নিজেই
স্থা
##স্ট্র
ছিলাম
##ষ্টি
কেন্দ্রীয়
পরিণ
মানুষকে
টান
লাগল
বুকে
পরিচালক
দোষ
ফিল
মোবাইল
জগ
##চু
জ্ঞান
কমিটির
রিক
##রো
##ঢ়
কমিটি
তৃত
পায়ে
লজ্জ
বিধ
বর্ষ
নেওয়ার
খাদ
২২
ইন্ড
আবেদন
বললে
আপনারা
সীমান
বলো
চাইলে
সহযোগ
টেনে
মহান
ভো
##ত্ত্ব
##un
জানায়
20
চিৎ
করবো
নেন
আনা
ফেব
ছেলের
ভয়ে
##প্রাপ্ত
বিকে
##কাপ
স্বাধীনতা
অনেকে
পরিস্থিতি
##ুরা
আগুন
পাহাড়
মাত
##থর
চিন
অত্য
সেটি
আসেন
ভাস
##নো
পাবে
গিয়েছিল
খরচ
মাসের
বুধ
বদলে
পারেনি
সম্পূর্ণ
##ঠিক
##লীগ
কারও
##কেরা
কমে
তাড়াতাড়ি
পড়ল
এপ্র
শা
কিন
##ver
পুরস্কার
সাদা
পাশের
সোমবার
##ান্দ
রাখার
নাগরিক
শুয়ে
পোশ
##্রিক
##্রয়
মহিলা
বৃহস্প
চালিয়ে
শীত
জানেন
ক্যা
on
নির্বাচনে
মন্ত্র
মোহাম্মদ
##ক্ষেপ
রাজধান
পরবর্তী
দৃশ্য
##ইন
সিন
করতেন
for
হাসান
##াম্প
জনের
খুন
শিকার
খেলে
##দ্ধা
ডিজ
সেখান
উপায়
ভিত্তি
তাও
শনিবার
##ায়ার
অল্প
রাই
##োতে
পরিকল্পনা
##প্ট
নভ
বৃহস্পতি
আগ্রহ
##উট
নিয়েছে
##কল
##ানিক
বিজ্ঞান
উঠলো
সঠিক
##তুর
চিৎকার
ফেব্র
ঢাকার
##দিষ্ট
##ch
নষ্ট
##ুয়ে
##ফিক
##রূপ
এটাই
গতি
গ্রেপ্তার
ভিন্ন
বাজারে
তৃণ
কারন
উপল
##িকেল
নদীর
শুক্রবার
আজকের
দ্য
##গো
অভিজ্ঞ
গেছেন
তবুও
ছোট্ট
##os
চালু
##জন্য
দেখিয়ে
লড়াই
রাহ
বোর্ড
উদ্ব
কাটা
প্রকাশিত
সদর
লোকজন
ভদ্র
গলা
##াতেই
মিনিট
সন্দেহ
এমনি
##র্জ
সম্মান
##ুয়া
উন্নয়ন
জবাব
যাও
##টিশ
রান্না
সূর্য
শির
##দ্ব
##শল
আজকে
বুধবার
তিনটি
স্পষ্ট
বৃহস্পতিবার
##um
চলচ্চিত্র
তৃতীয়
##ঙ্কা
প্রত্যা
দফ
মুর
আলোকে
বিদ্যাল
বোঝা
সংগ্রহ
কংগ
##কারি
##ন্দের
অনুষ্ঠিত
ছুটে
প্রভ
ঠাকুর
দৃষ্ট
সবকিছু
##দিক
এলাকা
##স্থার
দিলো
মঙ্গলবার
আদালত
মুসলমান
##ুধ
##od
উঠতে
প্রার্থী
বাসিন্দ
##বেগ
সর্বো
The
হিন্দু
##ha
ক্লাস
##ান্স
চিকিৎসা
##গান
##হ্ন
ওখানে
##ly
##রির
কয়েকজন
চলেছে
##em
##রাজ
সূত্রে
পেয়েছে
##খ্যাত
অদ্
দৃষ্টি
বিবে
কিছুক্ষণ
মানসিক
জেনার
অ্যান্ড
বিশ্বকাপ
তৎ
সফল
রাতের
বলেছে
মনো
সুম
গরম
পাস
সহায়
চাহ
হবার
কর্মসূ
আটক
সুবিধা
শ্রী
ইর
সামান্য
মুখের
অনুষ্ঠান
ধন্য
লাশ
##সুম
অভিনয়
##ৃতিক
দো
সেরা
##ুনি
বারবার
সন্ত্র
অগ্র
দেবী
লাগবে
২৩
প্যা
পদ্ধ
অত্যন্ত
পড়াশ
##কুম
##দিনের
##রস
বাহিনী
পের
ছবির
পড়ুন
বলবে
কিনে
##িও
খোলা
গৃহ
##ঙ্খ
সংগঠন
অস্ট্র
পোশাক
৪০
স্কুলে
শার
ডিসেম্বর
ছাপ
নির্ভ
##সন
মাদ
##ভুত
বেল
দলে
যেত
সামরিক
জন্যই
##her
বেড়
স্বীকার
##ক্ষম
রোব
জেলার
অধ্যাপ
১৯৬
গ্রুপ
হয়ত
মাঠ
যায়নি
বাংলার
##ন্ত্রণাল
##েশনের
উদ্দেশ্য
যাবার
গার
##হর
##ভাবেই
জনপ্রিয়
পড়ার
টিক
সুন
রোজ
আহ্ব
##এফ
অক্ট
রাজা
##হিত
19
মতে
##পাশে
কানে
##ীর্ষ
##ামর্শ
ঢাকায়
কাহ
##ীপ
##ূন্য
ইউর
সড়ক
স্বার্থ
বুঝি
ভেসে
প্রব
মন্ত্রণাল
রক্ষা
কীভাবে
##াউন
##াদে
ভূমিকা
শীর্ষ
ধর্ষ
##াসরি
হেল
জানানো
খালে
করিয়ে
পত
##েনের
কিল
বাধা
##ist
বৃষ্ট
প্রতিযোগ
আহম
পরামর্শ
সরাসরি
##িমি
সত্যিই
##েধ
দীপ
বিজয়
প্রণ
ক্যাম্প
##িয়াম
বাঙালি
জাগ
ইয়া
##গুলোতে
থাকলেও
ফেসবুক
জুন
মিড
মিলিয়ে
চরিত্র
কার্যাল
পাঠানো
যাদের
রাজি
ব্যর্থ
প্রদান
be
পারছে
সমস্য
পুনর
##দুর
নগ
লেখক
##দর্শন
মন্ত্রী
##ুড়ি
সরে
রক্ষ
ভীষণ
ভাষায়
জিয়া
##্যায়
অস্ট্রেল
##মাধ্য
##রকম
দুজনে
কোচ
অক্টো
তোমায়
গঠন
আদি
রাখে
জুলাই
এপ্রিল
পরিমাণ
কৃত
রবি
##ুনা
যেক
মেয়েদের
ব্যাট
প্রতির
##ালাম
বড়ো
অস্ব
বিএনপি
##টিউ
খোঁজ
বিরোধী
##ang
প্রক্র
##ালার
সবুজ
##ওয়াজ
অ্যাপ
দেখুন
যথে
জেনারেল
নির্যাত
কলেজের
ভিতরে
নীতি
##যোগে
##িরিক্ত
হতা
স্থানে
আসি
বোল
##লাই
রস
##র্ন
##াগত
মির
অদ্ভুত
তখনই
##পুরে
উৎসব
##গ্রহণ
নামক
##ess
সত্ত
দাদ
গন্ধ
বিদ্যুৎ
স্ন
শহীদ
আটকে
ক্যাম
হামলা
দাদা
##গ্ধ
##তেন
##্ৰ
নাহ
গড়
##তাব
অনেকটা
##জায়
আসল
বাক
উদ্যোগ
##ম্বা
নিরাপত্তা
##উল
পড়ছে
ঐতি
##চেতন
নিয়মিত
খাই
২৬
তেম
##সির
##ঠনের
##শালী
বেশির
শেয়ার
##বাসী
স্টে
পাবেন
অভ্য
##ষা
##ীব্র
দুপুরে
##্রাম
মুক্তিযুদ্ধ
##পথ
##ce
অনুরোধ
##কেও
সেপ্ট
আয়ো
কম্পিউ
শোনা
বাঁধ
অধ্যাপক
আবু
ভাড়া
হওয়ায়
ছুঁ
করেনি
##হেতু
বিপর
##ুতে
করত
##মন্ত্র
##যুক্তি
##ড়ো
##tt
বাহিনীর
সিরিজ
##্গ
পয়
চলতে
##ামান
উৎপাদ
দেহ
যিনি
ম্যাচে
সরিয়ে
চন্দ্র
প্রত্যেক
বাচ্চা
১৯৫
জুড়ে
চেপে
নিকট
##ুপ্ত
তেমনি
সম্প্রতি
এছাড়া
কয়
এখান
ঘা
তীব্র
টুক
অতিরিক্ত
চাঁদ
চুক্তি
সমুদ্র
##ষুধ
থাকায়
##ri
দখল
সর্বোচ্চ
পদ্ধতি
১৯৮
##নীয়
গাই
ধন্যবাদ
##ুনিক
কেঁ
গৌ
আগস্ট
প্রশ্নের
পরিষ্কার
ব্যাপারটা
জ্য
ব্যবসা
জ্বাল
আদালতে
যাবো
##ফুল
কাব
##ফোন
থানায়
দিব
তালিকা
উল্ট
সন্ধ্যা
নির্মাণ
বিকেলে
##র্বে
মুখ্য
##শেষে
অদ
সিটি
ইতিহ
ব্যক্তিগত
ক্লাব
হাঁট
মের
পারছি
প্রাচ
সাধ
হাজির
কবে
খানিক
ভিজ
চী
##ফের
আলোচ
প্রজ
ঘণ্টা
পরেই
অফিসে
বাড়িয়ে
পর্যায়ে
মূলত
গুণ
##্যান্স
সাহিত্য
জিজ্ঞাসা
কিছুদিন
বিক্ষ
##চাল
মাকে
ঝুঁ
অসা
##ওয়ে
সমর্থন
যথেষ্ট
২৮
বুকের
সিগ
পিছনে
মামলার
সংঘ
##্বার
পাঠিয়ে
বিপক্ষে
হইবে
নন
চক্র
##কারে
হায়
ডা
আঘাত
ধাক
সুত
রুমে
##খার
কলকাতা
##লোক
সিনে
মুহূর্তে
দাড়
ব্যাং
##ঁটে
সুস্থ
সম্ব
বলেছিলেন
##কালীন
মহাস
ওষুধ
২৭
আক্রমণ
ছুটি
কণ্ঠ
##শ্র
একাধ
সংক
##ডা
রেক
##ান্ত্রিক
##ধর
অভাব
##্লিষ্ট
##সাথে
কলেজে
রেজ
দান
সামনের
##িশন
খালি
পরিশ
কর্মী
al
হু
নই
##ুজ্জ
সেনাবাহ
##ণী
বাণিজ
মনোন
##নির
##োধন
দিয়েছিল
এগুলো
পারব
আজও
টু
##ঠিত
খুঁজ
চাম
সৃষ্ট
##গার
ইউরোপ
জমি
আর্থ
স্ত্র
সাহস
যাচ্ছি
ইয়
##hi
##াত্ত
##ারেট
ক্ষমা
##দায়
জাপ
##শিয়া
ঘন
পত্রিকা
রাস্তার
চিহ্ন
তারিখের
জানিয়েছে
##ীম
নিয়োগ
খেয়াল
খেলার
st
অঙ্গ
ইনি
নিয়েই
রম
ব্যাপক
মেয়েটা
ব্যাক
সোন
##ুড়ে
নিশ্চয়ই
সমালো
শত্র
##ill
বীর
অফিসার
রবী
##ob
চাষ
##িতির
অর্জন
এলে
##হান
চম
যেটা
উদ্দিন
আকর
ক্রম
##ra
শাস্তি
মিষ্টি
মিয়া
সংসার
নাটক
নভেম্বর
বয়সে
অপেক্ষ
অসহ
ওয়ার্ড
মুক্তিযো
দুর্ন
রিপোর্ট
কুর
পাখি
##িদের
অসুস্থ
##্সে
কার্যক্র
লম্বা
অভিনে
ঝাঁ
কাগজ
জানুয়ারি
মম
##ct
##ব্ধ
ব্যবসায়
##শ্ব
স্কুলের
বেসর
##েমে
##ফতার
রেকর্ড
ইতিম
ফিরিয়ে
##ুমাত্র
১৯৪
বিস্ম
খেলোয়া
বায়
কেনো
##্কে
নির্দিষ্ট
সান
নিন
কুমার
পালিয়ে
পেলাম
মঞ্চ
হচ্ছিল
জড়িত
ال
##টিক
রুপ
পরিষদের
পরিণত
ভরে
দেখেছি
ট্রে
রোববার
রবীন্দ্র
সাদ
মিথ্যা
সবই
সাংস
পারলে
তোলা
ধ্বংস
দুর্ঘট
১০০
##িমের
ঠোঁ
সভায়
কতটা
খাব
##পরি
##est
সাগর
##বনে
দিয়েছিলেন
অনুভূ
মাহম
সমাজের
বাম
অক্টোবর
##সান
##বাড়
##ৃতির
পেছ
যেহেতু
প্রয়োজনীয়
by
##ায়ণ
সমা
ফেব্রুয়ারি
##ok
খাদ্য
মাথার
ভোর
এসেছি
##স্ফ
আনতে
লাইন
##জিদ
সংগ্রাম
প্রচুর
##পু
অন্যদিকে
সংশ্লিষ্ট
পদে
##op
##ৃত্ত
জামায়
একাধিক
##মিটার
রাজ্যের
গাছের
##বছ
##পনা
দুজনের
পাতা
গোটা
সংসদ
ইউনিয়ন
আধুনিক
##নিয়া
##শিয়ার
জরুরি
উভ
##মন্ত্রীর
অনুভব
বিরক্ত
##ামত
চূ
তাম
##ুরে
##্প্র
re
অবি
কিছুতেই
##ড়ির
তেল
শোন
##বরা
শাসন
##ইয়া
কার্ড
আদেশ
শরীরে
##হু
উইকেট
সোহ
টো
ধান
##্যাশন
কাশ
অভিম
##িয়াস
ইন্টারনে
পৃথিবী
ওটা
নিজস্ব
অভিযান
যাবেন
নির্বাচিত
নান
জট
হাউ
ইউনিয়নের
সারাদ
হিসাব
পুত্র
মেডিকেল
প্রস্তুত
##বেলা
হৃদয়
টিপ
##চাপ
##গ্ন
বয়ে
গোপন
##ল্ল
বিত
##টেই
কাউন্স
টেব
দেয়ার
আশ্রয়
রহস্য
দেবেন
মুখো
১৯৭১
নির্ভর
ডান
প্রশাসন
##্বের
##ht
##and
##ith
কম্পিউটার
##উদ্দিন
আল্লাহর
##োপাধ্যায়
##মতো
বলব
নিয়ন্ত্র
##গুলোকে
বিবাহ
অহ
##সাম
ভারতে
##ুনের
কমান
ঘুমিয়ে
জব
##পাত
বিধান
আওয়াজ
##িসং
ট্রাম্প
প্রশিক্ষ
বেগম
নির্বাচনের
সেপ্টেম্বর
জার্ম
##ah
সমাধান
অস্থ
মেয়েকে
##শুর
যু
##াজের
##ুল্লাহ
দেরি
সেবা
দিত
প্লে
বেঁধে
##বারের
বিকেল
সম্ভাবনা
যেসব
##িতায়
##র্ভ
দলীয়
সকলের
বঙ্গবন্ধু
সার্ভ
এড
উন্ম
আলোর
দাস
নারীর
##মহ
তাহা
an
মিন
শুধ
নিয়ন্ত্রণ
সতর্ক
##ূলক
ভিতর
##াদী
হিম
করছিল
##িংস
##টিভ
কাপড়
উদ্দেশ্যে
যোগ্য
একসাথে
মাহমুদ
##ia
##ূত
##ore
সুল
নগর
নীর
##স্থান
সেনা
শূন্য
##জো
ডলার
বেদ
##শু
জোরে
লোকের
এইসব
##ওনা
ব্রিটিশ
কপি
পুজ
##জির
##িলার
ভালোবাসার
ধারণ
বলুন
মড
গানের
##চর
মাটি
##াটের
সুই
##ক্ষন
##লাইন
বুল
হাসতে
##ers
অধিকা
##রাং
সমান
##াপন
ধারা
হোট
##োমিটার
##ttp
অধিকাংশ
পার্থ
প্রান্ত
ব্যাগ
##তেও
প্রযুক্তি
##lo
বক
হস্ত
নিউজ
##্কার
চতুর
তথা
জনগণের
##বন্দ
##াবু
##বিত্র
নাগ
##ধীন
পারিনি
##art
মেয়েটি
##ন্ব
ফাই
উড়
বেসরকারি
করলেও
##াঙ্গ
##চ্চার
উত্তে
##স্তি
পাগল
লুকিয়ে
বাণিজ্য
নন্দ
প্লিজ
যুক্তি
##াব্দ
প্রতিক
##াকিব
গবেষণা
##পূর
৩৫
পত্রিকার
##রাস
যাকে
ওপরে
##াবেন
অধিন
মদ
হাসপাতাল
পরিচালনা
চরম
##ালে
##িপ্ত
কাঁচ
তত্ত্ব
বিদ্র
ছাত্রলীগ
বিস্তার
##যাত্র
সোজা
##ৃঙ্খ
সুতরাং
সচেতন
ব্যবহ
##ক্ষিত
টার
##্মা
কমপ
আইনের
##্বেও
খেলোয়াড়
সীম
সবসময়
জাল
অনেকের
de
দিদি
##ঙ্গের
রিস
am
অনুমতি
http
পরীক্ষার
সেন্ট
দিয়েছি
##ৃদ্ধ
গাঁ
পণ্য
ঠিকই
##00
আকর্ষ
দুর্বল
সাঁ
##শো
##বাজার
##জনক
অর্থনৈতিক
ইংল্যান্ড
##লেক
বী
দেখছি
ফুটবল
এসেছেন
২৯
ইঞ্জ
জলে
##িদা
মজা
ভাত
সচিব
##র্স
বিরাট
##ত্রী
ঘিরে
পড়বে
##প্রে
ভরা
##াগে
দিয়েই
শাম
বলিয়া
হালকা
কার্যকর
অধিক
প্রস্তুতি
সাফল
বিদায়
##টিয়ে
সাংসদ
নির্বাহী
সিঁ
ব্লগার
যুবক
##মু
সহকারী
ব্যক্তির
##টাতে
কথার
as
##ডেম
তৈরী
বিকা
##ধানে
##ামীর
জেগে
সেটাই
খাল
দেখলে
শরীরের
##য়ত
তাছাড়া
জানো
করতেই
##ম্য
পারলাম
নাও
মামলায়
##মল
যুক্তরাষ্ট্রের
ফ্রে
পৃথিবীতে
##াচার
ফেরার
##্দি
বিখ্যাত
ছাড়াও
গাড়ির
থেমে
রেখেছে
পেয়েছেন
sh
যেকোনো
৩১
নেয়া
##বাল
রাজশ
##ঞ্জন
কান্না
মসজিদ
##াগুলো
##বাগ
আচরণ
বিজেপি
##ম্ম
##পোর্ট
থেকেও
ভাইয়ের
ধাক্কা
##াদেশ
ধরতে
বিপ্ল
আর্ট
নেট
##ধিক
##লোড
রঙের
দিবস
##সু
ইসলামের
##ফার
বানিয়ে
চ্যা
##ap
সংর
ড্রাই
সেগুলো
ওসি
সৈয়
পায়ের
##ূর্তি
খেলতে
ভোগ
আব্দ
বাসা
স্পর্শ
কথাই
##দীপ
##জম
##উর
হর
চুম
##করা
হাসপাতালের
পবিত্র
##ম্ভব
পাপ
বৈঠক
নিয়েছেন
নিত
অবস্থিত
খায়
##ুজ্জামান
ইংরেজ
শ্যাম
অসাধারণ
সৈন্য
##ib
অর্ধ
সমাবে
##ন্টা
##ভোগ
আবুল
ওপ
আহ্বান
##াজা
##াজে
##if
##ছুর
মাটিতে
it
টানা
##্ডার
##্লাম
বসব
বলেছিল
ঘটন
কবির
পড়লো
##্বরের
যাঁরা
কিলোমিটার
উত
উঁচ
ওয়ান
##নাম
এসেছিল
সিনেমা
##বোধ
তুলতে
বলেছি
ওনার
হেঁটে
জাতি
সিক
##ঙ্কর
কোর্ট
সহায়তা
ফলা
##ate
আদর্শ
that
আড্ড
##বাদী
মতোই
সন্ধ্যায়
আইনজীব
আরেকটি
কোম্পানি
বাঘ
##হয়
অভিজ্ঞতা
##েক্ট
প্রেমের
##সভা
##ুরের
কাটিয়ে
মশ
ত্যাগ
ভাবনা
বৃদ্ধি
ক্যান
##জল
##সভ
যেভাবে
আর্থিক
অবশেষে
##শিষ্ট
##পণ
কমিশন
পাচ্ছে
আবির
##্বরে
প্রতিবেদন
সহ্য
##োনাল
ফি
##গুলির
##ইল
টের
মুঠ
##ালির
সাম্প্র
জেল
##َا
অ্যাস
নীচে
ঋণ
মুম
প্রতিনিধি
##ছা
রয়েছেন
আন্দোলনের
পূর্বে
স্মরণ
##সিং
তুলনায়
##শিল্প
##পুরি
আও
##াজী
##ew
কুকুর
সভা
জাতির
দেড়
শর্ত
মরে
কর্মচার
ইংরেজি
নেবে
##প্তি
চূড়
##াপ্র
সাক্ষাৎ
টিভি
##ন্দা
আকাশের
জিতে
##াজন
##লাে
হাব
সোনার
লাগিয়ে
ডু
##লিত
##ণ্ডের
##্রো
##্দের
দারুণ
গাড়িতে
পড়েন
সমস্যার
##লিশ
হইল
##খানি
পারেননি
পদক্ষেপ
মিছিল
আহমদ
টুই
নেতৃত্বে
নক
আশ্চ
মায়
ওয়েবস
##ain
##বায়
জোট
কুল
সংস্থার
ভ্র
গ্রেফতার
স্য
##উন্ট
আবারও
ভ্রম
এফ
##মূ
টেকটিউ
হত্যার
##জান
খাঁ
##এল
চেহারা
নিখ
তল
বর্ণনা
সম্মেলনে
পাখ
সম্পদ
##িস্টার
##ন্দ্ব
ম্যানে
আত্মীয়
লোকটা
##ort
সৈয়দ
##িসের
##িলে
##কির
কংগ্রেস
গোয়ে
ডাউন
সক্ষম
##ঘর
মেয়র
মাদ্র
লিখেছেন
ব্যাখ্যা
খাওয়ার
ঘটেছে
##্যাক্স
##তান্ত্রিক
##ভাষ
with
ঈশ্বর
টেকটিউন
##্নার
চূড়ান্ত
##ষ্ক
##বনের
উৎসাহ
দুধ
সীমান্ত
কৃষ্ণ
##সঙ্গে
##্টে
ধর্মীয়
দেখল
দম
সমন্ব
করায়
উপক
বাবাকে
ছুট
যথ
##ণার
অক্ষ
বিক্ষোভ
দেখেন
##সাই
আবেগ
প্রক্রিয়া
খাত
##ন্ডার
অসুবি
বাসিন্দা
অধ্য
কোলে
অচ
অনুভূতি
অ্যাল
রইল
ফোনে
ব্যবসায়ী
কারণেই
##াবর
শাড়ি
ঠান্ড
মৌসুম
সঞ্চ
##িতি
টাইম
or
চিকিৎসক
##ত্তর
লিখতে
অধিনায়ক
চুরি
##ামার
কাছাকা
##্ষিক
গেছি
দৈনিক
লেখার
সম্ভবত
একসময়
স্নে
আপাত
বারান্দ
এইচ
পুরোনো
ভবন
বিশেষজ্ঞ
##ost
জলের
##টেড
কাছাকাছি
ছবিতে
ভিড়
যুদ্ধের
##গাঁ
কার্যক্রম
এসো
প্রতিবেদ
##ik
প্রতিরোধ
##ুরুর
স্বাধীনতার
জটিল
বাইরের
সংস্কার
বংশ
স্বীক
ইক
উজ্জ
অবৈ
অসম্ভব
##গু
আঙ
জ্বল
##োটা
ডায়
নিষেধ
তান
নিম্ন
##ীর্ণ
যুদ্ধে
##ন্দ্রে
করেছিলাম
সম্বন্ধ
পরও
ফুটে
৬০
##ud
য়
অসং
নির্ধার
জনগণ
প্রো
ওঁ
##se
##িত্বে
পুরনো
শুধুমাত্র
তিনজন
পাকিস্তানি
##টর
চক
##াদ্দ
চ্যাম্প
##াজার
থাকবেন
##গের
##াসন
##ub
খালেদা
এয়ার
লন্ড
ব্যাংকের
##োগে
সাধারণত
লজ্জা
##গণ
দোকানে
উপন্য
করতো
আকাশে
##াত্মক
রণ
দেখো
##ৃত্তি
##বেল
আড়
কারনে
দেই
তাপ
ভারপ্রাপ্ত
যেই
নেশ
অনির
ডাকে
ভাগ্য
হবেন
প্রাচীন
আসামি
চমকে
মায়া
ক্লিক
ভগ
মোক
In
##মানের
ইনস্ট
ভঙ্গ
বার্তা
পানির
##ন্দন
পয়েন্ট
সংবি
নূর
বাতিল
##তিক্রম
ফেরত
কাদের
প্রাক
সরবরা
যৌন
তৃণমূল
কর্তৃক
বটে
আসুন
ভিত্তিতে
বিপদ
##ষে
ধর্মের
প্রমুখ
অপার
##রাই
##ld
##ঙ্কার
##দেশের
ছেলেটা
সংক্রান্ত
বোধহয়
##বাবুর
অপ্র
নর
উৎপাদন
##াসহ
নিচের
##্থা
কৃষি
##ভূত
মেল
##পালে
##বিক
পৃষ্ঠ
পেরিয়ে
ক্রে
ডাল
পরদিন
বিদ্রোহ
ঝুল
##লির
অতিথি
অক
যাচ্ছেন
তাদেরকে
উপলক্ষে
পার্ক
কলকাতার
মেশ
পুকুর
শৈ
##জ্ঞান
##িদ্ধ
দেবার
##rom
কল্যা
আবি
সংস্কৃতি
##টকে
করেও
যাত্রা
বেতন
সিম
পুরোপুরি
শিক্ষার্থী
অবৈধ
##কেটে
নাচ
পাথর
ক্যাপ
পরিবহ
##টোর
##য়ান
মাটির
৪৫
সিংহ
যাচ্ছিল
স্মার্ট
বাপ
সারাদিন
অত্যা
##াতো
বৈঠকে
আলাপ
কমিউ
রাজাকার
পার্টি
চারটি
##লক
##াকের
হামলার
উন্নত
কারা
কাউন্সিল
যথা
উপহার
নেতৃত্ব
সন
##াবী
ভক্ত
প্রাই
##াইয়ের
বিতর্ক
গবেষণ
##oy
করপ
##ৎকার
পরাজ
##ুদের
ক্ষমতায়
ইচ্ছ
con
শক্তিশালী
আফ্র
হাট
##ুরী
মূ
ch
##ant
প্রকৃতি
সফট
##োদন
মতন
কলকাতায়
বিছানায়
দৌড়ে
##িক্স
পারবো
হলাম
ঘন্টা
অ্য
##েও
প্রয়ো
##মুখি
গণতন্ত্র
সংঘর্ষ
মুছে
কর্মীদের
আদায়
সত্ত্বেও
প্রসঙ্গে
এঁ
জিত
##কারীদের
ব্রে
কর্মসূচি
অভিযোগে
##ity
সার্ব
চলো
বৃষ্টির
নিষিদ্ধ
##পাশের
এতদিন
২০১৪
বন্ধুর
জানাতে
সন্তানের
##মূলক
ছোঁ
##মিন
##যন্ত্র
##্যাশনাল
সন্ত্রাস
##িয়াছে
কারাগ
আজাদ
একাডেম
সুপ্র
ঝাম
এলাম
গ্ল
##বর্ষ
ব্যয়
##মর
ঘৃ
##জাহ
প্রদ
পার্টির
রিম
হলেই
স্থায়ী
শারীর
Al
শিল্পী
হতেই
ম্যান
রীতি
মেয়
##ক্ষণে
হরি
##ৎস
সিলে
রাত্র
খব
২০১৩
ক্যার
##all
##াচ
##চ্ছিন্ন
ধন
গুগ
জমে
##ড়াতে
করেননি
পিতা
##তাকে
পেয়েছি
বন্ধুত
প্রবল
কয়েকটা
##টক
দুর্গ
আশ্চর্য
বাড়ছে
##্যানেল
##ry
##োধী
মুখোমুখি
সুলত
অর্থনীতি
##রব
বেড়েছে
##শান
অতীত
নং
##স্ত্র
##রুল
সের
সংগঠনের
তৈরির
দুর্নীতি
ব্যাব
##ai
নামিয়ে
##og
স্বামীর
দিল্ল
মোর
আখ
৩২
##ীরের
মেজ
আইস
কেননা
##শক
বাতাস
রাজধানীর
বন্ধুদের
ঝড়
বলবো
রোহি
ডিম
এলেন
বসবাস
বিনিয়োগ
রেগে
ইত
##ধিকার
পর্দ
সাংস্ক
তাঁহার
উদাহ
কথাগুলো
##িংক
##one
ইন্টারনেট
ইহ
ঘাট
##ভার্স
গাল
ইট
জানার
##ong
হাসিনা
চাপা
জনসং
প্রজন্ম
ধাপ
পরিষদ
##ক্টর
উপস্থা
বিশ্ববিদ্যালয়ে
আসন
##াদু
পরেও
তাজ
##িসংঘ
বলিল
ন্যায়
আজকাল
থানা
সাড়া
##ect
সহজে
চেত
ঠান্ডা
লোকে
ফেলা
অস্তিত্ব
##িদার
##িকভাবে
কেঁদে
জাতিসংঘ
কাহিনী
নেতারা
বয়সী
সৌর
উঠছে
গেম
বিনা
শিশুদের
আকর্ষণ
নিরাপদ
ক্ষুদ্র
নেতাদের
বিদেশি
২০১৫
##েশনে
##গতি
##শনের
ঠিকানা
##্যাপী
ছেলেকে
##য়েন
স্থির
##ক্রিয়
##র্মে
আমেরিকার
সাংস্কৃতিক
##াচার্য
নোট
বিস্ফ
are
not
সৌন্দর
ইতিমধ্যে
##ভারে
পুঁ
##গ্রস্ত
উভয়
##গঞ্জের
ভারী
সেকে
দিচ্ছি
কাঁদতে
অসংখ্য
মনোনয়ন
বিপুল
আদালতের
ভেঙ্গে
চ্যাম্পিয়ন
চোর
##য়ী
##age
গেলেও
একসঙ্গে
##নিষ্ঠ
মাংস
হুমকি
##ড়ালে
##সম্যান
চীন
##ওয়্যার
মেলে
আলাই
শুনি
রাহুল
সেসব
দিবে
##্যালো
##হত্যা
শিক্ষার্থীদের
##ফট
##ওয়াল
ধারে
আরব
সমাধ
এখানেই
মুঠো
অন্যায়
দিই
ফাইল
হান
##ঘাট
গ্যাস
##চন্দ্র
##oc
ভালোই
দেখানো
##াইতে
সংগীত
ব্যক্তিদের
রহমানের
বেছে
প্রতিষ্ঠানের
দেখেই
ডিগ্র
০০
##ঞ্চল
উড়ে
ফেলতে
##চন
সভ্য
নবী
##ময়ে
##িত্তিক
##িলি
অনুপ
স্থাপন
নজরুল
আবিষ্কার
ছায়া
##ামো
বিশ্লে
প্রশিক্ষণ
মামা
প্রতিষ্ঠিত
কন্যা
##eb
বিচ
সপ্তাহে
##ডিয়
মৃদ
কের
প্রাপ্ত
##th
প্রয়োগ
অস্বীকার
অবর
পাত্র
আউট
সেরে
জানালেন
কপালে
##বিলে
উঁচু
ধারাবাহ
অংশগ্রহণ
দত্ত
শ্ব
##গির
##চ্ছেদ
##রাতে
পরম
ফুলের
জ্যো
করপোর
সাহেবের
ক্লান্ত
তখনও
খানিকটা
মুগ্ধ
St
কির
##টপ
##মাল
জোগ
##ঙ্গার
কামাল
কাছেই
রবীন্দ্রনাথ
##শত
##াসি
##শাল
বুঝিয়ে
##কুমার
লাফ
কখনোই
##লাতে
পূরণ
এক্ষ
##লম্ব
লেন
দিচ্ছেন
লক
অসহায়
দুর্ভ
চেনা
কতো
স্বভাব
##শির
ইন্দ্র
কমিশনার
##ীবন
##ীনে
##বদ্ধ
সিস্ট
অফিসের
পয়সা
সম্পন্ন
চলাচল
কাত
সিলেট
ভালবাসা
##্যব
ঢো
দৃষ্টিতে
মাদক
##ight
##তল
10
মন্দির
ভাবেই
##বাড়ি
প্রধানমন্ত্রীর
##মনে
মেসে
কানা
##াহ্ম
শিশুর
অ্যাড
ঈদের
গঠিত
আশঙ্কা
দায়ী
সাথেই
ফোনটা
তালিকায়
আগেও
##িষ্ট
মুক্তিযুদ্ধের
মহা
##কালের
বিড়
বহি
স্ত্রীর
##োরে
মেজর
পড়াশোনা
দুল
বাংলায়
জনকে
কঠোর
ডাউনলোড
##্রিয়া
নাস্ত
##র্জন
হাওয়া
নিলাম
মডেল
##র্দ
অপেক্ষায়
নির্যাতন
##াচ্ছে
সিনেম
##ত্তে
শুভে
##বছর
সমাজে
##ইয়
বিচারপতি
##ুনে
##হাট
হাঁটতে
ওঠা
মণ
বিভাগে
হাইক
##দেব
ঈদ
আপাতত
দেখছে
কর্মীরা
অজানা
আলোক
সৌদি
##খ্যান
এভাবেই
##াতক
দরজার
পারল
এরই
বিদ্যালয়
##ংসা
##িংয়ের
প্রকৌ
ব্যথা
প্রশাসনের
##িক্যাল
##পন্থ
অঞ্চলে
লু
প্রায়ই
##ৃত্য
সাইট
নির্ধারিত
মেয়েরা
টেলিভ
হোটেল
লইয়া
ফুটব
শ্রদ্ধা
রুদ্র
চুপচাপ
অন্তর
স্ট্র
বান্ধ
##দর
##উজ
বইয়ের
মর্য
##য়েল
বিস্ফোর
he
মেলা
ভয়া
me
নারীদের
##pp
দাঁড়ায়
অন্যের
শ্রেষ্ঠ
##ment
সিগারেট
##ওল
৭০
আপত্তি
সিরাজ
ক্রিকেটার
হি
নুর
জেলায়
মনটা
পেছন
##َّ
##ive
শারীরিক
কোনদিন
হয়েছিলেন
সমিতির
বলবেন
##িখে
প্রকার
##উন্ড
অনুষ্ঠানের
সরবরাহ
রাখেন
চাইছে
ডাই
কল্পনা
জাহাজ
##বিন
##দ্দীন
প্রত্যক্ষ
##দূর
ফেলেছে
##iv
##ave
তারপরে
সদস্যদের
মাস্টার
যেনো
কাজেই
হয
##াকি
স্থাপ
অব্যা
ফলাফল
হাও
অভিযুক্ত
আইনজীবী
ধরেই
##পো
##ককে
চতুর্থ
আলি
ইশ
গিয়েছিলেন
পোষ
সদস্যরা
##ust
##স্টার
উক্ত
পারছেন
##ard
আঁচ
বাসে
নাম্বার
মোড়
##ভিড
পরই
অঙ্ক
গ্রন্থ
##তলা
##ওয়ার্ক
গুঁ
pro
করতাম
##দেশে
তন
রাজ্যে
ভয়াবহ
##াবো
তোরা
আনার
##দল
সিল
দাগ
টিকে
##সভার
নৌকা
তোলার
##পথে
বাঁধা
তুর
##ায়িত
প্রতিবেশ
##ww
##টারে
চিনি
##ind
ভাষার
##নগর
দাল
অন্ধকারে
অঞ্চল
করোনাভাই
##টারি
##দির
কাজী
ঋষ
##ৃঙ্খলা
ইসলামী
চালানো
প্রতিষ্ঠা
পুত
হলুদ
ফরি
আশে
##্রমে
সমালোচনা
##য়ায়
##চ্ছিলেন
কৌশল
নিজেও
কথাও
##াস্ত্র
সেখানেই
শ্রীল
##ঘা
পারো
যৌথ
গল্পের
কারখান
কোনোদিন
পশ্চিমব
অভিব
২০১৬
##angl
চ্যালে
প্রেস
মুখটা
জন্মদিন
নীলা
চলতি
পিছিয়ে
রওনা
উজ্জ্বল
অঞ্চলের
সহযোগিতা
শব
ইউনিভার্স
##ere
গ্রাহ
দেখলো
ঘটনাস্থ
ভালোবাসি
দেবো
প্রযো
০০০
ঝগ
##ভিত্তিক
গল
আমিন
সেতু
সই
বসিয়ে
ঐক্য
##পাড়া
ব্যবহৃত
মুল
##টল
কিসের
ব্রাহ্ম
পাথ
গোষ্ঠ
##ুখে
##ুশ
শুনেছি
রচনা
প্রিন
পড়লে
আর্
কহ
বিদেশে
আম্ম
মুখ্যমন্ত্রী
নিয়া
হাইকোর্ট
শুরুর
ঘে
ঘুরতে
আসছি
সর্বশেষ
##াপুর
বাংলাদেশি
ঐতিহ
প্রকৃতির
পরীক্ষায়
ছাত্রলীগের
উদাহরণ
ইমাম
যাত্রী
বাছ
টাকায়
মজার
রিজ
##ওয়ান
সহজেই
রাজশাহী
##ীষ
সোনা
চ্যালেঞ্জ
নারায়ণ
ফেসবুকে
অধি
লিখিত
সম্বন্ধে
পরপর
##শিদ
##চারের
উল্টো
চিঠ
নায়
অস্থির
সম্মেলন
মণ্ড
রপ্ত
ফিরতে
ইউন
রাজধানী
##োলার
www
গোলাম
স্টেশন
##বাচক
##্রাজ
কাঁপ
আমেরিক
##রান
সৃ
বিচ্ছিন্ন
সায়
বিকল্প
##ee
##ভেল
go
##িনিয়ার
বিবেচনা
সরি
##দ্য
ঘোর
দৌড়
##হাসিক
##াল্ট
সাংবাদিকদের
অ্যাক
টেন
প্রাক্ত
এখনই
মধু
আনন্দে
##োক্ত
জনাব
প্রচণ্ড
চমৎকার
##ঞ্চিত
শন
যেদিন
ইতিহাসের
ষড়
চাওয়া
লুট
গুন
লক্ষ্যে
টিম
201
পর্যবে
দাবিতে
সুরে
পেট
হেড
##ফাক
৫০০
##ব্যাপী
থাকত
##ওয়ার্ড
রাজনীতির
##চির
অনুসরণ
৮০
##ণ্ডে
কুমিল
##ার্স
##বিল
মন্ত্রণালয়
ফাঁকা
আদর
বরাবর
টেবিলে
পড়ি
কিনতে
সকলে
দুজনেই
অনুসারে
পক্ষের
মনি
পুরুষের
জারি
হতাশ
তারই
মিডিয়া
মিত্র
##্রান্ত
ভদ্রলোক
দ্যা
চাহিদা
পিছু
from
##ঝে
##ail
Ch
দেখাতে
ভূমিক
পররাষ্ট্র
সেকেন্ড
অ্যাম
আছ
রাসূল
বিবৃতি
ডুবে
বেজে
পাঞ্জ
ভূমি
হয়না
##ীড়
ছেলেমে
স্বপ্নের
জগত
কল্প
ব্যাটসম্যান
নিবন্ধ
na
ম্যাচের
##ুকের
চেক
রিয়া
করিনি
##চ্ছন্ন
নাড়
টুকরো
প্রাক্তন
##ছিলে
শ্বাস
একক
আড্ডা
##পদ
##াজি
বিস্তারিত
লক্ষ্ম
প্রতিনিধ
পানিতে
স্বীকৃতি
নার্স
ছোটো
মোস্ত
##াল্লাহ
ফ্রান্স
উনার
রাখি
##২০
হারা
##জিৎ
গরু
হোম
সকলেই
টিউন
জের
মৌল
করিম
##রুম
শিরোন
খ্র
ওঠার
পরিকল্প
প্যার
ফো
##our
##বেসে
শিক্ষার
##সুল
বসন্ত
জিম
নির্বাচনী
##ামুটি
সংখ্য
##্তিক
##ric
ধূ
বেলায়
চালাতে
করিল
জঙ্গি
নরম
মুন
ক্রমশ
তাকা
নৈ
জানিনা
হযরত
##ন্যা
গোয়েন্দা
##হী
অপমান
সম্পাদ
প্রোগ
৪৮
##ত্যাগ
চিহ্নিত
খানের
শ্বশুর
নীরব
রাষ্ট্রপতি
##চনায়
ইন্দ
##্যাং
চেয়েও
##ঘরে
দশমিক
চীনের
##ফাজ
##াইলে
##ack
##ঙ্কের
লেগেছে
যুগে
ট্রাক
ঢে
নির্ধারণ
##end
##ীক্ষ
বুড়ো
পরিচালিত
যতই
##াইজ
##য়ং
মন্ত্রণালয়ের
সাকিব
##ধারন
সিস্টেম
হেরে
এলাক
প্রেমে
আমির
##ুষ্ঠানিক
দৃঢ়
কংগ্রে
তৃণমূ
ইত্তে
কড়া
এবারের
অধীনে
প্রজাত
##ভো
আসেনি
##িকর
মুক্তিযোদ্ধ
মৃ
ধরণের
মূর্তি
##শ্রুতি
গণমাধ্য
##কেন্দ্র
খ্রিস্ট
ঢাক
পিস
ছো
##াউন্ড
নিচু
নিঃস
##য়নে
আমেরিকা
ব্রাজ
প্রকল্পের
ছু
প্রিয়া
কবিতার
চর্
আনোয়ার
সভাপত
দাঁড়া
ভূত
কৈ
আলোয়
স্বে
##ast
##ভূমি
##কারের
শুধুই
মাইক্র
ফু
চাইতে
উচ্চার
নিউইয়
বেড়া
সংযোগ
উপভোগ
গাজী
কাব্য
##পাড়
অনলাইন
আসিয়া
##কু
আসনে
পরবর্ত
পাহাড়ের
##বীর
##াবদ্ধ
ঐতিহাসিক
##লাইনে
সুন্দরী
প্রয়োজনে
ছবিটি
চ্যানেল
মতামত
##তাই
##ষ্টার
টিকিট
##ইউ
ভাবি
সেক
##কায়
কমিশনের
রবিবার
আনে
শত্রু
অধিদ
সক্রিয়
যেতেই
কেন্দ্রে
নেটওয়ার্ক
##পেক্ষ
##র্ধ্ব
পরিস্থিতিতে
রানা
নির্মা
মহিল
গুজ
##স্র
ম্যাড
হ্যার
বোমা
টেবিল
তারিখে
নিয়েও
##সম্প
অনন্ত
##ear
কোম্পানির
wh
করছিলেন
##শনে
মোটামুটি
ব্যবহারের
ভোটার
দূরত্ব
আরেকটা
মুচ
২০১২
##বারেই
নিত্য
মিনিটে
##েন্টের
মোটা
মুদ্র
মিশে
তোদের
উদ্যোগে
##োম
নিচ্ছে
##nt
##pt
রোদ
চালায়
বাসার
##হির
##ue
ডিজিট
হইলে
##টেলে
##ff
##ৃশ্য
খাট
পিছন
##ংকর
দাড়িয়ে
মেয়েটির
##আন
##খালী
##বাদের
সঙ্গী
ইঙ্গ
মৃদু
ইনস্টিটি
##য়িক
অবরোধ
প্রের
শিখে
প্রচলিত
পেন
##ন্সি
কূ
দয়া
বরাদ্দ
শিল
রোগী
কেউই
জিজ্ঞাস
আড়ালে
সদ্য
ধারাবাহিক
১৯৩
পৌরস
##ure
##ম্ভীর
##হন
কাঁধে
পরবর্তীতে
২০১১
বাগান
ইতিহাসে
পথের
জয়ের
আফগান
##াকারী
বুদ্ধি
##িজের
বিজ্ঞপ্তি
বলেও
উপন্যাস
সহিত
বুঝলাম
কৃষক
প্রদর্শ
বাবুর
পরা
##বণ
মমতা
সন্ধ্য
সফটওয়্যার
শরণ
সাফল্য
##িতের
জেলে
ফাইন
মেয়েটার
মঞ্জ
চড়
##ােগ
অবসর
নিলেন
ভবিষ্যৎ
অধিদপ্ত
##ওয়াই
সার্ভিস
ex
##াতন
পিক
একটাই
তৎকালীন
রফিক
##বেলায়
কন্ট
শাশ
##ord
প্রসঙ্গ
পাকিস্তানে
সরল
ট্রাই
##কত
প্রতিক্রিয়া
রাজার
০১
##esh
ইয়ে
##শিক্ষ
হয়েছি
পারত
বসতে
উপজেলায়
প্রদর্শন
স্বর্ণ
বার্স
at
জার্মান
##র্নি
তি
ব্রহ
শিক
সাগ
৩৬
পদার্থ
##ine
সাম্রাজ
সালাম
##ধন
জবাবে
দ্বি
##ার্থী
অসুবিধা
তিত
এড়িয়ে
সংখ
মতি
পাতায়
কৌত
কক্স
##িমার
##are
এমনই
পিঠ
pr
প্রাণী
বিস
##ত্রের
বিশ্বে
##ঙ্গি
##চালক
শুরুতে
##্বি
কাশ্ম
দাবী
রকমের
##যুক্তির
##মাস
গিয়েছিলাম
বন্দ্য
পারিবার
মুম্ব
দীর্ঘদিন
##মী
নাগাদ
কিছুর
হাফ
ছিন
পাচ্ছি
বিষয়ক
আসলেই
##য়ক
আসাম
উল্লেখযোগ্য
মাইল
মাঝখানে
৩৩
কাজটা
##ভাস
আঁক
##জনা
আনুষ্ঠানিক
কর্তব্য
কেজি
উত্তরে
ঝগড়া
পাট
##ওয়ালা
ওহ
একজনের
মিথ্যে
একেবারেই
গিয়া
মল
তলায়
জামা
শনাক্ত
ইত্তেফাক
##aj
সরকারকে
ভোটের
সাপ
##ঙ্কে
চাও
ক্যামেরা
দুনি
শাখা
##থের
কাকে
ফুর
সময়ই
ব্লগে
Th
কেন্দ্রের
ভরসা
শাসক
শুভ্র
প্রতিবেদনে
##ওর
বড্ড
জ্বর
চায়ের
##খো
শোক
প্রচে
প্রেক্ষ
সম্পর্কের
মুক্তির
সবে
সফর
চিনতে
##own
বরিশ
প্রতীক
উঠবে
##শ্বর
হইয়াছে
পুনরায়
শব্দের
দফত
সশ
##ুদা
##রেন্দ্র
200
মিটার
ডুব
করলেই
##হাতে
##ান্ট
রাষ্ট্রের
আমিই
##চুর
প্রশংসা
তারপরও
ছাড়িয়ে
ছেলেটি
##েদ
বহন
অনুপ্র
##েগ
##স্বর
পঞ্চায়ে
পার্থক্য
মিত
প্রচন্ড
ভবিষ্যতে
##ূন
##হারের
স্বয়ং
বেড়াতে
মিয়ান
মোদী
বিজেপির
ফলো
তৎপর
বন্ধুত্ব
কন্
ঝুঁকি
ডিজিটাল
দাঁত
আড়াই
ডিপ
ক্ষোভ
বিকাশ
কর্তৃপক্ষের
##এই
কবর
##হাত
ইয়াহ
##মনসিং
অন্তর্ভ
ঠোঁট
##ook
কফি
ঝামেলা
ধর্ষণ
was
ইজ
বিশিষ্ট
হোটেলে
##শাখ
অনুমোদন
বন্ধুরা
##দ্বন্দ্ব
চারি
সৌন্দর্য
সাজানো
##শক্তি
ছাড়াই
##ধ্যেই
##চনার
ওয়াস
অনেকদিন
##যুদ্ধ
##ঙা
জামায়াত
অব্যাহত
৯০
২০০৯
সিদ্দ
আবাস
ফরিদ
সিপি
##ক্ষণের
এসেছিলেন
সমগ্র
পায়নি
তৃণমূলের
##ies
##েষ্ঠ
শার্ট
##ধর্ম
উন্নতি
বোর্ডের
বজায়
খাবারের
স্ক্র
ধোঁ
##ভূম
দপ্ত
হাতটা
পতাকা
ময়মনসিং
আলাইহি
অস্ট্রেলিয়া
ঠেলে
##স্থায়
ষড়যন্ত্র
হুমায়
ভাইয়া
##েন্টে
ব্যবস্থাপনা
পারফ
##জনকে
সেনাবাহিনীর
রায়ের
ঘুরিয়ে
মাতৃ
মার্
প্রফ
##োনি
##াদান
পারিবারিক
গার্ড
স্বরে
সেনাবাহিনী
পিত
সঙ্গীত
##াজ্ঞ
##রাফ
টুর
উপদে
##ake
লোভ
##ৃতা
প্রতিপক্ষ
অভ্যন্ত
শতাব্দ
আর্ম
পাঁ
##ঙ্ঘ
অভিভাব
##্ফ
##াবের
বাড়ী
আওতায়
গোপ
শিবির
##্যান্ডের
##হল
রানের
##ব্যব
জন্
গম্ভীর
বন্য
সাহিত
স্বাক্ষ
প্রেমিক
একের
##গোল
##এসসি
ক্ষতিগ্রস্ত
ব্যাটিং
ইঞ্জিনিয়ার
তারকা
ক্ষমতার
এজন্য
বাধ
ওস
হরত
সেও
অভ্যাস
ভাঙা
কায়
##টস
ঐতিহ্য
রোড
মুক্তিযোদ্ধা
থাকুন
সরকারী
লিগ
পাঁচটি
অন্যদের
পরিস্থিতির
৩৪
বসু
ত্রি
##োরা
৭১
ক্লা
কোনাে
##শায়
প্রাকৃতিক
গুরুতর
##াল্লাহু
##চ্ছিলো
২০১০
ইবনে
হত্যাকা
টপ
অংশে
ক্যাপ্ট
##ভিয়ে
##িড
পাড়ার
##টিস
দেখবেন
মনোযোগ
দেশটির
##ওলানা
উদ্বোধন
তির
##ite
##এব
চরিত
ইয়ার
ওয়েবসাইট
সত
আলোচনায়
যুক্তরাজ
দলকে
জ্বলে
উইল
রানে
দুষ্ট
##রণে
আলোচনার
চট্টগ্রামের
পড়লাম
কৌশ
গুগল
এতটা
পড়েছিল
খেলায়
যতটা
বোনের
বাড়তি
দেখবে
নগরের
চেঁচ
##ial
আশায়
আনন্দের
সেটাও
সড়কের
খুঁজতে
অবদান
বাজারের
##ell
12
আবহা
পেলেন
কার্যালয়ে
দেয়নি
২০০৮
##তুল
জানালা
আক্রম
##গাছ
##নকে
##মতে
ঢেউ
কথাবার
অবধি
হয়েই
##দেহ
সাম্প্রতিক
ঘাড়
কারাগারে
বৈশিষ্ট
ছাত্রী
ফ্রি
##াপরাধ
তুম
রক্তের
অবস্থার
স্বল্প
##ফো
ফোর
আয়োজিত
নানান
বক্স
হয়েছিলো
অ্যাকা
বেয়ে
##রিদ্র
বেন
ঘনিষ্ঠ
##াপতি
ফেলল
কল্যাণ
##ile
বানানো
##িম্প
বারান্দায়
ছাগ
Bangl
পৃথক
শরী
##ome
##শাদ
শুভেচ্ছা
##কারীরা
##জ্ঞা
পরস্প
বদল
আব্দুল
৩৭
র্যাব
গণতান্ত্রিক
তোলে
জিয়ার
চামচ
রোমান
শয়ত
লিংক
##মানুষ
##কাতে
##ানু
কর্মকা
##পূর্ব
অর্ধেক
##কৃত
করিস
সূত্রের
বঙ্গবন্ধুর
অ্যান
ওয়েব
##তিষ্ঠ
আমেরিকান
মেট্র
ছেলেদের
##ame
##ক্ষেত্রে
সম্র
ঢুকতে
##ঁড়ে
২০১৭
##ণ্ডা
শ্রেণির
শক্তির
মহানগর
অগ্নি
will
##লেম
উপযুক্ত
প্রভৃতি
শাল
##মিত
##ish
থাকতো
ছাদে
##ড়ানো
##ংসের
নামাজ
যুদ্ধাপরাধ
##িসা
স্বরাষ্ট্র
##ক্ল
##তারা
দুদ
শ্রাব
জগতে
##নালে
##্নাম
এছাড়াও
নিরাপত্তার
##িশা
কর্নে
প্রার্থনা
অত্যাচার
##আপ
সম্পত্তি
##ফিল
গুপ্ত
ডিগ্রি
ওদিকে
অন্তর্ভুক্ত
নিলে
অনুসন্ধ
স্বাদ
হচ্ছেন
দরজায়
বলতো
দর্শন
##কান
বিনিময়ে
সৌরভ
এন্ড
আরিফ
লাগানো
ভাবলাম
দফা
পাকা
এখানকার
রিকশা
ar
আইনে
জোড়া
##তনে
##াকাল
চলার
##্রু
কারখানা
দেখায়
হাদী
পদ্ম
##ৈত
কপ
নির্মিত
##বিরোধী
পছন্দের
রয়
##্লার
##ছাত্র
##বুব
পাড়
সন্তু
##সুর
##শাস
সুখের
অজ্ঞ
যাতায়
বেশিরভাগ
উঠলেন
ভাইরাস
কর্মকর্তারা
##ধানের
##ভির
মিলি
মুজিবুর
সংকট
মানুষদের
কংগ্রেসের
বিদ্যালয়ের
মানবা
##াদেব
চলুন
কালে
ধুল
অনুবাদ
##পক
পাল্টা
স্লো
বাঙ্গ
নূ
##েজ
প্রযুক্তির
পূজা
শী
জানিস
একান্ত
##ড়িতে
মানিক
সমাবেশ
পাখির
মাধ্যমিক
স্বেচ্ছ
##বস্ত
ক্যামের
ন্য
দুর্ঘটনা
মাশ
##যথ
##ালীর
বাতাসে
this
খ্যাত
##ক্ষের
##দায়িক
বাদে
##বয়
সন্ধান
##রার
করবার
সিদ্দিক
##্বিত
##পন্থী
মানবাধিকার
বলেছিলাম
সল
##টেও
অভিনেতা
প্রতিদ্বন্দ্ব
গড়িয়ে
উঠেছিল
জানতাম
মক
আঙ্গ
মাঠের
##কী
অনলাইনে
##কর্মী
ফাঁকে
সামগ্র
র্যা
ডল
উড়িয়ে
ab
আছো
##ানীর
সুপ্রিম
অতএব
পুড়ে
##ভিল
উদ্দেশে
##োষ্ঠ
##িদ্র
ইঙ্গিত
বেঞ্চ
মুহাম্মদ
হেফাজ
জাফ
দুর্দ
ঘুমের
##ব্ল
##পুরুষ
##াবাদী
উপলব্ধ
##দানি
##এর
রেডিও
ওয়েস্ট
দর্শক
মিলিয়ন
ফারুক
ক্যাপ্টেন
ইন্স
##জুর
##টিও
নেতার
এইভাবে
গলার
ভালোবাসে
all
মিজ
আলা
অচেনা
তত্ত্বাব
বগু
আক্ত
থাকছে
মেঘের
ইল
যত্ন
##মুক্ত
অভিমান
ধরার
ভবনের
কয়েকদিন
টেলিফ
your
ইলেক
##জুড়ে
অক্স
খাতে
এদিক
কেড়ে
ক্রমে
গোলাপ
৩৮
have
অর্থে
মাহবুব
##ary
মতই
উল্ল
রাখবে
প্রাপ
11
##ন্না
একদল
পারলো
কেনা
৫৫
একেক
বিচারের
কর্নেল
বিজ্ঞাপন
সাহায্যে
কোহ
##াসীন
##েক্টর
কেহ
বলিউ
শব্দে
##জেক্ট
বিপর্য
বেকার
পুষ
বেহ
জরিম
আজিজ
শ্রমিকদের
যাবত
ভিজে
রিভ
দোকানের
টেকটিউনস
##ভুক্ত
প্রতার
সামলে
জমির
ওয়াশ
মহার
হুঁ
##ণ্ডিত
##ছিয়ে
ছুঁয়ে
এটাও
করাতে
শিক্ষার্থীরা
হিসেব
পাঠক
বৌদ্ধ
সমৃদ্ধ
নিষ্ঠ
সঞ্জ
শেষের
##সাহ
ঠেক
##ানকে
গ্যাল
মধ্যেও
অবহ
সঙ্গেই
ফ্রেন্ড
##রন
বোকা
##ুলি
গায়ের
যাওয়ায়
##গিত
মাধ্যম
জাহাঙ্গ
সুদ
পাবলিক
কার্যালয়
##পিয়ে
প্রোগ্রাম
মস্তি
##মন্ড
পোষ্ট
ক্লাসে
জা
তিনিই
বিতরণ
৪২
গোলা
রেখেছেন
শুটিং
ভু
##মোহ
##চ্ছিলাম
##্রেট
##ুকুম
মেসেজ
প্রতিশ্রুতি
আতঙ্ক
উদ্বেগ
বসা
বাছাই
দ্বীপ
বৈশাখ
##য়াজ
ট্যাক্স
রাখুন
গির
পারতাম
গেট
বাথর
নিরী
কাদ
সাধারন
##চাই
পিঠে
পাশেই
ঝর
নরেন্দ্র
আঞ্চ
ফাঁস
মাছের
মুক
অনেকটাই
অবলম্ব
আস্ত
৭৫
ব্লক
কমিউনি
##িংয়ে
দূরের
##ie
আঙুল
সেঞ্চ
পল্ল
##নেই
পরিবহন
##সমূহ
##মো
বাথরুম
##য়েড
বন্দী
যো
যথাযথ
##্রির
##িসহ
আমলে
ছায়
বেরো
শ্রেণীর
##ষ্ট্রে
আঞ্চলিক
দুর্ব
##েপ
##ঘু
চার্জ
উন্নয়নের
চালক
শ্রম
পেঁ
থাকুক
খাম
উচ্ছ
আর্জ
ভুট
কণ্ঠে
##বাহিনীর
তাৎ
বেড়িয়ে
ফোনের
হাক
ভগবান
পাচ্ছেন
সৃষ্টির
##ডিয়ার
ঘণ্টার
সহিংস
ম্যানেজার
বারে
টোয়েন্ট
ভাবছি
চিকিৎসার
সাজিয়ে
##ুব্ধ
পর্বে
##রাও
অয
ক্যারিয়ার
জামাল
প্রয়
নিন্দ
ব্যান্ড
##াবল
ড্রাইভার
ব্রহ্ম
pl
রাষ্ট্রীয়
অভিষ
বাস্তবায়ন
##কতা
দেখেছে
উপরের
পনের
##্যানে
কহিল
বাসের
সিঙ্গ
##জাল
রোগীর
ক্যাল
বাট
পুজো
##iy
দমন
মিনিটের
ভ্রমণ
সিনি
তাড়া
##ass
##লাশ
মাে
##চিৎ
সদস্যের
##াগর
লকড
তখনো
Am
এজ
বাংলাদেশকে
##ঠাক
##সভায়
ব্রাহ্মণ
##চী
পির
স্নান
নিশ
##ভেন
স্বচ্ছ
রেডি
ভোরে
সত্যিকার
তারাই
ঢেকে
প্রতিযোগিতা
##বিড়
পরিবর্তে
ওভার
হও
সুপারিশ
Sh
সৎ
ইমে
পৌর
শোনার
ফ্ল্যা
রেস্ট
do
স্যারের
মেন
কামনা
৩০০
পার্ব
##রূপে
একাংশ
আবদুর
কারোর
##টিই
##্টু
মৌলিক
ভিক্ষ
প্রকাশের
##ge
মুহুর
সেট
##শিপ
##েম্বরে
তাকায়
দোয়া
সাক্ষী
চরিত্রে
লী
তহ
অস্ট্রেলিয়ার
ঝাপ
একাই
চাকর
ঝাড়
গর্
দায়ের
##শিল্পী
##াগ্র
অভাবে
##চ্ছু
নদীতে
দরিদ্র
##দায়ের
##বিন্দ
##োসিয়ে
যম
বোঝার
যুগ্ম
ডাকা
শিক্ষিত
হির
মাত্রা
##্টের
##্লিশ
নমুনা
বিপ্লব
সাফ
নিলো
প্রবাহ
খুলনা
পরাজিত
##ুরির
দাদু
লক্ষণ
প্ল্যান
আগ্রহী
পড়েছেন
রাত্রি
my
##ally
টুর্নাম
নিউজিল
বস্তু
##71
##ire
সুখে
ম্যাডাম
পত্রিকায়
ইকবাল
দিনই
তাহাকে
##র্কের
অপারেশন
সাল্ল
উপদেষ্টা
জন্যও
নাট্য
##বিত্ত
অগ্ন
দিল্লি
২০১৮
##জী
##্জা
##ভর
অপরি
স্থগিত
##িকো
অমিত
কিছুক্ষন
আসছেন
পঞ্চম
বিবেক
নেড়ে
মামুন
স্বাক্ষর
কর্ণ
বিস্ময়
##টিয়া
ধরিয়ে
শপথ
স্টেশনে
##ড্র
কাউন্সিলর
##্জি
রাব
##্সের
বাড়তে
##িসির
##বাহিনী
গ্য
চাদ
আব্ব
##ব্রত
চারজন
মনির
বর্ধ
মোকাব
চাঁদের
হারে
হৈ
##ৃষ্ণ
সাইকেল
তম
মারতে
##ত্বের
ii
ডাকাত
শীতের
নায়ক
রেজা
সেন্টার
##িদে
করুণ
উপে
##িজে
man
ফোঁ
কাঁটা
সুমন
ফাল
অষ্ট
##তাদের
ওরফে
কেনার
মার্কে
##ভেট
হেন
ভার্স
মধুর
মিশ্র
##তাে
বৈধ
ম্যাক
পেটে
আয়াত
মর্যাদা
যাইতে
রোনাল
পালা
মহাসড়
সহযোগী
যানবাহ
ন্যাশনাল
বলছিলেন
##ংকার
হাদ
মিস্টার
রাজীব
পণ
An
সন্ধ্যার
ইউনিভার্সিটি
দেশকে
ক্রিকেটে
আন্দোলনে
সায়ে
ফায়ার
অমর
শোনে
সমূহ
মুচকি
দক্ষি
উইন্ড
শের
নেবেন
হাড়
##োগ্র
করাই
পকেট
জয়ী
##ip
##জরে
দ্বার
##রাত
স্টার
##গাঁও
সিনিয়র
ইউপি
ইউএন
##out
আবেদ
নিষেধাজ্ঞ
##গীর
su
মানবিক
দেখেছেন
ঠা
নেশা
অবস
রইলো
উপস্থিতি
হিজ
সন্ত্রাসী
##ove
কমপ্লে
অ্যাট
মঞ্চে
এমনিতেই
জগৎ
রত
বসল
নেব
অটো
##ানন্দ
স্বর্গ
১৯২
টন
আচার
কূটন
##স্তা
##ِي
খানে
ইন্ডিয়া
ক্ষত
মোতা
ভাবছে
অনেকগুলো
কুড়ি
##ায়নের
দাঁড়িয়েছে
ne
জরি
রক
##চো
নাজ
##ich
##বর্ণ
ফেলার
##ভ্য
##ber
চেহার
##শব্দ
নিযুক্ত
প্রবাসী
##কাঠ
বন্দর
ঘাম
দেখিনি
ওজন
কইরা
##থির
সাবধান
ভালোবেসে
তুলনা
ফেডার
ঝরে
বলিতে
গোপাল
পাড়ি
আধা
##মারের
##লগ্ন
খাবে
মহাপ
অতিক্রম
মিউজ
চলছিল
স্মার্টফোন
বিষয়টা
বিচারক
কিউ
স্র
##ঝি
গান্ধ
বাক্স
চৌধুরীর
প্রথমেই
বলিলেন
Re
বন্দুক
হব
লোকেরা
ওপেন
ট্রেনে
##্বস্ত
##িসে
##ন্তু
নেয়ার
কারাদ
এখ
গের
##াফিক
পারেনা
দিগ
##াইড
আকা
##মালা
কৃতজ্ঞ
প্রশ্নে
বয়সের
লোকটি
হবেনা
আরাম
পাথরের
##এইচ
ভাঁ
##ink
জাহাঙ্গীর
##hen
লেখাপ
হ্র
মহাব
একাত্ত
জাহান
আক্তার
##উদ্দীন
পিপ
ছুটির
সূর্যের
##ন্দু
নও
অবিশ্বাস
কষ্টে
##সেন্স
ফটো
বক্তৃতা
যাহা
##পর্য
মজুম
প্রাস
##ঞ্
ধৈ
বিবরণ
লিমি
সম্প্রদায়ের
আর্জেন্ট
তাকালো
আইপি
বাঁশ
##েলো
জাদু
মাধ
বাঁচাতে
ক্ষণ
ধুয়ে
বাক্য
করিবার
##কেত
অ্যাকাউন্ট
দিতেই
হাবিব
মাঝেই
বান্দ
একদিকে
##রাসের
১৯১
##তলায়
##্যাড
can
উত্তম
##দানের
পাইনি
##েলি
মরি
বিদেশী
ফুলে
##ice
জানাই
দেখলেন
##াইলের
হাসির
নামতে
তালে
বাপের
##ould
জী
নুরুল
we
ইভ
##েষে
অস্বা
জমিদার
ভালবাসার
প্রতিবন্ধ
এশিয়া
দুনিয়া
হ্যালো
প্রতিবাদে
আয়ান
ত্ব
আমরাও
নিপ
se
##ন্টি
##av
আদিত্য
ইস্ট
##19
বনে
পাল্টে
উপস্থাপন
##ম্বে
ধর্
উপলব্ধি
সাময়িক
ট্রান্স
ল্যাপ
২০০৭
নিয়ন্ত্রণে
গরিব
বিচিত্র
দায়িত্বে
যাচাই
দাশ
প্রশাসক
##থিত
অধ্যায়
##বর্ধ
জরিমানা
বর্ণিত
বিদ্যুত
ব্যার
কাঠের
বোতল
দফতর
তারাও
টেবিলের
ওভারে
চারিদিকে
ইস্য
আরম্ভ
পরিসং
শোভা
##তঃ
প্রযোজ
ইনিংস
অপহ
সিঁড়ি
কোয়ার
বন্দ্যোপাধ্যায়
##বাক
sp
উপাচার্য
দফতরের
শাখার
চিল
জামাত
গজ
থামিয়ে
নইলে
প্রশাসনিক
করুক
মারাত্মক
ওয়ানডে
অস্বাভাবিক
সাল্লাল্লাহু
উঁ
##ide
পরিবর্তনের
জামাই
##ous
##েরি
বাচ্চাদের
And
চাপে
স্টু
##শেদ
আসবেন
টাক
সুশ
নৃ
পরিশ্রম
চারপাশে
করানো
লিপ
##ডিয়া
কোল
ক্লাবের
##ওয়াত
##াতেও
অলিম্প
##ব্ব
কাজটি
চিন্তার
মুসলমানদের
অর্ডার
শাক
ছেল
##পিত
##যোগী
দেয়াল
সম্রাট
Is
গ্রুপের
আঘ
গ্রামী
সম্পর্কিত
##খের
লেনদ
সেখানকার
নহে
গ্রহণের
দ্বী
অনুমান
থাকল
চারদিকে
##iz
##ond
ফসল
হোসেনের
অধিবেশ
ইহা
আঁকা
গঠনের
##ন্তী
মস্ত
##করণ
মালা
##েত্রে
সার্চ
যুগের
ব্যক্তিকে
রাজনীতিতে
ভয়ংকর
ধ্র
যন্ত্রণা
পট
##য়েত
আলু
সৈনিক
চেনে
কর্মকর্তাদের
আস্থা
ঘৃণা
আমারও
সোশ
##বোর্ড
গন্তব্য
বোর
নিস্ত
পঞ্চাশ
ফজল
এশ
ছেলেমেয়ে
মানতে
২০০১
##ফ্র
কর্মচারী
হরতাল
##adesh
অধীন
উৎসবের
বার্ষিক
ব্রেক
অপূর
টেস্টে
##াদুর
স্নি
##াইটে
ম্যানেজ
বসার
kor
##দীর
বিশ্লেষণ
##ফোনে
##হত্য
ধর্ষণের
সুলতান
##্রত
সম্মুখ
কমল
##ঃপর
##ক্রমে
নির্দেশনা
ভট্ট
পুলিশকে
ছাপা
আমারে
সিনেমার
গালে
সংসারে
নু
##মাত্রা
so
চড়ে
কাঁচা
স্বজন
##ase
নোং
রাত্রে
আহা
মেধ
##ans
ছোঁয়া
টেলিভিশন
দিকের
##যােগ
নিয়েছি
ph
তাহাদের
##টেন
বাড়বে
নির্মাণের
অনেকক্ষণ
একথা
শীতল
হুজ
৬৫
বৈশিষ্ট্য
বঞ্চিত
সোশ্যাল
##খিল
ইলেকট্র
আশ্বাস
হিন্দ
গালি
মল্ল
দুদিন
ম্যাগ
ছাত্রদের
জোন
ক্ষমত
ফিস
মিলন
চাচা
বাণী
হৃদয়ের
##্কি
তালা
##ীতিক
ফিল্ম
##্নান
নাস্তিক
জগতের
ছুড়ে
##াহীন
##দু
চালান
অভিনেত্রী
শৈশ
শুকনো
মেঝে
ইলিশ
নিষ্প
অলি
##ির্
অনিয়
গ্রামীণ
##যাত্রা
##্টন
ডো
বুদ্ধিম
সপ্তাহের
##েকের
পেরেছে
অপরের
সান্ত
নয়ন
en
##ash
ওয়াল
অতঃপর
ব্যক্তিত্ব
He
আত্মহত্যা
হলাে
সংরক্ষণ
পদত্যাগ
##গুলা
##িতো
লাগলেন
##ানিতে
ভাইস
##্যাক্ট
সঙ্ক
সাঈ
##বধ
##সম্ম
গুছিয়ে
সমুদ্রের
বিজয়ী
বিষয়ের
অভিজ
মাসুদ
খুনের
শাড়
নিয়েছিল
কীর
##ence
বাজেট
জ্যেষ্ঠ
##জয়
ভেজা
আকারে
টুপ
সংবিধান
up
##াদশ
এইটা
##াটা
৩৯
ঢাল
##র্কে
মহাসচিব
পশু
ভর্ত
রেশ
মাথাটা
আবদুল্লাহ
জানুয়ার
রেহ
মোটরস
ভালই
পলি
সমাপ্ত
তুলি
সশস্ত্র
মাখ
দিতেন
স্রো
ডক্টর
আফগানিস্ত
জমিতে
জাফর
ড্রাইভ
ক্ষু
অদৃশ্য
##cc
গেলেই
মিঠ
আনিস
##উন
কুমিল্লা
##কাম
মেয়াদ
আবারো
মীর
ফেব্রুয়ার
কাছের
##ংসে
আন্তরিক
##দূত
রেজিস্ট
##পর্যায়ে
##িজীব
কদিন
প্রফেস
প্রতিটা
গোঁ
আসলো
থাকো
মুভি
##ফির
করিলেন
দুজনকে
নির্যাতনের
##ঠনিক
দিব্য
সীমা
এইবার
স্বর
ভুগ
উপাদান
##দারি
চশ
কথাবার্তা
##ন্দকার
ঘোড়া
আসনের
মানেই
যশোর
প্রবন্ধ
আমদানি
##az
রাখবেন
কিচ্ছু
গাছে
##ork
##নিতে
হেম
অ্যাসোসিয়ে
৪১
বৈষ
অসুখ
ফাইনাল
চক্রবর্তী
সুখী
##per
বললেই
৪৭
বহিঃ
বসলো
অনুশীল
ছেলেরা
সংসদের
যোগ্যতা
##পক্ষে
##ফ্রে
কমিয়ে
বিছানা
ঢেলে
##শলী
করবি
কলম
মেশিন
ফরম
উন
##গঞ্জে
খোঁজে
ফার্স
##াপে
গিয়েছেন
পরিদর্শ
সতী
নিখোঁ
সংসদে
কতদিন
পৌছ
সংশোধন
চেয়ারে
ঘুষ
আগামীকাল
##গুলিতে
##িলাম
মেইল
গর্ত
##ন্সের
##ime
থাকব
ট্যাগ
আকার
##ফিন
মৌসুমে
পারলেন
পাননি
শুনলাম
##ank
সংক্ষ
স্বার্থে
ছড়া
পূর্বা
অনুক
পর্যায়ের
প্রবাস
তাস
##োধনী
ছাই
প্রকাশ্যে
ঘটনাটি
##লাল
দেখিতে
ব্যাল
সড়কে
le
দেখিয়া
মিটিং
আসাদ
এগার
খাইয়ে
প্রান্তে
ফাট
সুষ্ঠ
মোটরসাই
দিনাজ
গ্লাস
বলতেন
চেষ্ট
ব্যতিক্রম
ফট
বাড়াতে
মণ্ডল
বিপদে
##োনায়
মিসেস
৪৪
##থী
পারতেন
আয়ে
##ইয়ে
এগো
উন্মুক্ত
##্ডিং
পরিশোধ
স্ল
##ফু
কমান্ডার
দুর্য
ব্ল্যাক
রুমের
কয়েকবার
##aw
সুবিধ
বোলার
ট্যা
হ্যান্ড
প্যাকেট
ইতিমধ্যেই
##্থান
##হোক
ওঠেন
জেন
বিপরীত
শিক্ষকদের
আলীর
অপরাধের
##চ্য
তিনিও
দাঁড়াল
ডেম
বহির
আমাদেরকে
বয়স্ক
আসলাম
জাতিসংঘের
অসীম
জরুরী
ধরেন
দুঃখের
শিউ
##িদুল
হোল
সকালের
##মুখী
জোগাড়
নিয়েছিলেন
পাড়ে
জনতা
৫২
তেজ
##্রিম
কতটুকু
একজনকে
একলা
##ান্তে
গোলে
হিন
All
বিএস
অংশের
সেবার
##্যাপ্ত
টানে
ক্য
ফেন
গেয়ে
##বন্দর
##ম্মদ
খবরে
বসেছে
সিরিজের
ঝিন
বিধি
বিন্দু
##াবা
##প্রতি
আয়ের
বর্গ
আমল
##কিল
গভর্ন
সুনাম
রুট
বীজ
তেমনই
প্রাইভেট
Or
##রক্ষ
##ালয়
ad
##াবন
ছাড়তে
হৃদয়ে
অরণ
##দলের
রিক্স
যুগান্তর
৪৩
##ory
ভ্যান
মুশ
সময়টা
##েট
##ণায়
বিসি
পিসি
জানালার
পরিবেশন
তরফে
ইদান
নামটা
ভয়ঙ্কর
স্নেহ
আবহাওয়া
নৈতিক
সীমাবদ্ধ
ইবন
গন
মেলায়
খাতা
কেস
ডায়ের
রেড
প্রাণের
বিপরীতে
ধারায়
সফরে
উত্তেজনা
শফিক
লাঠি
সংক্রমণ
##দো
প্রত্যাহার
প্রমাণিত
সেলিম
মিঃ
বাস্তবে
ইংল্যান্ডের
উচিৎ
##প্রকাশ
একাক
কলা
স্বপ্নে
রাঙ
সাংগ
রূপে
##প্রধান
এতটাই
খবরের
##ীতা
চাকরির
বেচ
একট
তাকাল
জেম
হাসিনার
ব্লা
##হাদ
##জিদের
Pr
কুয়া
##মক
সম্ভাব্য
##দ্বে
##াকালে
বোঝাতে
লোকদের
##হারে
##্বাদ
##man
ঘড়ি
বিশ্বকাপে
ঐশী
সেজন্য
যানজ
উচ্চারণ
##বৃ
একটুও
রক্ষার
চেয়েছিল
প্রতিষ্ঠার
##বিষয়ক
ড্রেস
চর্চা
##হো
##দাস
প্রতিযোগিতায়
##মেষ
চালানোর
নজরে
দশকে
খাচ্ছে
বাড়ে
সাধু
টক
পরিসংখ্যান
যাবতীয়
##পাট
##তাল
সাম্প্রদায়িক
সমন্বয়
দাদার
শুকিয়ে
মনোভাব
বাঁচতে
হামলায়
অভিষেক
##ল্লা
দেখছেন
##রীণ
##য়ালি
##চিত্রে
সেটার
ট্রাইব্য
পকেটে
২০০৬
##ঘ্র
দাঁড়াতে
দুপুরের
ঘাটে
এটাকে
থাকলো
##িকেট
শিবিরের
দিলেও
##াপ্রতিষ্ঠ
থাকবো
কাগজে
##মেন
জিনি
থমকে
রশিদ
##াক্স
সেরকম
আগুনে
##ানুর
বজ
রোহিঙ্গা
বিশ্রাম
##ডেন
সেদিকে
ইমরান
##লোকের
তফ
করিবে
সমঝ
ন্যা
শাস্ত
ত্রুটি
ফেটে
লক্ষ্মী
ভিক
ইয়াহিয়া
ইন্টারন
রাতেই
লাগলাম
Pro
খাওয়
প্রতিবেশী
দারিদ্র
নিরপেক্ষ
##াদির
##ডেট
প্ৰ
##ভের
সারি
পদ্ধতিতে
সন্দ
সাংগঠনিক
আইএস
যাতায়াত
দিবেন
তাঁহ
##uk
ফাঁক
বিভক্ত
মোটেও
ডাক্তারের
##খর
মোহন
##ont
কান্ন
মালয়ে
##ধারী
জুটি
ট্রেনের
সমিতি
গতিতে
মগ
লগ
সংখ্যাল
বিবি
one
সামনেই
মৈ
বারের
শান্তির
সংযুক্ত
মৃত্যুদ
সারার
ওসব
##োগ্রাফ
অভিযোগের
un
ইংলিশ
ফার্ম
সামলাতে
##ার্ড
হাসে
##পতির
কাণ্ড
who
রাশ
আহসান
বৃষ্টিতে
রংপুর
##পিং
##বাম
কালের
প্যান্ট
কট
জানাল
পুতুল
কষ্টের
##শ্চিন্ত
পাঠানোর
সংক্ষিপ্ত
করছিলাম
জন্মের
##ভাগ্য
দিকেই
Ar
##টেক
চমক
নবীন
##লস
বিশ্বকাপের
no
কপাল
নড়
রিয়াল
টেকটিউনসে
##প্প
ভাস্ক
দণ্ড
##বার্ষিক
মস্তিষ্ক
এতক্ষণ
##কণ্ঠ
চেতনা
এবারে
ফর্ম
নাসির
কর্প
##গামী
ব্যাঙ্ক
প্রবণ
ব্যক্তিরা
ওসমান
পিন
বাঙালির
মজুমদার
##ীড়া
বোলিং
ধীর
লাইনে
##াব্য
হাহ
কর্মরত
ট্রাম্পের
ফাইনালে
উদ্ভ
ক্ষেত্র
##َل
সৌম্য
গঙ্গ
পৃষ্ঠা
##খম
##ace
আর্টিকেল
##ft
অভিশ
বাইক
সর্
##য়ারের
বরিশাল
চিন্তিত
##র্পণ
they
থাকতেন
Bangladesh
আড়াল
নিশ্চিন্ত
মারে
বাহির
সুষ্ঠু
অনন্য
কানের
##ُو
নোয়া
পড়লেন
সমর্থক
দেবীর
বৃদ্ধির
খ্রি
##ত্তা
কোভিড
##ুলা
লাইব্র
মোটেই
আসতেই
বিদ্যমান
ভেবেছিলাম
ভৌ
ভাবা
বলতেই
ব্রাজিল
তারে
অসম
সাগরিকা
মারধর
করপোরেশনের
আং
সর্বা
দায়ে
নিখোঁজ
রাগে
As
##েশ্বর
প্রফেসর
রঙিন
প্রকৌশলী
লঞ্চ
ময়মনসিংহ
অপূর্ব
##বাহী
কক্ষ
##পাই
উষ্ণ
পাতার
##মনির
কাটাতে
Ind
##load
অধিকারী
সূচনা
তারও
আফ্রিকার
এরশাদ
##কট
যাদ
লাগিল
যেতাম
টাঙ্গ
পেছনের
উইকেটে
বৌদি
##ত্তির
##কথা
শতাধিক
সাক্ষ্য
পরিবারে
উঠি
##ভাষা
চলমান
যাবি
ধরেছে
হোস্ট
মেয়েটাকে
ঘণ্ট
এক্সপ
সংবাদমাধ্য
পঞ্চায়েত
##য়ারে
তুমিও
বিমানবন্দ
পেট্র
##পাত্র
থিয়ে
বোঝে
সংসারের
রাশিয়া
পুজোর
কদ
অগ্রসর
ওরে
but
মেসি
##েয়
ধৈর্য
জামিন
স্ত্রীকে
৪৯
বার্সেল
পেরেছি
##গুপ্ত
কোড
ঘাঁ
প্রজন্মের
প্রত্যাশা
আইনশ
আধিকার
##ধী
us
স্পেশ
রুহ
##চারী
কর্মকর্তার
ফস
মানববন্ধ
ছল
গানে
উত্তেজিত
গুম
নিয়ো
রচিত
উপকার
##্তন
নিষেধাজ্ঞা
অঞ্জ
অর্জ
##ound
বিবেচনায়
ওঁর
his
ঠাণ্ডা
অমৃত
ফুঁ
##াকৃত
বাড়ানো
ওখান
২০১৯
পারতো
দূতাব
দীর্ঘশ্বাস
পাকিস্তানী
ঘটনাস্থলে
##ণু
সিড
নিই
রব
নৃত্য
সূরা
গুড
ইন্ট
রেস্ত
খুলতে
ওদিক
জ্যাক
আদৌ
নিষ্ঠুর
সর্বত্র
##ount
দশকের
৪৬
##ey
অ্যান্ট
বুড়ি
পার্
এমনটা
##িবির
হস
রপ্তানি
মেহে
লোকজনের
##han
পরিপ্রে
শামী
২০০০
দলিল
কোণে
পিতার
শৌ
সমস্যায়
হিন্দি
ওয়ার্ডের
##নেস
##ত্তম
৫১
ডট
চোট
##দারের
##ভিয়েত
জন্মে
##ানক
কমলা
এক্ষেত্রে
ধরল
ধরলো
ফাউন্ড
ইউটিউ
##ঞ্চি
আমেরিকায়
এসি
খুজে
তিল
লাইসেন্স
দম্প
##ian
জাক
##বাজারের
##বিআই
উফ
ইন্ডিয়ান
শরীফ
##ঘরের
কমেন্ট
ভাইকে
চিন্তায়
কুপ
হাঁটা
জন্মগ্রহণ
লাব
জঙ্গল
স্বাগত
তারেক
ইতিবাচক
রোগের
##জ্ঞানিক
নোবেল
মোবাইলে
প্রথমবারের
নির্মম
প্রদীপ
ইসরা
ইব্র
অন্যরকম
সেম
##াবাবু
ঠে
জীবিত
বুলিয়ে
##তীর
নক্ষ
চাইল
ততক্ষণে
দিয়েছিলাম
টেলিফোন
##ick
স্বতন্ত্র
ক্রিকেটের
ঘোষণার
##লেনি
তর্ক
##বাং
গুট
ইনিংসে
ছেলেটার
দেহের
ফুটবলার
##ৎসর
নোংরা
উর
জাপান
##শিত
##গরি
চিত
##ক্ষ্ম
রক্তে
##্বিক
পাচার
কেঁপে
তন্ম
হলের
##ম্
পেয়েছিল
##ধ্ব
##ঞ্জের
গায়
ব্যবস্থার
চেয়েছিলেন
লাইট
উস
আল্লাহ্
##াময়
দালাল
বিহার
ফেরা
আশপাশের
##ষের
##িচ
##জাগ
##সো
##ফর
রক্ষণ
সার্ক
##ধরনের
দুইটা
উল্লেখ্য
প্লাস্ট
##কলা
ফ্লো
লাইফ
##দাতা
##র্মা
##ক্ষিতে
ভীত
সাউ
##শ্রে
দফায়
##বার্ট
তাব
ষষ্ঠ
একপর্যায়ে
তুলেছে
মহাম
অনুরাগ
মেজাজ
মণি
দিও
দুশ্চিন্ত
সাফল্যের
সভাপতিত্বে
ধ্রুব
##পূ
##কারীর
ভারতবর্ষ
##দিনী
ভোটে
##াবাদের
মেম
ঝুঁক
মানা
স্টেট
অনা
ঈশ্বরের
পুড়িয়ে
##able
বাড়ানোর
ছবিটা
সন্তানদের
চত্ব
দেখলেই
ধোঁয়া
ইনস্টিটিউট
বাগানে
মোড়ে
##ote
কার্যালয়ের
দুর্ঘটনায়
##বাই
##েম্বরের
প্রতিনিয়ত
চক্ষ
রীতিমতো
পেলো
প্রহ
কোনটা
স্যাম
##শাই
ডাকতে
##qu
##ex
##গেট
##oad
##ছিনা
মাদ্রাস
আগমন
দুর্দান্ত
অবন
এপ
##বাসীর
ঢুকিয়ে
দোল
##সিন
সৃজন
মানের
আয
তাগ
##পিট
মেতে
##াবলী
একু
পর্যবেক্ষণ
ভবনে
##ুলার
গরীব
নির্দেশে
##িতেছে
ঘটছে
ঝাল
মাও
মন্দিরের
##ফারে
##হত্যার
##্ডের
অন্তর্
##eng
অস্বস্তি
ki
কায়ে
ভাবতেই
##োটাই
##ফর্ম
##ধ্যায়ের
রজ
Com
##সাল
পাসপোর্ট
##ition
##ুদ্দিন
পড়েছি
##পত্রের
হুই
পাইল
আত্মা
tr
খত
মিলনায়
যেকোন
চট্টগ্রামে
উঠলাম
পশ্চিমা
ছিঁড়ে
অমন
##শ্রী
ঘূর্ণ
পাও
পরিপূর্ণ
দাপ
রন
গোছ
ইউরোপীয়
ধনী
##হুর
পরিপ্রেক্ষিতে
কারাদণ্ড
Un
##টারের
ফেলবে
শব্দটি
বাকী
কৌতূহ
বানাতে
সহসভ
##মধ্যে
মধ্যবিত্ত
##ug
প্রমান
নারীকে
ফ্ল্যাট
দুর্নীতির
মিশিয়ে
##ীমা
##ভেদ
##্যু
##খাট
হিংস
আবদ
চাইছেন
বারো
সংরক্ষিত
চলল
উজ
সেঞ্চুরি
cl
কক্ষে
ম্যাজ
সেজে
ক্ষেত্রেই
জনগোষ্ঠ
##ধারণের
গুলোর
শুনানি
যুক্তরা
নাইট
বট
আসছিল
ত্রাণ
গয়
হেল্প
পর্যাপ্ত
নিঃশ্বাস
বিগত
কুসুম
শুল
##ুক্তির
##খানেক
##ফিস
টিপে
পাঠাতে
উল্টে
ফার্স্ট
##গি
##খ্যার
##ঞ্ছ
রেজাল্ট
##ম্বার
রহিম
##ance
##জীবন
##বিজ্ঞান
##নিং
সমাবেশে
চাবি
৫৭
কোম
আগুনের
ফ্রেশ
প্রিম
লোকটার
অনিশ্চ
##ুমা
তুষ
##াকালীন
প্লা
২য়
হিল
৫৪
হবেই
মহিলার
দেননি
আলে
মুছ
ওয়াসাল
যােগ
শিরোনাম
দুনিয়ার
পঁচ
##স্বরে
##সনের
##act
তীর
##সংযোগ
আত্মসম
মহাকা
রাশিয়ার
নবাব
##িতেই
##উক
##্লেন
বিবৃতিতে
ত্রিশ
লড়
সংখ্যক
কমপক্ষে
ডার
কাটে
এলাকাব
নাটকের
##ডিট
রোধ
হয়েও
সহসভাপতি
আম্মু
##্যকর
##oll
দেরী
উপস
খন্দকার
অর্থমন্ত্রী
তিনটে
গরুর
উৎসবে
তাহারা
ডিজাইন
##োপাধ্যায়ের
খস
##ফেল
বাঁচিয়ে
কেও
প্রম
তদন্তের
জামায়াতের
##ব্লিউ
কেব
##িউল
##ara
মাইক্রো
##ভী
সংস্কৃতির
বলত
মির্জা
হিট
##বক
বিস্তৃত
বেড়ায়
১৯০
একি
ব্যাথা
im
##ড়িয়া
বিবিসি
কর্তা
রেস
##দিনে
লেক
##যুগ
পাঠান
সাবধানে
them
ঋষি
প্রচেষ্টা
উপেক্ষা
করছো
বন্যা
প্রতিমন্ত্রী
En
লাভের
আইনি
আহ্বায়ক
বাতি
তীরে
ক্লিন
পশ
প্রথা
হ্যারি
##ূপে
##ভঙ্গ
##ন্থা
লজ্জায়
লন্ডন
অধিদপ্তরের
রাজক
ক্রমাগত
কেয়ার
##দিয়া
টাইপ
কারখানার
বাগানের
হোটেলের
মসজিদে
রোহিঙ্গ
প্রভু
আশার
বাহিরে
##সূত্র
ডির
##নিস্ট
##ুড়ির
জেরে
দাঁড়ালো
সম্মিল
জনসংখ্যা
শাহবাগ
আইনশৃঙ্খলা
বিজি
টানতে
যুক্তরাষ্ট্রে
গবেষক
ছাত্রছাত্র
লাফিয়ে
শিগ
ঠিকঠাক
সাহিত্যের
প্রার্থীর
##ান্ডার
জিজ্ঞাসাবাদ
বৈজ্ঞানিক
টোয়েন্টি
খড়
খিল
প্রতিবছর
##িকেশন
মর্
যাচ্ছ
স্টেডিয়
মহাশ
হাকিম
ভেতরের
বিজ্ঞানী
##িয়াক
##চয়
##াবাড়ি
রূপান্তর
ফিট
পাড়া
বসিয়া
##ৎস্য
##বিশ্বাস
ভালোভাবে
জায়গাটা
এসআই
হটা
##ডির
ছা
করপোরেশন
##ার্টমেন্ট
নম্বরে
মেহ
হার্ট
একর
অধ্যক্ষ
ফিফ
ছাদ
##পান
মাফ
সার্বিক
##ated
কক্সবাজার
জ্বালিয়ে
বিভাগীয়
has
মন্দিরে
১৯৭২
##ক্তিক
ইউএনও
মুশক
##মকা
দলটি
##িশীল
জ্যাম
ভারি
যখনই
উঁকি
বলছিল
দাওয়া
এসবের
পারা
দশক
খোল
ধারনা
রতন
##সারণ
ফেলি
ওন
##uc
ভোরের
##here
আউ
ওয়ার্ল
হোয়া
##মেলো
প্রিন্স
গবেষণার
হাদীস
গোপনে
আপিল
সোহাগ
মুহূর্তের
##ঠা
৪০০
পরিবেশে
বিস্মিত
শোভ
জর্জ
বিরাজ
##ষ্ণা
আবাসিক
তিতির
নাহলে
অভ্যন্তরীণ
দক্ষতা
##াহা
##নাই
##কৃষ্ণ
সাম্রাজ্য
তপ
কমেছে
চুমু
15
অভিযানে
##িরি
ইউসু
মশাই
করোনাভাইরাস
##িশনের
##ult
বলেনি
কন্ট্র
ছন্দ
চুলের
পেয়েছিলেন
তুমিই
##াগার
##ov
পরিমা
বিশ্লেষ
মধ্যপ্র
আরোপ
গেছিল
চালা
কেশ
প্রদর্শনী
বসানো
কমিউনিস্ট
সমঝো
আইসি
শ্রীর
দুষ্ক
ছুঁড়ে
সেতুর
গার্ল
বাদী
সামর্থ
সময়েই
ধাপে
৫৬
অনুপস্থিত
ময়লা
##খায়
##দর্শী
প্রতিষ্ঠাতা
এসেই
হামিদ
গি
ফেলেন
২০০৫
ওয়াশিং
##pr
বাংলাদেশী
মেডিক্যাল
একত্র
বইটি
সন্তুষ্ট
##াধিকার
##ফত
বাণিজ্যিক
ভূমিকম্প
ইঁ
##যে
##ডাক
##গুলিকে
ইন্টারন্যাশনাল
ফয়
##োরের
শোষ
pe
জাস্ট
পেটের
প্রকৌশল
ইহার
ঝল
২০০৪
যোগাযোগের
শয
##েন্দ্র
##ার্জ
মাগ
হিং
##vers
স্লোগান
##বিদ্ধ
মাজ
ব্যাস
এটুকু
##লেস
মুশকিল
ঘু
ফেললাম
বক্তব্যে
আধিকারিক
দাড়ি
এমনভাবে
নির্জন
খুশ
অবলম্বন
লেখাপড়া
কাস্ট
হাউস
বিরোধিতা
এলোমেলো
##গুন
##pl
সর্বনা
kn
নেত্র
সাহা
ঘেঁ
ময়ন
##air
গাঢ়
গণ্য
##ownload
##ৃক্ত
৬৪
এমপি
চিনে
খণ্ড
টেলি
সভার
অনুষ
##ৌক
##াবাড়
##ছড়ি
##পাতে
দুইটি
তাতেই
করেছ
যুবলীগ
Qu
লাগা
মন্ত্রিস
##তলার
পারিনা
##গন
##৭১
ক্রীড়া
ভাঙচুর
উদার
It
লাইক
শুদ্ধ
রাজস্ব
আমন্ত্রণ
বিগ
##tern
আঁধার
লঙ্ঘ
শ্রদ্ধ
সকলকে
কাই
বেঙ্গল
মাক
##ুনো
ভালবাসি
শরি
##ণি
Ad
ল্যা
##বাদে
##ike
##ধায়ক
সারাজ
পৌরসভার
দিলেই
অনুসার
হোয়
বলিস
ডিভাই
সাধ্য
কোমল
##বিহীন
মেঘলা
রাসূলুল্লাহ
দিগন্ত
সত্যতা
##েকো
##কিয়ে
মৃতদেহ
কাজল
সরু
##ther
যাবৎ
যানবাহন
পাহাড়ি
কিরে
অর্থনীতির
জ্বালা
##শোধ
অবসান
##িজা
##াগো
তল্লা
রিয়
বিষ্ণ
শোনো
সেক্রে
নকশা
##ন্ত্রে
বুদ্ধিজীব
রাসেল
তোলেন
মৎস্য
তব
গ্রহন
তদন্তে
ঢোকার
##সই
আর্য
পাহা
মনোনীত
আশীর
ঠাকুরের
শিগগির
##াক্রমে
##াসেব
##ডিং
উদ্ভাব
যাত্রীদের
অর্থের
যাঁদের
##ical
গাম
18
মিষ্ট
##রিটি
##ose
##oug
আফ্রিকা
রানী
cont
ag
অনন্যা
ওয়াসাল্লাম
পরিত
খতিয়ে
সুগ
বিদ্রোহী
করেছিলো
সম্মতি
আগ্র
পাবার
ঘাস
নিচ্ছেন
##نَ
মাওলানা
##ach
চশমা
পোল
##্বন
##ৈর
বসলাম
কুষ্ট
জ্যোতি
##ধারা
ক্যান্ট
মামার
আয়োজনে
ক্ষয়
অমান
খ্রিষ্ট
আপু
ইউনিট
১ম
মুঠোফোনে
সমাপ
জড়ো
নারীরা
বজ্র
আসব
##চকে
নকল
আসবো
শখ
আচমকা
কৃত্রিম
ঠোঁটে
পরিণতি
অবস্থানে
ফেলেছি
##ভারের
পরশু
পাহাড়ে
সম্পদের
রৌ
সবগুলো
শিক্ষাপ্রতিষ্ঠ
ল্যাব
জুনি
হয়র
##লীর
সমুদ
কখনই
ভট্টাচার্য
পেত
এশিয়ার
অকার
##প্রত
##rit
অন্ন
মুনা
##ction
ধ্যান
হুকুম
দ্রব্য
করোনার
আছিস
দেখাচ্ছে
ব্যানার
ট্রাইব্যুন
##দানে
শিক্ষকের
সেমি
এইখানে
##যাপন
##ষিত
##ভিতে
৫৩
হারাম
নিতান্ত
সার্ট
তুলেছেন
##মেট
##ari
##ree
গীত
রোহিত
##সংগ
নিউইয়র্ক
সোসাই
হবো
স্মার
শিম
সম্প্রদায়
লবণ
##ঠার
দুর্ভাগ
খাতুন
পরিষে
শোধ
দিল্লির
সিভিল
##্বাধীন
দেয়ালে
মেট
যেতো
##ামূলক
আদম
ইউরোপের
গণতন্ত্রের
পণ্যের
সমর্থকদের
অপু
their
যন্ত্রণ
শুরুতেই
পর্যটন
পর্যায়
কামর
##াইক
পলাশ
দেশপ্রে
পার্লাম
sc
ইরানের
উপদেশ
মধ
রাজনীতিবিদ
৭২
##ুণের
রাঃ
নয়া
প্রেক্ষাপ
মসজিদের
জনসা
বৃত্ত
টল
অনুসন্ধান
সারাক্ষ
জঙ্গলে
##তামূলক
ঘাড়ে
ওয়ার্ল্ড
বইম
বাস্তবতা
সীমিত
জনতার
##ings
ব্রিগে
তী
নিক্ষ
আক্রমণের
চুক্তির
মোশার
৫৯
##াকু
শতকের
স্তরে
অনিমেষ
মহাপরি
আইয়
প্য
পেপার
আলমগীর
##ামুল
##গরের
হাজারের
এঁকে
পরিচিতি
##int
কিড
অরুণ
##গুলাে
নাজম
নামার
করণ
স্কোর
সম্পৃক্ত
নাস
##্কায়
মুস্ত
ভয়ানক
এনেছে
ঊর্ধ্ব
##পাক
খানেক
সিলেটের
##orm
প্রতিরক্ষা
ট্য
##ইজ
বিজ্ঞানের
ঝিম
বিক্রির
রেস্টুর
আইডি
ক্ষেত্রেও
ব্যত
গৃ
##ক্ষেপে
##ক্তির
চরিত্রের
টেক্স
স্বরূপ
সেদিনের
জৈ
ক্ষমতাসীন
##রকে
কন্য
##গল
##গকে
চল্লিশ
অভির
গোষ্ঠী
মাঝামা
শুনলে
নিঃশব্দ
##াব্দে
##oh
পরিদর্শন
পাঁচটা
কথাটি
দৃষ্টান্ত
মিয়ার
বালিশ
কর্মসূচির
ফেরে
তৈর
##পত্রে
উপমহ
নিন্দা
দুর্যোগ
##ows
নয়তো
##ুখী
বিদ্যালয়ে
ta
প্রজেক্ট
হইছে
গর্ব
মেয়েটিকে
ক্ষুব্ধ
তবেই
##াহিম
ছয়টি
নিভ
ছিলনা
খোদ
উপকরণ
ফ্যান
অশোক
বৃহৎ
##৩৩
বন্দি
গৌরব
মানুষটা
##সমূ
দেহে
সাজা
জিয়াউর
সাহসী
প্রদেশ
পরতে
করছ
অটোর
ব্যবসার
মোল্লা
উদ্যাপ
##মোহন
any
ব্যাবহার
কাটার
ডলারের
পাবো
রেখেছিল
শিশুটি
ওড়
শয়তান
গর্ভ
সার্জ
আশেপাশে
##lam
স্বস্তি
নাগরিকদের
রাজ্জ
আমান
ফেসবুকের
হৃ
হাদিস
ট্রাস্ট
স্মৃতির
বিক্রে
ব্যাক্তি
লোককে
Post
বরফ
আবির্ভ
যতক্ষণ
কোর্টের
বাঙাল
##বেলার
ছিটকে
কাকা
দামে
জানাবেন
##্মি
De
কন্ঠ
ব্যবধানে
সচ
দশম
সাতটি
প্রতিশোধ
##হতি
বিলুপ্ত
বিনিময়
জোড়
মফ
কুরআন
মঞ্জুর
মার্কেট
অংশগ্রহ
##যান
পোর্ট
যায়না
টিউনার
যতো
##্টোর
নেপ
পণ্ডিত
সিট
আকাঙ্
##up
##িয়াকে
গৌতম
সোনালী
কাস
লিঙ্ক
মাঝেম
মিট
পরিবারকে
অপরাধী
মাদ্রাসা
মেহের
সীমান্তে
জোটের
জনে
ভঙ্গিতে
ভাষ্য
ইনফ
রুশ
দারুন
চেঁচিয়ে
বিমানবন্দর
পেলেই
শুল্ক
ভাগে
##ীকরণ
বড়ই
ডিল
##খাস্ত
##ath
মূল্যবান
তামিম
ওয়াই
ফিচার
হস্তান্তর
লাগছিল
##ভাগে
গল্পটা
বিজনে
ছিন্ন
কিংব
প্রবী
ধারার
এএফ
পরপরই
আশরাফ
কালাম
লেখকের
##াপি
পাড়ায়
ছিলে
অবাধ
এইরকম
উচ্চবিদ্যাল
স্বেচ্ছাসেব
সুক
ঔষ
৫৮
ঘাটতি
অভিনন্দন
মনকে
শিল্পের
লেনদেন
রেখা
##ph
দেখেনি
চীনা
##বার্গ
##নিম
রেজিস্ট্র
##ীষ্ম
ডেভিড
পনেরো
ওল
##বাজারে
পার্স
উগ্র
##খণ্ড
##নিবেশ
কুঁচ
প্রয়া
##িনির
প্রবণতা
কিংবদন্ত
দেশীয়
ভাবছেন
##te
মাস্ক
পাল্ট
জহির
##াত্য
ওনাকে
ঘটতে
পৌছে
##ীশ
রাষ্ট্রদূত
সাইন
কাটতে
রেখেছি
##র্প
দশটা
sa
গাড়ী
পশ্চিমবঙ্গের
গৃহীত
##িগ্ন
এজেন্ট
##য্য
বণ
টুইট
ধানের
সেভাবে
নেবার
অষ্টম
জীবনটা
জিগ
সোহেল
আসিফ
সিআই
সাপোর্ট
##ুমার
ধাঁ
##লন
লালন
পার্বত্য
প্রতিষ্ঠানে
আরেকটু
##র্ণা
মুখপাত্র
সোভিয়েত
সবটা
হার্ড
ল্যাপটপ
বিদ্যুতের
চট্টোপাধ্যায়
##াফিজ
তুরস্ক
বেদনা
সমর
পর্যট
##ভীর
##ফাই
রেখেই
নামায
৬২
##রুমে
কেক
ব্যবসায়ীদের
নিচ
হারানো
প্রসার
উত্তরা
বাসিন্দাদের
পতন
অস্থায়ী
##িজি
হাসিম
চাইনি
##ফ্রেন্ড
You
ভাষণ
ডিএস
##ূলে
##to
##ার্ভ
দুর্বৃত্ত
কোন্
বান্ধবী
ততই
রিল
শিক্ষাব
১০টি
উদ্দ
বিনয়
##ৃত্ব
জানতেন
ছক
জনপ্রিয়তা
ফা
হের
মিলনায়তনে
ডেপ
সন্ধ্যে
পরিমাণে
চৈ
চামড়া
দড়ি
এখনকার
##ark
আলাে
ঘুমাতে
চাইবে
গোল্ড
শুনেই
##iss
দর্শকদের
ইউসুফ
ছুরি
##ধির
##AL
গ্রীষ্ম
ক্লান্তি
১৫০
Wh
শপিং
লিগে
চত্বরে
যতটুকু
মুজিবের
লেখেন
সোফ
বিধায়ক
হ্যায়
##্তার
দুবার
##oto
##িয়েছেন
আরেকজন
শিশির
চলচ্চিত্রের
অর্ক
এবারও
out
##চিতে
খাস
মনুষ
পেঁয়াজ
##বিধান
##্ধা
ব্লগের
দখলে
লাগাতে
তত্ত্বাবধায়ক
ভুলতে
প্রদেশের
14
ফজ
##ণীর
বন্ধন
##ারেটর
##পুত্র
বালু
রুটি
৯৯
পুরুষদের
##বোন
সাহিত্যিক
পর্দা
জাপানের
অজ্ঞান
##so
রোগীদের
ভাঙ্গ
শ্রো
এতটুকু
##াবর্ত
আকবর
গভর্নর
##বুল
ভুত
ঘােষ
গড়া
মুক্তিযুদ্ধে
চলেছেন
শরীরটা
উদ্বিগ্ন
##ভায়
চেয়েছিলাম
বিশেষত
বৈষম্য
মনোর
##ঙ্গী
দুর্ঘটনার
আজই
অপরিচিত
বিরত
গোসল
দেবতা
প্রজাতির
কাগজের
বালি
সংঘর্ষে
এটার
বিন্দ
পদক
অর্জুন
নিউজিল্যান্ড
কাশ্মীর
নূতন
চিত্ত
বিলাস
শিখতে
##ুটো
##স্থল
একমত
যেটি
পুষ্প
কোক
যুবকের
মেঝেতে
দুম
বলছো
দরজাটা
ইঞ্চি
পুনঃ
##ুভ
সুবিধার
হাওয়ায়
وَ
সম্মুখীন
মাইন
সাধন
গিল
##বাড়ির
সারারাত
তলা
অনূ
##ঘটিত
ফেই
সীমানা
ফরাসি
কাঁধ
ট্রেনিং
সভ্যতার
##্লাই
কর্মসং
নাল
##পারে
বনের
##াইনের
কালকে
আলোচিত
##চর্
##ta
বিম
বললেও
বিশ্বাসের
চাদর
##ুয়
##জাহান
নিবন্ধন
ম্যাগাজ
ইরান
প্রোফ
স্পেশাল
ভিন
ছোটবেলা
পোড়া
গুলিতে
দাউ
##্রমের
মুঠোফোন
উম্ম
ঝিল
সাগরের
জয়ন
সাক্ষাৎকার
লিও
##সায়
মেক
সেখানেও
রঞ্জ
কটা
বিয়েতে
পদ্মা
##স্থানের
মাঝামাঝি
##গুলোও
কার্যত
প্রদানের
part
##োচ
রাজশাহ
তাে
ইয়াস
দেশি
ক্লাসের
অজু
শীঘ্র
ট্রাফিক
২০০৩
দিতাম
জানত
পুরসভার
সন্তানকে
##শাহ
মাদার
আসর
অনির্বা
হঠাৎই
কহি
ফেললেন
সাঁতার
সনদ
##োদিত
##োনাল্ড
সার্টিফ
মর্ম
##য়ারা
অশ্রু
ইঞ্জিন
যাইহোক
##gr
প্রণাম
খাতের
খোক
পেজ
মরণ
নেতি
অতীতে
স্তব্ধ
বেসাম
প্রভাবশালী
অশ্ব
বর্ষা
পরিচালনার
গ্রহণযোগ্য
ফিলিপ
বাড়িটা
তাপমাত্রা
##যুদ্ধের
ভিসা
গোবিন্দ
চিঠিতে
##বিজ্ঞ
##সচিব
রাফ
সিদ্ধার্থ
##টান
ভিডিয়
##orld
বৎসর
সিএন
সেটাকে
ভুব
আন্টি
ফাঁসি
করছিস
##িশনে
ক্ষতিপূর
##che
চট
পুরাতন
##ওয়ের
পাঁচজন
আজ্ঞ
সন্ন্য
রিভিউ
ফেললো
##ুকি
অবা
ভাবনার
##ষন
সিদ্ধান্তের
প্রভাবিত
res
আত্মার
নিয়োজিত
পুণ
সিকিউ
##থন
গবেষণায়
ওব
শ্রেণী
মুর্
তথ্যের
আসত
ঘণ্টায়
comp
কয়ে
##এসের
##ঙের
হারানোর
ধরন
জানানোর
বালিকা
বেড
লোহার
দেখব
অর্জনের
##াকাটা
মোস্তফা
হানি
ধাত
##রফ
##েবল
##াজনক
ভবিষ্যতের
ডিউ
##ens
অর্থবছ
রেলওয়ে
লেখালে
##লাভ
##িয়াই
##নিকে
হাফিজ
পিস্ত
গাইতে
প্রবীণ
হ্য
##সেস
সংশয়
##কাজ
সপ্তম
চেন
চাপিয়ে
ঘটনাটা
##উল্লাহ
শিশুকে
হতাশা
199
ডিফে
সহস্র
পার্শ্ব
বুঝবে
ডেভেল
৮৫
মারার
দেওয়ায়
13
##ায়েল
সমী
প্রাধান
রিমান্ড
মিরপুর
পেলেও
রিফ
জাতীয়ত
অবিল
##োয়ান
নাদ
একাউন্ট
আইয়ুব
রফিকুল
লিস্ট
তথাক
আসন্ন
ফকির
নবম
নিরব
##ুল্য
অসাম
##ays
লিমিটেড
##uj
##্টি
##্লীল
নিজেরাই
##প্তাহ
ব্যবসায়ীরা
জনসংখ্যার
মাতা
ভান
##ডো
##যত
হাজারো
স্ট্রি
##দৌ
নিজেরা
শামীম
বরণ
সুনীল
কমান্ড
জেমস
ধা
ক্যান্স
Sp
মুক্তিযাে
রেস্তোরা
অতীতের
চেয়ারপার
হুজুর
##দহ
তালুক
দেখানোর
শট
এও
ছাগল
##প্ল
দ্বিগ
বেচে
বাল্য
বিডি
উইন্ডোজ
16
প্রাঙ্গ
পেশায়
##ীগঞ্জ
ওয়ার্ডে
ইফ
উন্নয়নে
শীর্ষক
##ফুর
কোর্স
অবিলম্বে
##তনের
##স্থানে
##ারী
খাও
তৎপরতা
##্টিক
ঝাঁপিয়ে
##ople
##ife
মানববন্ধন
সাগরে
সাইফুল
রোডের
১৮৯
প্রতিফল
হাতি
সালমান
কয়লা
Mus
##ায়নিক
টার্ম
ইসলামিক
##শ্যক
মিলিত
স্ট্যাট
সত্যিকারের
##ষ্য
##খ্যক
মাপ
##লেখা
জ্বলছে
কোরআন
পালিত
হিউ
হকের
##na
যতদিন
তথাকথিত
পিউ
নিরীহ
ফিলিস্ত
##হাম
গেটের
##াত্ত্বিক
##বন্দি
লন্ডনে
হবি
স্টেশনের
গল্পে
তহবিল
একবারও
ক্যাম্পাসে
পূজার
ব্যতীত
সমাধানের
প্রচারণা
বাড়িতেই
এরূপ
বিভ্রান্ত
জবান
লিপ্ত
চাইলেন
আবদ্ধ
##িনীতে
ঝুলিয়ে
সুদী
Go
হটাৎ
মিশন
উপায়ে
পড়েনি
জজ
ডিভ
##গরে
তরুণী
পুরানো
বাসিন্দারা
লই
তখনকার
রজন
ঝড়ের
##তই
আমারই
##পাঠ
পিয়
##oth
যথার্থ
##াবাজ
প্রীতি
##ুয়াল
বিড়াল
মও
প্রার্থীদের
ছট
ডেপুটি
##নামূলক
##ঞ্চলের
জঙ্গিব
গণিত
উহার
জ্যা
বহাল
https
নাতি
লকডাউন
বাতাসের
টুকু
##্যাংক
ভূমিকায়
মেদিনী
গানটি
সৌভাগ্য
##কেয়া
কর্মকাণ্ড
নেতিবাচক
##েড
কান্নার
টাওয়ার
ছাড়ার
থেকো
অনুশীলন
অভ্যস্ত
দামি
সম্মিলিত
রাসায়নিক
চলচ্চিত্রে
সহায়ক
পানীয়
ত্রিপুর
একটার
অটোরিক
সেভ
কারখানায়
বহুদিন
সুব্রত
মহাজ
শ্রীরাম
আশঙ্ক
##াটাই
নেতৃ
উপযোগী
##খানায়
##ীণ
লাগলে
প্রাধান্য
##মণ্ড
সংলগ্ন
একখানা
কিশোরী
##ign
বৈদ্য
আঃ
উপমহাদেশ
##চিক
ব্রাউ
চেয়েছেন
গণমাধ্যম
মুসা
বুঝতেই
চড়া
সবজি
হারুন
টাইমস
শক
##্রিয়
##ফোর্ড
এগোতে
মরা
মান্নান
আপডেট
লাগতে
নিপীড়
একইভাবে
হননি
##্শন
##ঞ্জাম
##ঞ্জার
খন
প্রত্যেকে
স্রোত
তাহের
পেশা
মূল্যায়ন
অভ্র
##মারি
লেখায়
হাঁটু
ছিনতাই
##নাট
জ্ঞানের
সভাপতিত্ব
স্ট্যান্ড
মহিলাদের
অনেকবার
জমান
##াতদন্ত
প্ল্যাট
ডঃ
এন্ট
On
আতা
যেয়ে
মিয়ানমারের
গান্ধী
এহ
ঔষধ
পাগলের
##ফ্রন্ট
ময়নাতদন্ত
বিপ্লবী
ek
ঠোঁটের
প্রশান্ত
বর্বর
তিনটা
##দ্বেষ
ছোটবেলায়
##ইয়ের
##পোষ
##সিল
শাহর
জব্দ
##reat
খন্ড
##20
খোলার
চলি
রক্তাক্ত
##োত্তর
আঘাতে
হঠাত
কমিউনিটি
##ঁচা
জ্বালানি
##যা
##ূরে
পালনের
ফেলেছেন
তীক্ষ
##ole
বৃক্ষ
গিয়েও
খল
##মিশ
##স্বরূপ
মহল
We
##ডিয়াম
হিসেবেই
পারছিলাম
৬১
কোট
##ali
##ধারে
সিজ
দ্বিধা
##বুর
অভিযানের
লাহ
হোস
মোম
মূল্যে
te
চিকিৎসাধীন
টর্
বদ্ধ
লোকাল
ঘটা
বালক
লড়াইয়ে
অগ্রগতি
##াকাটি
দ্বন্দ্ব
চিব
##থেকে
ওমর
কুট
##চায়
সংখ্যাগরি
যেগুলো
পড়ায়
বিশ্বাসী
ছুটতে
রবিন
ঠাম্ম
মিডিয়ায়
অনিন্দ
পীর
ট্যাব
##মনি
৬৬
পানে
##জ্জন
ফোঁটা
হ্যাক
খেলোয়াড়দের
বাঁচার
সার্থ
হাসছে
শাশুড়ি
প্রদত্ত
স্নিগ্ধ
আত্মবিশ্বাস
সাজে
##ৃদ্ধি
রেস্তোরাঁ
সহায়তায়
##ery
##শংস
উম
##শ্বিক
ইন্ডাস্ট
kh
##ational
আফস
দপ্তর
তিস্ত
সম্মাননা
কাহিনি
অপহরণ
##িয়েল
জাহিদ
মোটরসাইকেল
আবদুস
জার্স
##ার্থীদের
মার্চের
প্রতিযোগিতার
##জ্জিত
প্রত্যেকের
পর্যালো
সারাজীবন
উঠিল
কান্ড
##োন্ন
মুখোপাধ্যায়
ওয়েবসাইটে
আহমেদের
চালাচ্ছে
১৮৮
Posted
##লোয়ার
##াদেবী
আসো
মিনার
দুদক
খুশী
উপপর
ব্যবহারে
##রাওয়ার
পাণ্ড
অপরাজ
অমনি
বিকৃত
যথার
অস্প
বিচারে
##ন্তর
২০০২
দেবা
নীত
ক্যাব
কোচিং
মেলার
রইলাম
নির্মাতা
নিঃসন্দে
মালিকের
আব্বা
##টনের
বাড়ীতে
পরিষেবা
ডোনাল্ড
##প্লে
জুনিয়র
ঘন্টার
প্রান
##োক্তা
মেধাবী
##fer
##পক্ষের
ডানা
##্ভর
হুমায়ুন
কিছুক্ষণের
উত্তীর্ণ
দুইজন
##্তিতে
##িদর্শ
আশীর্বাদ
চঞ্চল
ভেদ
পরিস্কার
উইলিয়াম
বহিঃসংযোগ
ঢোকে
হেফাজতে
##ons
পেরেছেন
##োরি
প্রিমিয়ার
উদ্বোধনী
রোগে
৬৩
মানুষই
হাসল
১৯৭৫
##োড়
রিং
নিস্তব্ধ
বৈদেশ
জীবনকে
রঙ্গ
সাউথ
সঞ্চাল
সিরিজে
time
ভিয়ে
##গড়
##শীর
আনসার
সবকিছুই
রিসিভ
আদিবাসী
হত্যাকাণ্ডের
অজ্ঞাত
বাউ
##সংখ্যক
সংযো
সম্মেলনের
ইনস্টিটিউ
হুমায়ূন
##ির্দিষ্ট
তুষার
##َن
##igin
ম্যাজিস্ট
প্রহর
রাজী
##হাল
ছাদের
গৌর
সঞ্জয়
স্বামীকে
er
বসেই
১৯৯৬
বিষণ
কমন
আরোহ
৯৫
অপরাধে
পার্কে
##্লায়
আগাম
প্রণয়ন
##িনাল
##তিকর
পৌনে
শালা
মহারাজ
ধরুন
চিকিৎসকের
##েয়ে
our
দিয়েও
##ঙ্গু
হোয়াইট
রান্নার
পাদ
##কেটের
##atch
ঋতু
উত্তোল
খবরটা
শুষ
শীর্ষে
চেষ্টায়
দিস
অনিচ্ছ
তুমুল
বলছিস
الل
##বিধি
শর্ম
বেস্ট
হজ
বগুড়া
মরু
মহকুম
চন্দন
##জু
জানিয়েছিলেন
রিক্সা
গভীরে
মিউজিক
শতাব্দীর
জুতো
পর্দায়
পাঠায়
ছাঁ
রাধ
মিজানুর
লং
##ানাে
##গুণ
শ্রীলঙ্কা
ধুর
সাঈদ
উপপরিদর্শ
ভারসাম
##াসীর
##মণি
ঠিকমতো
##াতিক
প্রচারিত
রসিক
রাসুল
প্রগতি
সুনির্দিষ্ট
##স্থলে
মানি
ডাকছে
একুশে
এদেশের
করিলে
রাজ্জাক
##সাদ
রাইট
চারটে
কথিত
ছোটখাট
##োলজি
পদের
নাজমুল
বুজে
ব্যাংকে
সুরক্ষা
নন্দিনী
শফ
পর্বের
##aka
গ্লো
ভ্রাম
সংখ্যাগরিষ্ঠ
বৈদেশিক
বন্ধের
বরাবরই
ভাতা
আপা
স্বপন
হারাতে
##াকর্ম
গয়না
##ise
ঝুম
ক্ষতিকর
যানজট
ঘড়ির
সাঃ
##িবদ্ধ
গহ
বিবর্ত
নেত্রী
হিংস্র
অক্সিজ
##no
##শালা
##্রয়েড
বাচ
ইস্ত
জুট
ভক্তি
আবৃত্তি
শ্বে
চক্ষু
উত্তেজন
##ুনির
ঘোরা
নেতৃত্বের
##ব্যবস্থা
ভাবল
জানলে
আঙ্গুল
মনেই
##্বির
##গাল
শৃঙ্খলা
বারণ
গলে
কাকু
আবে
দাখিল
ইতো
গোর
##هُ
##বৃহ
সারাক্ষণ
প্রথমবার
কালি
বিছানার
ফিসফিস
দিল্লিতে
কাঠামো
নায়িকা
ঘূর্ণি
ঘটবে
শ্যামল
পাসওয়ার্ড
ছেঁ
খিদে
মালিকানা
বৈঠকের
শ্লো
রিট
জিনিসপত্র
##িকাল
দুয়েক
##ামাল
পূর্ণাঙ্গ
নল
তুচ্ছ
তৌ
##্বাস্থ
লিগের
##মূর্তি
পারফরম
ভিত্তিক
নিবিড়
বিরক্তি
রনি
গণ্ড
মাতাল
##্যবস্থা
নৃশংস
এতই
##পাতি
জিপি
গিফ
করেনা
অব্য
30
##der
##িপত্য
স্নাতক
খানা
হায়দার
সংগ্রামের
টিউমেন্ট
##নু
ছেলেটির
উপপরিদর্শক
##ুণা
দিদির
কাগজপত্র
একাডেমি
ইশার
আরা
##বৃহৎ
আলতো
উৎসাহিত
পশ্চিমবঙ্গ
চলাচ
অবির
শ্রেণি
অভিভাবক
জান্ন
সংঘটিত
জখম
বিতর্কিত
সাহায্যের
new
তনু
জুতা
ভেবেই
পরিচ্ছন্ন
রায়হান
##নীর
অর্ণ
ট্যাক্সি
সাে
##র্নিং
উৎসর্গ
প্রশংস
নগ্ন
কৃতিত্ব
ভ্রাম্য
নির্মল
তাইতো
gr
##েরও
৬৮
জীবা
করাটা
সুভাষ
যথারীতি
##স্তির
মুক্তিযোদ্ধার
ফজলুল
ফ্লাইট
##ভাল
আরাফ
ওবায়
নামকরণ
তথ্যপ্র
জিল
##য়াক
নোটিশ
কোষ
আশরা
বাঙালী
সৃজনশীল
উচ্চতা
ফখ
##বরে
পুরা
ফাঁকি
##ক্সে
শাস্ত্র
আসুক
qu
Min
কাজকর্ম
দোষী
app
গুজব
ডেমোক
##য়িং
অবশিষ্ট
##শাসন
##ভৌ
নাড়া
সিদ্ধান্তে
দিবসের
##ীয়া
বিকেলের
বিপদের
##্লান
নিষ্ক
চাচ
এঁদের
জাগে
বিদ্যা
##hon
গণহত্যা
বিমানবন্দরে
বেতার
আব্বু
চেহারার
##ঁক
লতি
তরুণদের
গড়ার
বাজি
সচেতনতা
হইতেছে
মেখে
ফ্যাশন
অঙ্গীকার
##log
##be
অস্ত্রোপ
##কর্মীদের
সংক্রম
মৃত্যুদণ্ড
বান্ধব
আদায়ের
বসি
সর্বদা
##জাদ
সমীর
ক্যাম্পে
মনুষ্য
পড়িয়া
অভিজ্ঞতার
অবকাশ
সঞ্চয়
গাড়িটা
সংশোধ
আয়া
01
৬৭
লোকসভা
##জিং
ভাইর
##শীদ
সর্বনাশ
ভল
আছেই
ক্রিস্ট
বদর
##ংয়ের
অরণ্য
সংবিধানের
নাহি
নিদর্শন
মুদ্রা
ফাস্ট
বর্জ
মহাকাশ
লাইব্রের
অনুরূপ
আমদান
জনগণকে
##রাওয়ার্দ
জীবন্ত
আবেদনের
৬৯
##কেলে
বইয়ে
মানুষেরা
##ions
ধানমন্ড
হিরো
##্টো
রাউন্ড
##কিন
br
বেড়াচ্ছে
##িপূর্ণ
শান্তিপূর্ণ
বিজনেস
নক্ষত্র
দলটির
বসেন
##িস্ক
অন্তরে
সখ
##াঁই
দিবো
ফেরি
নগদ
সৌজন্য
নৌকায়
##াইটেড
##িলায়
লাগার
##োটের
জন্যেই
জানালো
খেলাধ
ফ্যাম
কূটনৈতিক
প্রতাপ
হুট
শব্দটা
সুস্প
বসলেন
শিশুরা
স্তম্ভ
সম্মুখে
অশ্র
সিরিয়াস
ফখরুল
আকর্ষণীয়
হাঁস
জিততে
মিম
মাথ
পরস্পরের
করিবেন
##াবলি
ইহুদ
Allah
যাদব
##িন্ড
##্রাণ
দুষ্কৃত
hoy
লাইনের
পাতলা
গিয়েই
দাঁড়ানো
পরিদর্শক
বধ
আঁখি
##ল্যান্ডের
চেয়েছে
কুক
হারায়
প্রত্যাখ্যান
বিক্রম
মোটর
ইলে
##াপ্প
##উই
ভারতকে
একরকম
পরিমান
উদয়
রিজার্ভ
আজো
##ৌকিক
ধমক
একাত্তরের
ক্রয়
##রিয়ার
##িজম
নীরবে
ব্যান
করছিলো
##কেলের
সাইটে
রাজু
দেশগুলোর
সফরের
মুশফিক
বেসামরিক
ঠেকাতে
স্থাপনা
##থম
পশ্চিমে
গোয়েন্দ
##ামিন
ফ্রান্সের
সেক্টর
পারলেও
৭৩
আখতার
##alo
রোহিঙ্গাদের
##very
বিজ্ঞাপ
গ্যাসের
নেতৃত্বাধীন
খনি
সঙ্গেও
বৃহত্তর
##বারক
দিনটি
জানলা
বিস্ফোরণ
মুক্তিযোদ্ধাদের
কহিলেন
মাইকেল
ভয়ের
পাওনা
কবিতায়
হীন
##াবতী
হস্তক্ষেপ
পারিস
আকস্ম
তেলের
বায়ু
কোর্টে
##চিন্ত
ইস্যু
টায়
##ep
##িকেন
##বড়
##োটার
করিয়াছেন
সংস্করণ
অ্যাম্ব
কতক
রাইফেল
##াকর
##বানী
তারপরেও
রক্ষাকারী
কন্ঠে
Load
চার্চ
গিয়েছিলো
প্রাণে
মরতে
অবহেলা
##্রা
বৈচিত্র
জানাচ্ছেন
কন্ট্রোল
সৌম
স্টুডেন্ট
##ত্বে
সবারই
##িমেন্ট
বিশেষভাবে
রহমানকে
রহস্যময়
প্রক্রিয়ায়
উহা
##্যেস
তপন
খালেদ
চালের
বিলিয়ন
সর্বপ্র
১৯৭০
##মুখে
ইফতার
সুফ
সুস্পষ্ট
অধিব
স্টেডিয়ামে
স্থানান্তর
নীলের
বলিনি
স্পিকার
রোল
বলছ
##ঙ্গিক
দীন
Ph
জলবায়
বাড়ীর
ইংরেজিতে
বলছিলাম
পলাতক
নড়ে
বনাম
বানানোর
পিছনের
ছদ
##ঞ্জি
##্টর
লােক
##্ধব
##ন্সে
সেন্স
স্টাফ
পেশাদার
17
ক্রিস
প্রবর্ত
একশো
মাসিক
রেখেছিলেন
স্প্যান
নেপাল
কমপ্লেক্স
দেখান
ভাঙ্গা
মনোনয়নপত্র
যোগদান
বলবি
নানার
##ন্নাথ
সিবিআই
আয়োজ
what
থাকতাম
ফিন
War
##ভঙ্গি
##াশা
আর্তন
ম্যাম
##২১
যাচ্ছিলেন
দিনটা
খুনি
রাশেদ
বিজ্ঞানীরা
বলাই
বিক্রয়
তিথি
এক্সপ্রেস
দামী
থ্রি
ভিডিয়ো
আব্বাস
সর্ববৃহৎ
রমজান
শরণার্থী
হেঁ
##oss
কোনটি
বেরোতে
উত্তরাধ
কাপড়ের
##ওড়া
##ke
জির
যাপন
উঠিয়ে
##মনের
পারছিনা
ঘরোয়া
পোস্টার
##ru
##ার্চ
করিয়াছে
তাজউদ্দীন
tw
বিষয়গুলো
##চারে
চিরকাল
other
নিশ্বাস
##খানার
টিভিতে
##ফারেন্স
তন্ময়
ডাটা
একাদশ
##রাফি
অভিনয়ের
বিজয়ের
সমন্বয়ে
পরমাণ
জাকির
তের
কলমে
টেকন
জিনিসটা
শিলিগ
মওলানা
##াতির
অনায়
জনক
বিব্রত
জঙ্গলের
ব্যায়
ব্রিজ
people
করোনাভাইরাসের
জগন্নাথ
ind
নিক্ষেপ
শাস্তির
ঘোরে
ওখানেই
##ইই
সার্টিফিকেট
পিস্তল
গোষ্ঠীর
টেকনা
প্রথমত
পিটিয়ে
গুলির
রথ
যেতেন
##ম্বর
অন্তঃ
সামগ্রী
পড়াশুনা
অচল
কার্ট
সেক্ট
##bo
লাঞ্চ
পাঞ্জাবি
সাপ্তাহ
which
দিনাজপুর
##টেল
ছিনিয়ে
অবকাঠ
##বাহিত
##বৃত্ত
ভ্রাম্যমাণ
৬০০
##ভিউ
মাশরাফি
অই
হারিয়েছে
নীতির
##কালেই
##ান্তরে
বাস্তবায়নের
##নাে
Loading
ঘেরা
কোমর
dis
ভারসাম্য
##ান্তেই
ওয়ার্ক
সাক্ষর
প্রতিনিধিত্ব
রবার্ট
##ূল্য
##রাম
কষ
কৃতজ্ঞতা
উত্থা
##ধায়
##ঞ্চলে
##কাত
এড়াতে
কেনে
এরপরে
##মায়
যুদ্ধাপরাধীদের
##িপার
১১টার
বাচ্চার
নারায়ণগঞ্জ
প্রেরণ
নিঃশব্দে
ভোলা
সত্যের
চিঠির
সিকিউরিটি
শও
##বতী
ডিপার্টমেন্ট
পারার
বিরল
হাইকোর্টের
Ab
##ations
রাখলে
কাঁদছে
গুটিয়ে
ভোল
there
ক্রস
যথাক্রমে
এয়ারপোর্ট
##কিছুর
বার্ত
ঘটেছিল
আরেকবার
দেখেছিলাম
সংখ্যালঘু
##েজন
জার্মানির
বন্ধুকে
জরিপ
পেতাম
মেধা
##িলেন
ছত্র
ইউএস
লুই
মেস
##বার্ষিকী
বটেই
গিয়েছি
আধিপত্য
রাজকুমার
বিধানসভা
হেই
ঈমান
চাইলেও
মাঝারি
অপশন
পাইয়া
##ভিন
আটটি
##সমূহের
মানসিকতা
ইঞ্জিনিয়ারিং
if
শামসুল
রবীন্দ্রনাথের
০৫
##র্ঘ্য
কাছেও
##বাড়ী
##গতির
ভাবেন
শূ
##বারই
নাকে
নির্ভরশীল
##োলে
বক্তৃত
করিতেছে
সংস্কারের
পাকিস্তানকে
সামর্থ্য
##যুদ্ধে
তুলনামূলক
সুলতানা
নিচ্ছি
মাঝেমধ্যে
##লীয়
এক্ষুনি
কলাম
আওয়ামীলীগ
দার্শন
মধ্যপ্রাচ
হানা
##াড়ার
##ীং
অশান্তি
ঝুলে
৭৪
ইশারা
ঝোপ
অধিদপ্তর
##নীতি
ওপারে
মিলবে
এজে
প্রকল্পে
অনুভ
মাসি
আনুষ্ঠানিকভাবে
আপনা
বেচারা
আসতো
সংখ্যায়
নীচের
No
হানাদার
মতাে
বাঘের
অজান্তেই
নথ
মহাপরিচালক
ফৌ
##ল্লার
পঁচিশ
ঐক্যবদ্ধ
পররাষ্ট্রমন্ত্রী
ইঁদুর
শ্রীলঙ্কার
কুঁচকে
মাননীয়
টেস্টের
এলাকাবাসী
বিল্ডিং
##amm
ইরা
ভব
##যজ্ঞ
বুলেট
রিসার্চ
ধুলো
আগলে
more
রিচার
ভুয়া
বাথরুমে
##াঙ্ক
মাধব
যাঁর
বক্তব্যের
##িল্লাহ
##রাশ
আজীবন
কোটা
কমাতে
##ভূমির
অপারে
দুঃখে
আর্মি
মার্ট
##ঘাটে
##ন্ডা
সরব
##ুনার
##্তুগ
রোমা
পুরোটা
##শূন্য
##ঘ্ন
সেন্টারে
##ভূতি
##ফান
বৃহত্তম
তল্লাশি
দুঃখিত
কেই
সাক্ষাৎকারে
সমুদ্রে
বোঝাই
জিম্ব
ছদ্ম
তাৎক্ষণ
ক্রাই
ডেন
নট
স্বদেশ
১০টা
##স্পর্শ
##তুক
মিমি
হউক
##ভৌম
অহনা
পর্ষ
ভালোলা
##এমের
অজস্র
তীর্থ
আরিয়ান
তখনি
ধরিয়া
জায়গার
শৈশব
নির্ণ
স্পোর্ট
ফ্যাক্ট
##66
কুকুরের
like
বিষাক্ত
কালী
##িণী
25
##েশের
বিপর্যয়
##ঝুম
##বরের
ঘোড়ার
স্মি
১৯৪৭
হাসিমুখে
##ালেন
ম্যাল
জানতো
বিবেচিত
##সিদ্ধ
##চাঁ
সিলেক্ট
যুক্তরাজ্যের
মল্লিক
বস্ত্র
বিয়েটা
So
ঘোষিত
পরিন
দুর্বলতা
অবিন
সুজন
##ভবনে
দিব্যি
এখানেও
Origin
রাখল
কোলা
রাখো
সংসদীয়
জুম
অভিহিত
ওপরের
iii
মিয়ানমার
মানিয়ে
##ায়নে
##ন্দ্রনাথ
ফান্ড
অ্যালবাম
প্রচারের
##other
সাক
আল্লাহ্র
##বহুল
সূচক
মহাক
মেক্স
টয়
বিরতি
১২০
Ex
##িরোধী
তালুকদার
স্থল
##ال
অন্যরা
অন্তরা
নীতিমালা
ভবিষ্যত
সোয়া
ফ্ল্যাটে
আজম
ভূঁ
কাউন্ট
প্রশ্নটা
##iye
##ান্তের
এসেছিলাম
অসহ্য
উধ
অর্ন
অপরকে
অভিশাপ
শহী
##ায়ত্ত
বাজিয়ে
হাতেই
ধুম
হাতির
লাজ
##ech
##eration
##ull
সম্বল
পরিত্য
বিনোদন
##ণিত
শিরোপা
##io
মানুষটি
নজির
মর্নিং
ছড়
রও
ছেলেটাকে
পর্তুগ
##য়াই
বিটি
সাইবার
রোদে
রিমি
##খাল
পরিবেশের
পুলিশে
৭৭
ক্লাবে
সুজ
ডিএন
ভিড়ে
প্রাপ্য
##ِن
Sc
##স্টের
চেঞ্জ
রিটার
দার্জ
##port
ছেলেমেয়ের
উর্দ
সংলাপ
আম্মা
স্নেহা
আঁকড়ে
স্থিত
বিজ্ঞপ্তিতে
সিই
ফরিদপুর
তরুণের
মোদীর
মোকাবিলা
শেক
চাকরী
হত্যাকাণ্ড
মৃত্যুব
নেমেছে
ওবায়দুল
##ঙ্গাল
##পুল
##ক্ষার
##ুফ
কোরিয়ার
নিঃসন্দেহে
দিবসে
##দাদ
পূর্বের
মঙ্গ
ঘূর্ণিঝ
##مْ
##ীদার
শিরোনামে
উঠলে
##গ্রামের
স্যান্ড
পতিত
তাইলে
##ড়িত
##ামতের
হাওড়া
শাসনের
ক্যামেরার
রহমত
বাঁশি
শতকরা
মাইক্রোস
২০২০
ব্লকের
দক্ষিণে
##খবর
##িনিকে
তাকেই
ভালবাসে
00
ভেবেছিল
ফিরবে
##সম্মত
গঙ্গার
মাহফ
মন্ত্রীর
এগুলোর
উপত্য
শুনিয়া
##িউদ্দিন
per
৭৮
কোনোভাবেই
মুখোশ
মাইক
স্তর
ব্র্যান্ড
এসএম
কোম্পানী
##িনো
থিয়েটার
পারবি
##াদিগকে
Ed
মিডিয়ার
##বরাজ
হ্রাস
কেটেছে
অবিশ্বাস্য
##লব
শর্ট
দোস্ত
সাপ্তাহিক
সুযোগে
কামরুল
ছাপিয়ে
php
টার্
উচ্ছেদ
##বৃন্দ
##ুয়েল
খি
প্রাপ্তি
সান্ত্ব
সাতক্ষ
চুরির
প্রতিদিনই
সার্বভৌম
মুহুর্তে
পোস্টে
##vi
ধূম
him
চাঁদা
১৯৯০
বিবাহিত
লিখা
যৌবন
গুটি
ময়দানে
আলোতে
অনেকেরই
ঠাট
ঝক
পিঁ
ধৃত
কর্মচারীদের
##বৈ
##খির
পরো
বিধ্বস্ত
রাখছে
মূর্
##শিক্ষা
দেখবো
মাত্রই
হট
পিটার
৭৬
অনুপ্রের
বসত
##জ্জনক
দুনিয়ায়
জালাল
ঈশান
সন্তোষ
বাঁশের
##স্তক
তিনবার
সিটে
অস্পষ্ট
বুয়ে
প্লেট
##িকাকে
ছিটিয়ে
পেসার
##৩০
##ট্রিক
খেলেছেন
##চ্যুত
এটিকে
ফুটিয়ে
নার্সিং
##জনীন
খাড়া
নিয়মে
about
ট্রাইব্যুনাল
অন্ধকারের
ঋণের
করানোর
কার্যকরী
##ebook
##বধূ
ভাসিয়ে
পটু
কেমনে
চাইনা
ইউনাইটেড
শাহরুখ
লাউ
মুজাহ
ঘটিয়ে
##ান্ন
উল্লাহ
তাতেও
শ্ম
তাকাতে
আশরাফুল
চিকিৎসকেরা
পাউ
বুঝলে
##সিস
কর্পোর
গ্রাহক
নেক
বিনোদ
##োনোর
দৌল
২৫০
মুহুর্ত
ফাঁসির
সায়ন
সরেজম
গ্রিন
তোল
সুশীল
খেলেন
বস্তুত
ইন্দোনে
পরবর্তীকালে
অনিরুদ্ধ
উহ
বহুত
##ডোর
বুঝা
উত্তরাধিকার
জাহাজের
ফেরদৌ
চলিয়া
রোজা
শর্মা
নির্ল
জার্মানি
সায়েন্স
আশেপাশের
চায়না
শর্তে
পেয়েছিলাম
চাইছি
মৃত্যুবরণ
##নন্দ
ঘটল
সেক্রেটারি
তাৎপর্য
খ্রী
##স্কে
আনি
ক্ষতির
ইন্দিরা
##ুঁত
Pak
ফিজ
সেক্ষেত্রে
চিপ
বিশুদ্ধ
ভ্যা
ভাঙার
##প্রাণ
দম্পতি
সংস্কৃত
বরখাস্ত
সভ্যতা
বাহার
##বস্তু
দ্বিগুণ
পরাজয়
যাবেনা
##াইটের
আঁচল
##িশার
যৌক্তিক
বিমানের
সংবাদপত্র
শঙ্ক
ততো
রুহুল
আত্মসমর্পণ
আইজ
সহানু
সংগঠিত
##ময়ী
পুনর্বাস
অ্যাসোসিয়েশন
গাইড
প্রযোজ্য
লঙ্ঘন
উকিল
পথিক
##াবলম্ব
##ivers
ব্যাস্ত
যাইবে
বিশ্বব্যাপী
ভর্তির
শহীদুল
বাঙ্গালী
উঠিয়া
অজয়
কিছ
রেলের
টিউটোর
আটটা
পারিবে
##লেশ
আপনিও
শ্রমিকের
১৯৯৯
থাকতেই
জলপাই
##ীজ
##মিট
দার্শনিক
বিপজ্জনক
জোরালো
Quote
চুলে
টিকা
দিলীপ
ভাবলো
ইব্রাহিম
সৃষ্টিক
ক্রোধ
ধ্বনি
##িনকে
দুরে
বিকাল
ইউনিয়নে
রোনালদো
প্লাট
##ামন্ত্রী
তলিয়ে
৮৮
সামল
##ূর্তির
খুজ
ক্ষীণ
সমর্থিত
রক্ষায়
গ্রাস
সহযোগিতায়
ক্ষতিপূরণ
এইটুকু
আইসিসি
##বানের
ভ্রু
গম
##বিহার
বছরই
তায়
##বাবুকে
ইতাল
মাখা
নববর্ষ
মাধ্যমেই
রূপক
পাত্তা
know
##স্থায়ী
কাকাবাবু
সরঞ্জাম
ফ্রন্ট
কতবার
Man
রোডে
শাও
##েলর
চায়নি
অক্ষয়
দিনগুলো
জামান
সেগুলোর
খাতায়
তরঙ্গ
##জোড়া
সংকল
হাতিয়ার
ক্যাস
##ভু
ডাবল
আলোকিত
দেখাশ
##ader
টিন
##ান্বিত
লিভার
ড্রাগ
ডেই
সংকেত
বাবুল
কারিগ
মুহাম্ম
ফলের
১৯৯১
লেগেছিল
বিপ্লবের
বর্ষের
হচ্ছিলো
বেআই
সাহিত্যে
##য়েলের
কম্পিউটারের
ডায়েরি
পোলা
##নাল
করতেও
অমিতা
নজরদারি
পাহারা
তীক্ষ্ণ
গিলে
ব্যর্থতা
অন্
আকারের
ধরি
##istan
বানান
সন্ধানে
যথাস
ব্যবস্থাপ
লিফ
প্রকাশ্য
##্কেল
স্বরাষ্ট্রমন্ত্রী
টুর্নামেন্ট
বিস্ক
ছাতা
তাড়াহ
রাজনীতিক
কল্পনার
##ীরাও
kore
আপলোড
লাশের
দেখাবে
নেয়নি
বলিউড
##ভূমিতে
##োনের
আরবি
##িতাকে
##র্তা
চৈত
ফুটবলের
পরনে
উইক
পশুর
কেবলমাত্র
অক্ষর
বিএসএফ
অবস্থানের
##িপির
কনস্ট
##ঘাতী
একদিনের
##তত্ত্ব
##াদেশিক
##ents
জ্যোতির
##ুলিয়া
ক্লো
কাঁদে
মোশাররফ
টাকে
রাজত্ব
ফলোয়ার
##িসার
প্রয়াত
মিছিলে
##মম
##বাড়িয়া
ব্যবধান
##গ্রন্থ
রাকিব
বাবল
পরিকল্পনার
পাঠিয়েছে
সিগারে
চেয়েছি
কেল
##োয়ে
তামিল
##সঙ্গ
সুবর্ণ
পড়াশোনার
উন্মাদ
ইমেজ
এলা
কলি
##পালা
##চ্ছেদের
পাল্লা
ইহু
চারপাশ
##িয়েট
পারছিল
সংবর্ধ
ev
জাদ
৯৬
মিটিয়ে
##খালীর
যুক্তরাজ্য
এইরূপ
ak
সালা
দুর্ভাগ্য
শওকত
দেখতাম
##লতা
পাঠ্য
আয়োজনের
মুভ
স্টার্ট
##সময়ে
উপাস
মরিয়া
##মন্দ
100
ডিন
জর্
##বাড়িতে
কেবলই
এদেশে
চিং
জমিয়ে
০৪
থাইল
আফসোস
আভাস
she
##বাসীদের
নাগরিকত্ব
##ভ্র
##মাণবিক
পরিবর্তিত
New
ঘের
##ঞ্জে
##চক্র
সুন্দরবন
নিশ্চয়তা
রক্তি
যুবলীগের
জঘ
##সীমা
হেলিক
##োলো
পুরোটাই
বিসর্জন
নিবে
মোবাইলের
পরিত্যক্ত
লগে
ব্যাটারি
উপকূল
টাকাটা
গুহ
জনসম
প্রেমিকা
##aus
লকডাউ
কিস
##্যাণ
মুছতে
ফ্লা
##ভাজন
চুমুক
পাশ্চ
শিল্পীর
কাপে
বইটা
পাওয়ায়
বোস
অশ্লীল
বাধ্যতামূলক
খুশির
উদ্যাপন
ধাক্কায়
##itt
লন্ডনের
চলেছি
##ষার
উপসর্গ
আক্ষেপ
ইসলামকে
##ডু
##দেরকে
##রেট
##ough
##্যস্ত
দীপ্ত
প্রতিমা
বর্জ্য
ঝোল
সিরিয়া
ঠাঁই
সিংহাস
প্রতী
উধাও
বলতাম
স্তরের
ইদানীং
শিষ্য
দোহ
পারফরম্যান্স
দাওয়াত
অস্ত্রের
এশিয়ান
Islam
দুজনই
আক্রান্তের
ব্যাপারটি
নিদ্র
আমতা
স্পেন
##াপড়
অন্যকে
বহিষ্কার
নিবেদন
সাপে
##ade
লিখি
য়ে
কমপ্লেক্সে
একধরনের
পারমাণবিক
ভাবছিলাম
স্বাগ
##ারাও
ব্লু
বর্
ম্যাসে
শিক্ষার্থীর
ওয়েল
মজুরি
কুই
করোনায়
১০টার
##vel
শান্তিতে
কও
প্রোট
বৈশ্বিক
off
১৯৯৮
মরিচ
বউয়ের
শিগগিরই
স্যাল
ঘুমো
ভাবার
##লামি
মেঘনা
দাফ
পর্যালোচনা
আহবান
উত্তরের
শীঘ্রই
স্ট্যাটাস
##app
পাচ্ছ
টুল
সাপের
ডিরেক্টর
জালে
##দন
তরফ
রশীদ
হইত
যজ্ঞ
বিদ্বেষ
ধূসর
তাহাতে
ভাগই
কুত
##কমে
এখনি
##দুটো
গাজীপুর
Download
##কেন্দ্রে
১২টা
হাইস্ক
প্রাদেশিক
তরল
পাইপ
##ict
রিলে
লাঠ
##লাইনের
চওড়া
অনির্বাণ
ঝুঁকে
##ধ্বনি
##শ্বাসের
গিয়াছে
Originally
পাউন্ড
ঠক
আদরের
জোয়ার
নাস্তা
সংগ্রহের
কর্মীর
অমল
##ধারার
বমি
পরিয়ে
ল্যান্ড
কাহার
ছুটিতে
আমরাই
ভাগের
লিখেছিলেন
রায়ে
স্থাপিত
##ুণ্ঠ
বসেছিল
৮০০
পারস্প
##তলে
রেখো
থাকলাম
ধর্মে
স্টিভ
শঙ্কর
##cl
##সেবা
সুগন্ধ
##িশনার
শায়
স্প্যানিশ
ডিসেম্বরে
##েন্টস
দিচ্ছিল
গড
আরবের
কিত
শরৎ
চাহিয়া
ইহুদি
টুইটারে
বিশেষজ্ঞরা
কাঞ্চ
পৌরসভা
নিলয়
Lib
রান্নাঘরে
বাসস্ট
ইশারায়
বিলে
হাহাকার
কথোপ
স্পিনার
ঈদে
ছটফট
##োড
জটিলতা
মুম্বাই
পাগলা
##ভরা
সাম্য
চ্যাম্পিয়নস
উদ্দীন
##াসীদের
মানুষগুলো
##ামাত্র
##াড
##বেত
রমণ
দেও
ফুস
টেম
##পমেন্ট
প্রাণীর
ম্যাজিস্ট্রেট
ওম
##ৈক
##াগুলোর
ভদ্রমহ
##পরিষ
শিয়াল
মেলেনি
##yl
ডিভাইস
দূষণ
সামহ
জলবায়ু
মেহেদী
০৩
তিনজনের
##ুলো
হামল
##nder
হলিউ
প্যান
##জিও
সিঁদুর
পিল
বদলি
দেখাই
##acebook
বিষ্ণু
ফেলছে
গার্ম
নিখুঁত
##বেই
বাঁকা
প্যাকে
##পিকে
আসরে
নিও
চত
##মিতা
প্রেসিডেন্টের
##জোর
##ড়াইয়া
বর্ষার
একাকী
##নিয়
বেগে
করেছো
লেখাটি
বাউল
অনূর্ধ্ব
অবনতি
জামায়াতে
##কন
##ার্থে
দুর্ভোগ
##আরসি
সংক্রমণের
নিঝুম
##র্ষণ
মূহ
মহারা
৮৪
সাথী
##দ্ধাদের
প্রতিভা
বইতে
##মহল
আওয়া
##িষ
কাতর
কৃষকদের
সিপ
কর্মক
##তকে
##্বী
খসড়া
দিবি
##প্রতিনি
বাদল
প্রবাহিত
নামেই
মহেন্দ্র
তৃপ্তি
মশা
অনিক
দেওয়
শিশুটির
নেবো
##erv
ঝে
ব্যবসায়িক
##ামারি
পাঠকের
আবাহ
স্থাপনের
নিরুপ
bol
Se
ট্রেড
##ংশে
##মাপ
গন্ড
ইংরেজী
পাইলট
১২টার
##ঠনে
ব্যবস্থায়
কাঠাম
##yric
##াবাজি
ব্যাটা
জাস
ওয়াশিংটন
কৌতূহল
আকৃষ্ট
উন্মো
টুইটার
##বর্গ
৮১
সেগুলি
পৌঁছাতে
##টাক
লাগত
আশ্র
প্রস্তাবে
ন্যূন
ভীষন
রইলেন
দেশেই
আমলের
##هِ
ভাবী
পেই
বর্জন
লাথি
##َي
০২
##ors
ইন্টারভিউ
টেনশন
মাদ্রাসার
মুড়ি
ঘােষণা
To
##তাছে
##ক্রম
মৌলভ
ঝুঁকিপূর্ণ
ছাড়ে
##িটের
লিখেছে
হোন
ওষুধের
দাঁড়াও
মূল্যবোধ
##ষ্প
পালাতে
গুলশান
des
রত্ন
##াবির
এইতো
টিচার
ঘুরছে
খাবো
লেজ
যন্ত্রপাতি
ইউটিউব
##ৃঙ্খল
ভালোবাসায়
তৈরিতে
গোলের
শাহাদ
পুরোহিত
ইসলামি
গ্রেপ্তারের
##LE
##ত্রিশ
বিলম্ব
হেটে
ধারালো
বুঝেছি
##পাড়ার
rec
প্রতিবন্ধী
##ning
আইডিয়া
বিধায়
প্লেন
গ্রন্
##বিনি
##র্সের
ভাইবোন
শত্রুর
অগত
##ুকাল
রাশি
dek
এমনিতে
রেজাউল
##্যানেলে
টুপি
মস্ক
ইতস্ত
##af
ডাঃ
চাননি
##িনাকে
মাঝি
fe
হাসানের
টিভির
অয়ন
পার্কের
মাংসের
##স্টিক
##ামু
##umi
পড়তেই
তাড়িয়ে
কাকিমা
##্লাদ
কথোপক
##মেয়
ব্রাজিলের
আয়না
গুঁজে
সুষ
পিএস
হাশ
##ful
আতঙ্কে
##াল্টি
জাতের
##িরেই
অগত্যা
অঘ
বিরাে
জিপ
কোনোর
কোয়ার্টার
আবদার
##াত্মা
##ম্পন্ন
দখলের
##াগুলি
সও
সোনালি
Mar
৭০০
শিবিরে
get
অক্সিজেন
##বাতি
##ics
ভাঁজ
কুপিয়ে
##ওয়েল
বলেছিলো
করিব
কেলে
##জনিত
অন্যত্র
##চীন
মহলে
শেল
ছাত্ররা
ইয়াবা
নিবেদ
##নাট্য
were
সর্বাধিক
par
##্যাঁ
##িয়ামের
আন্দাজ
কুষ্টিয়া
##োরেট
অক্ষম
অধিবেশন
পরিচালনায়
21
ব্যাঙ্কের
কিমি
##প্রায়
কৌশিক
বৃত্তি
কাউন্সিলের
ঢোক
বুজ
ফাউন্ডেশন
নিঃসঙ্গ
১৯৬০
টম
হরিণ
আইসক্র
em
আতি
এতক্ষণে
ব্যবস্থাপক
৮৬
হাসিতে
ভূতের
##ফুল্ল
প্রভাবে
বন্ধুত্বের
ঘেঁষে
অভিযোগপত্র
সফলতা
পড়ত
এতগুলো
##র্যের
আঠার
##নেতা
Tr
mon
জঘন্য
##টালে
আর্তনাদ
ঊর্ধ্বতন
##সিত
her
অফার
ধর্মঘট
মনসুর
ভিয়েতন
সামাল
ঝাঁক
দারিদ্র্য
tom
good
মেগ
বাড়ায়
আফ্রিক
রুখ
দেওয়াল
এদিন
৭৯
##াভ
ডিক
ami
শ্রমিকেরা
শিহ
আসায়
প্রতিদ্বন্দ্বী
ছবিগুলো
জিহ
১৯৭৩
##উস
##ীভূত
০৯
বরাত
##ya
কামড়
pre
##াবুর
খাটের
হাটতে
ক্ষুধা
প্রীত
যেখানেই
অবহিত
সিদ্দিকী
করণীয়
মুর্শিদ
মোঃ
বক্তারা
রানি
খোঁজা
স্বার্থপর
চেতনার
নামটি
প্রিন্ট
##বুদ্ধ
লাইভ
মঞ্চের
ন্যূনতম
ব্লগারদের
নিয়োগের
##পাতের
আনুম
##তন্ত্রের
প্রাম
শ্রুতি
সহিংসতা
পুকুরে
বিহ
ঢুকল
##gl
এমনকী
##ana
প্রচারে
রাষ্ট্রপতির
সূক্ষ্ম
সজীব
লর্ড
৮২
##যাত্রার
গুদ
রোম
ইলেকট্রনিক
##ছার
##্কের
##ৃক
একটানা
উপাধ
##ata
বিস্তর
নিয়ন্ত্রিত
সোফায়
দেয়ালের
নাটকে
মারিয়া
গঙ্গা
ব্যাগে
সান্ত্বনা
##রায়
বকুল
বলিউডের
##কশন
ওয়াহ
জাতিকে
ছড়ানো
##্নিং
অলস
সিপিএম
আমন্ত্র
##istry
কানাড
বুকটা
##ina
স্নায়
প্রয়াস
সিরাজুল
চাট
ওস্ত
##নাথের
একশ
তাঁহাকে
কোণ
##old
##াবৃত্তি
বিপন্ন
স্বৈ
##রিত
সুবাদে
নীরবতা
আধ্য
মহম্মদ
ডিনার
শাহজাহান
##তোষ
মুকুল
ভদ্রলোকের
ফিক
সম্মানিত
সময়ও
##িখিত
শিখা
এলিয়ে
আমাকেও
কেবিনে
জন্মদিনে
সমঝোতা
অপারেটিং
জোরদার
কৌতুক
স্পেস
বোঝায়
##চোখে
love
প্রস্তাবিত
১০০০
মশার
ঘরটা
ক্যাচ
কারি
জানেনা
সিরিয়ার
অনিয়ম
##সড়
##irst
হাটে
শতাংশের
ব্লে
শিখিয়ে
ছেলেমেয়েদের
##িনিউ
শেখার
##ঙ্ক্ষিত
ইমন
জয়া
##্রাল
চকলেট
গ্রাফ
পোষণ
##edia
চিঠিটা
##ুশি
চাইলেই
বিতর্কের
গালাগ
৯১
বিদেশের
রিপাব
আয়ার
##AN
পড়াতে
উদ্যান
##ত্যা
আশাবাদী
হইয়াছিল
##াগরের
অভিজিৎ
##গী
সংঘাত
##নেড
ডেলি
ইমেইল
##তরে
আক্রমণে
when
##শ্বাসে
টিনের
বিধবা
সংযোজন
প্রসাদ
খলি
তরুন
শ্রীম
অধিকাংশই
বাহুল্য
আটকা
##lect
গাজ
সংখ্যার
রকমে
মামলাটি
লেফট
##জীবী
##োবস্ত
দিনেই
##আনের
সন্ধে
হজর
said
##বিদ্যা
##াকেও
##চলিত
##িবি
কোলক
##hor
নেইমার
উদ্ভিদ
জানাচ্ছি
স্থাপত্য
থাকিবে
##র্সা
মৃতের
বহুল
জিব
১৯৫২
করাও
amar
ফাহ
##ER
##ন্তন
সিস
বাড়াবাড়ি
সৌশল
som
শাপ
বোঝানো
উপাত্ত
ধার্য
কারিগরি
##পয়
মায়ার
কোরিয়া
22
সহসা
আটটার
My
দর্শকের
০৮
সাল্লাম
Br
সুধ
##চারি
ভিট
শঙ্খ
খেয়েছে
তাহলেই
আকস্মিক
মহেশ
মহিউদ্দিন
##ভেজ
Beng
চাকা
গণমাধ্যমে
মৌলভীব
মেঘা
সম্পত্তির
##ক্ষেপের
কৌশলে
তদার
স্যান
দশা
##ত্তার
তরে
বলেননি
উৎপাদনের
মেট্রো
id
ঋত
বগুড়ার
##ale
প্রেসক্ল
অর্ণব
##রীর
এলেই
##াদন
sho
দীপিকা
স্ট্রাই
উজান
উপার
##্কর
পড়ুয়া
বানা
ঠিকানায়
শুনিয়ে
##obe
ঐশ্বর
সুরা
সাধনা
প্রসব
##লু
ঝড়ে
প্রতিপক্ষের
বেক
এসময়
নৌকার
ঝাঁপ
ইরাক
০১৭১
টিউটোরিয়াল
প্রেক্ষাপটে
##য়েব
##ৃহীত
রিপাবলিক
##বত
আনুমানিক
some
সেইসব
##ুপি
##প্রাইজ
পরমাণু
হয়েছিলাম
##olog
হাইকম
নিছ
দিয়েছিলো
অ্যাকশন
ম্যানেজমেন্ট
Pl
অংশীদার
আলতা
সুড়
মহামার
টাঙ্গাইল
অঙ্কের
##লীল
##মির
##্বত
আবীর
পুকুরের
But
বিরুদ্ধ
খোকা
পদ্ধতির
গুলিবিদ্ধ
অযোগ্য
পারস্পরিক
কড়
গাওয়া
কারবার
আগ্নে
টার্গেট
জলা
সেত
বসতি
পড়েছিলাম
স্বীকৃত
##গণের
কাঁপা
উদ্যোক্ত
ক্রিম
ভাইরাসের
##AR
সার্ভিসের
১৯৯৭
##ater
তিব
পুরান
ঘটেনি
##enc
Cl
উত্তরব
##প্ন
##ss
দুর্গাপ
গমন
বিমল
##ক্ষনে
আবশ্যক
ভেন
প্রত্যাবর্ত
স্রে
১টি
ডিভো
নিরু
মারামারি
##ঙ্গন
রঙে
নাথ
মিলেছে
co
কতগুলো
গুলোকে
প্রতিদিনের
ভিতরের
মুহম্মদ
##শিশ
ইন্ডিজ
ফৌজ
##yrics
আন্ডার
মোস্তাফিজ
দাবির
কর্মকান্ড
জায়ে
##বিবাহ
অবমান
হজম
##ubl
যাহ
চেন্ন
রেহাই
কাঁঠ
দুটোই
একপাশে
##বয়স্ক
দৈনন্দ
সিনেমায়
লোড
##ান্তরের
বাঙালিদের
১১টা
পুরসভা
চারটা
##we
খোর
হজরত
মেঘে
পরিকল্পিত
অভ্যুত
চেষ্টার
##৫০
প্রল
##ild
প্রকাশনা
কোরো
হিংসা
##ভারত
পর্বত
বডি
বসবে
বৈদ্যুত
যেখান
ক্রেতা
##ডিপি
হচ্ছি
শস্য
বেধে
৮৭
মিশর
অপরূপ
শোভন
পোশাকের
##জয়ী
ওয়াক
বুদ্ধিজীবী
রাহুলের
ইদানিং
##সীর
##ীট
অফিসারের
ফিরিয়া
নিশি
##ection
মানবতার
ইবাদ
তারক
তাকালাম
এসএসসি
জানোয়ার
ঝি
নিঃস্ব
কম্পিউটারে
যাস
প্রজ্ঞ
থ্র
ফেডারেশন
##রাওয়ার্দী
##lease
প্রতিষ্ঠানটি
লোকটাকে
সুমি
যেটুকু
আমিতো
ভাজা
দ্বীপের
আলাম
বাতিলের
অন্তর্গত
সাম্রাজ্যের
##াগা
##ember
org
অসুবিধে
রাখলেন
নাশক
অনিশ্চয়
##ঙ্কেল
বৃথা
এমনটাই
ঝাপসা
বেআইনি
কলার
হইলো
##ষ্ণু
রোদের
কাঁচের
##ual
##তাবিরোধী
পরস্পর
চেইন
الْ
২টি
তুলছে
কারুর
কর্মসংস্থান
অপরাজিত
মাহফুজ
আগ্নেয়
বন্দোবস্ত
মহাবিশ
লেখালেখি
রুবেল
##ভিক
গেছিলাম
থাকলেই
মোকাবে
তাকাতেই
যমুনা
উড়াল
জিনিষ
##স্বাস্থ
বাবদ
Dh
ওগুলো
গানটা
বিকালে
অপারেটর
জান্নাত
##মনস্ক
ap
সবকিছুর
ভাগা
প্রাথমিকভাবে
মেসির
অপছ
বুড়
##ংকা
বোনকে
কন্ড
নিউজিল্যান্ডের
হিন্দুদের
রঞ্জন
হােস
##sh
সিরিয়াল
কান্নায়
##্ভূত
##এলের
আশ্বস্ত
ভ্যাট
##প্রকার
শ্রাবণ
##সকে
জেঠ
সর্দার
##ানদের
মুসলিমদের
ed
ভিক্ষা
অধীর
অ্যান্ড্রয়েড
বিজিবি
কমবে
##ালয়ের
##থিল
লাবণ্য
##নক
ছোটখাটো
আনন্দিত
ঘাঁটি
অ্যাঞ্জ
আহম্ম
কমানোর
পর্দার
সীমান্তের
comm
স্টেডিয়াম
আম্প
আংটি
acc
হতভ
আজব
ফটোগ্রাফ
নিখিল
মেটাতে
লাগতো
##ঘড়ি
##ংশের
এটিই
ট্রফি
ঢুকতেই
জানলার
ক্যাট
৯৮
##নাগ
১২টি
ততক্ষণ
ধু
ষ্ট
##ধুরী
প্রয়ােজন
উপার্জন
কণ্ঠস্বর
ক্যাম্পাস
চাপের
হতাহত
বৃদ্ধা
আবিরের
গাে
খ্যাতি
ম্যাগাজিন
বস্তা
গন্ধে
ওঠেনি
দৈনন্দিন
রশ
কবীর
মানুষে
খেলছে
##াহার
##চালিত
##মাইল
##1971
বেই
##নার্থ
##াণিত
বিশ্বব
গোয়াল
মুক্তিবাহিনীর
কামড়ে
সাক্ষরতার
সমু
গুনে
24
সরেজমিনে
দেওয়ালে
গুর
কাও
পুঁজিব
##বয়সী
সংকটের
তেলে
কৃষকের
##মাট
##োনির
বারোটা
নাহয়
খাটে
##fter
##কষ্ট
উপন্যাসের
হিয়া
জেতার
চলেন
##্যাটেল
Le
ke
মী
উন্নতির
জানলাম
টিউনারকে
সৈন্যদের
##পিতে
##লেন্ট
চোরা
মদন
##hai
##ণ্ডার
গরমে
নেতাকে
##sp
মুখ্যমন্ত্রীর
স্নাত
ক্রমেই
দীপা
রোমান্টিক
বিস্কুট
had
দৃশ্যমান
ফেইসব
একাংশের
কতক্ষণ
সাহেবকে
খোকন
বকা
ঘোষনা
চাইলো
রাক্ষ
ছড়ায়
দেশটিতে
##ুতির
কীর্তি
লাঞ্ছ
##র্ডার
পাবনা
over
ব্যাকুল
সেনের
সুদূর
day
সংক্ষেপে
##াগড়া
অনিল
হোসাইন
সমবেত
সবথেকে
ফুরিয়ে
ডুবিয়ে
পাঁচে
বন্দরে
সৈকত
বিন্দুমাত্র
পারবেনা
শতক
##িয়ানের
মুম্বই
##োলা
উদ্যোক্তা
প্রতিপ
মজিদ
মস্তিষ্কের
একঘ
পুলিশি
দাঁড়ানোর
উত্তোলন
স্রেফ
হারের
মলিন
কুহ
রুপি
পল্লী
##িউর
প্রবেশের
জনগোষ্ঠীর
বিপি
বেশিই
কাঁপতে
##্মু
সস্তা
হুগ
ন্যায্য
##বিধানিক
ভিক্টোর
প্লাস্টিক
ডাকাতি
##riend
দার্জিল
বকর
১৯৭৪
##্ধু
দুধের
গেঁ
গলি
আইফোন
চারদিক
বাকিরা
গায়ক
##ext
পজ
##মিও
গড়তে
নির্বাস
##িকাঠ
নরস
আসবাব
রোজগার
ভোটারদের
##airs
সিন্ড
##হাটের
আইনগত
ফেনী
##ঘল
মালিকদের
বুদ্ধিমান
প্রপ
দিনও
জয়ন্ত
কতি
মৃত্যুতে
por
চেহারায়
লোহ
৯২
একার
আসাদুজ্জামান
খুশিতে
##মাকে
খামার
##টিক্যাল
বেশীর
চাকুরী
প্রগতিশীল
আত্মীয়স্ব
হাস্য
This
বাহিনীকে
ভাবনায়
সেনগুপ্ত
প্রত্যেকটি
##form
এডি
মিউ
##ely
Pakistan
মেগা
ফোট
ঘুমে
৮৩
নিশ্চই
এনামুল
১৮৬
##এসপি
সার্থক
পৃষ্ঠপোষ
ঘটনাস্থল
মোকাবিলায়
দলগুলোর
##বুত
ভালবেসে
অহংকার
বাঁধন
জাপানি
সর্বপ্রথম
পরগ
##মনা
ইউজ
##ডব্লিউ
কণ
জড়ানো
ভিজিট
নামা
তিরিশ
পটুয়া
অমিতাভ
টোট
সমালোচনার
স্মিথ
ধর্মনির
সমর্থকেরা
প্রক্রিয়ার
সাইটের
১৯৯২
ফিল্ড
##বাংলা
মুমিন
কচি
অর্জিত
অবিনাশ
##েননি
পড়েছিলেন
##ান্তির
এসেছিলো
দিশা
##ন্নি
প্রবলেম
##িস্থ
শ্রীক
বারান্দা
দুদকের
উত্থান
অপেক্ষার
হাওয়ার
বিপণ
দেখেও
রুদ্ধ
সাতটা
##hu
ব্যবহারকারী
লাক
কৱ
বলের
ক্ষুধার
উদ্ধারের
ছেঁড়া
নিছক
ফোক
কামার
চলাচলের
চিকিৎসকদের
##তাপ
##দিকের
টাইপের
আধার
##হাজ
ফিরোজ
চীনে
ভুলের
ম্যাপ
প্রিয়াঙ্কা
দাঁড়াইয়া
ততটা
একদমই
দুশ্চিন্তা
পিছে
দাঁড়াবে
কুমিল্লার
গতির
ভাস্কর্য
সঠিকভাবে
যের
ততদিন
##চরণ
করেছিস
##ুমান
দিতো
03
স্টাইল
রোবট
১৮৭
সুরের
ক্যানসার
Aff
##ুগত্য
প্রত্যেকটা
তৎক্ষ
রহিল
আদন
মতবিনি
নথি
ব্লাড
জনগনের
মোজ
চলাকালে
আরাে
life
চাওয়ার
খনন
ho
ঋদ্ধ
সাস
শুষ্ক
রূপের
১৯৪৮
শীতে
##গায়
পথেই
কিংবদন্তি
##পল
##খিত
মতিন
সঞ্চার
উভয়ের
আধ্যাত্ম
শাখায়
1971
প্রধানত
পোকা
##্নী
মোদি
হাল্কা
##পাস
আশপাশে
সম্প্রচার
কাচ
সংজ্ঞা
সামগ্রিক
হুল
##indows
##ona
What
ডায়াল
ওবামা
রুব
##রেখা
##দেবী
আছড়ে
মানুষজন
অতিথির
অঞ্জলি
কাল্প
ডিজাই
লিন
##ঘন
আহার
শ্রেয়
কমিটিতে
দাদুর
##াতাম
যেও
আনুগত্য
কর্তৃত্ব
##সংখ্যা
অনুধ
গোলমাল
মোস
ইউরো
তথ্যসূত্র
শুনুন
চারিদ
সিএনজি
প্রকৃতপক্ষে
লিঙ্গ
পৌঁছায়
##য়ব
কাজই
মুস
ওদেরকে
মিতা
কানাডা
##ুদার
শাড়ির
পাকসেন
আংশ
ওগো
সহপাঠ
##চকা
জনপ্রতিনি
##চ্ছদ
একটাও
প্রোফাইল
আব্দুর
গ্যার
দিনব্যাপী
##তাও
ভূঁইয়া
কর্তারা
দুষ্টু
কৌতু
বার্সেলোনা
বাংলো
খাবেন
তলে
শ্রেণিতে
##rick
রূপান্তরিত
04
##ck
হোয়াটস
##্ধার
মায়ান
আফগানিস্তান
For
##এক
কর্তৃপক্ষকে
বিড়বিড়
##নং
হয়রানি
বোক
হসপিট
তোমারে
বাঁচানোর
তাকালেন
গর্বিত
সিসি
আপনিই
হতবাক
প্যানেল
পিএইচ
ভার্সিটি
##ারোপ
##াহ্য
##পূর্বক
আঙ্কেল
আগত
সোল
অনুপ্রবেশ
##জনেরা
টাও
পীড়
##াগ্রস্ত
বর্ধমান
হুর
উচ্ছ্ব
অধিবেশনে
##শানে
উপস্থিতিতে
ক্রেডিট
পাম্প
৮৯
##ঝা
##পড়
ফিরল
পৌঁছতে
প্রযোজক
খুচ
ছিঃ
আর্জেন্টিনা
উক্তি
মনোজ
বিশ্বাসঘাত
ইন্টারনেটে
কণা
ম্লান
##িডেন্ট
জাঁ
চালিয়েছে
বিশ্বস্ত
পজি
আপনে
বাচ্চারা
##াকারীদের
##শাদের
ইস্ক
জাতীয়তাবাদী
রাগের
##বন্দী
ধর্মান
দাউদ
ধরেছেন
কানাডার
জেদ
##্বক
টুকরা
শুনেছেন
সভাপতির
only
##োকে
কাল্পনিক
26
লোপ
শ্রেয়া
১০টায়
অলৌকিক
##ঁধ
##বাসে
বার্ন
দাঁড়ান
যাচ্ছিলো
ঐতিহ্যবাহী
সারাটা
০৬
ওপাশ
গ্রুপে
কতিপয়
##গুলোয়
##য়েজ
শিল্পকলা
উৎপত্তি
থাই
হতভম্ব
ফর্সা
সাইফ
চেয়ারপারসন
মই
bec
একাডেমির
প্রতিজ্ঞা
ডিবি
নাত
##ann
ভাববে
ঢুকলো
ধর্মনিরপেক্ষ
বিভ্র
ক্ষণে
রাখিয়া
কলম্ব
কাশেম
শিল্পীদের
##নির্ভর
হাসলো
বাসনা
কুয়াশা
##ower
চেম্বার
প্রতিনিধিদ
গ্রেট
৯৭
##ক্ষী
##মুহ
সমাপ্তি
ইত্যাদির
লিটন
##IN
its
##চৌ
Im
ফেলেছিল
কাজও
কৃষ্ণা
বদলা
সাব্বির
ছাত্রীদের
বিকাশের
গেরিলা
বাকিটা
##ডাঙ্গা
উফফ
খালা
ডায়াবে
##ামাটি
##ert
মর্গে
##ress
শেখা
প্রতিহত
বাঁক
নিরাপদে
জঙ্গিদের
197
কুহু
ছিট
##ঈন
##ওয়ানা
##চ্চি
লেট
সবটাই
আবেগের
প্রজাপতি
now
সংঘর্ষের
নর্থ
প্রকাশে
দেখিয়েছেন
মানুষটার
ধ্বংসের
গদ
মমত
সেনাদের
সিলেটে
কাদা
লড়াইয়ের
অভ্যন্তরে
##বিদের
অধিকারের
দ্যাখ
জয়েন
শুনেছে
ব্যাচ
নাগরিকের
টাইগার
একত্রে
বিস্ময়কর
রিয়াজ
##ড়ন
গেমস
হুমকির
ব্যাবস্থা
সচল
১৯৬৯
##িয়নের
অপরদিকে
কাঁপছে
পরশ
##ন্তে
জীবনী
সৈন্যরা
Lyrics
বহুদ
উদাস
##াদর্শ
##্যাশ
গ্রেনেড
সিংহের
আচ্ছন্ন
তুহ
মহাসড়কের
টিফিন
বাদশাহ
##ক্রান্ত
র্যাবের
again
পেশার
পিতৃ
দুর্বৃত্তরা
ঘাসের
আয়নার
কাফ
উল্লিখিত
##ঞ্জলি
##িক্ষণ
##ন্ডের
##িকস
ফিরি
##ism
ভাঙতে
বিরোধীদের
রমেশ
world
may
##আউট
দুটির
পঞ্জ
স্টক
প্রতারণা
বৈশাখী
পারছেনা
মেরামত
শতাব্দী
আমাকেই
অনায়াসে
সাথেও
##ক্ষেত্র
##ুবের
work
সোসাইটি
সন্দেহের
আজ্ঞে
কদম
দুর্গা
১১টায়
##সিম
##বাগে
##ye
ছাত্রীর
তামাক
##স্তে
ইন্সপ
##ala
##মশাই
##ix
নেশায়
কোচের
##কর্তা
ফুড
##ps
মহৎ
just
##সম্পন্ন
অভিজাত
ধাওয়া
গ্র্যান্ড
অনিবার
সহানুভূতি
কলঙ্ক
জাগিয়ে
তক
স্ক্রিন
ঘরেই
সংবর্ধনা
কিছুদিনের
উদাসীন
মোতায়েন
ভিটামিন
আতিক
ধিক
আত্মহত্যার
আধ্যাত্মিক
গীতা
ছন্দে
চু
ফরহাদ
চিকিত
জাগ্রত
দ্বিতীয়ত
যাত্রীরা
অভিনব
সরস্ব
জনসাধারণের
উপলক্ষ
শাহরিয়ার
লেগ
এখুনি
##াবিত
##্পা
ডেভেলপমেন্ট
##সেল
পোড়
তলার
ওরকম
পারতে
বসন্তের
সিগারেটের
লার
চাকমা
সংগ্রামে
নিস
ঘি
চুর
##igh
উদ্বুদ্ধ
গুঞ্জন
Liberation
নাকের
মুরগি
লেখাটা
ব্যালক
##শালায়
##শ্রেষ্ঠ
##ِّ
প্রচলন
চ্যাপ
হইবার
ভের
কাটানোর
কক্সবাজারের
##িয়ানা
play
কটাক্ষ
লাগোয়া
মালয়েশিয়া
নব্ব
তাজা
দুঃখজনক
গাইবান
অগ্রাধিকার
বৈদ্যুতিক
চিফ
ঔপ
বিউ
আবছা
শোভাযাত্রা
##সেরা
##anc
এটির
##لَ
সুব
যাননি
উনাকে
##য়ালে
আবর্ত
##োলজ
খাঁটি
স্বার্থের
তিনেক
##নামা
po
দেওয়ান
ব্র্যাক
##hed
লাস্ট
##কুল
জোছ
ভিজিয়ে
##মেশ
তাদেরই
Ministry
টিমের
রানার
আবর্জ
নাজিম
ভাবিনি
পিচ
দুরন্ত
কাউকেই
ময়ূর
##ীত্ব
খেলবে
ট্যুর
মোন
ক্যান্সার
##গল্প
কনক
ক্যান্টন
পজিটিভ
আয়তন
চম্প
বেগমের
লীলা
ছাত্রের
১৯৯৪
ছাড়বে
চিন্তাভাব
##কর্মীরা
নোয়াখালী
সুকুম
##োজাহ
একাধিকবার
ডিউটি
ইউরোপে
পরেছে
##পনের
চাইলাম
কনসার
মূহুর
গেলি
খোঁচা
সমাধানে
net
প্রতিরোধে
bl
আসামিদের
##হানি
অ্যাসোসিয়েশনের
হিসেবেও
আনেন
##টেনের
সবুজের
23
খালের
ইতস্তত
##বিন্দু
তােম
প্রত্যক্ষদর্শী
কেয়া
জাহাজে
Affairs
অং
কমার্স
জালিয়
উত্তরপ্র
##ছল
পাঠিয়েছেন
অলিম্পিক
হানিফ
চ্যানেলে
##ার্ম
তাঁহারা
শরিক
সুইচ
দ্বীপে
অণ
কর্মসূচিতে
তিনদিন
কন্যার
সরদার
##াবান
চেম্ব
##ালয়ে
বন্যার
কুড়িয়ে
আবহ
ভাসানী
##yst
ভুট্টো
করলি
প্রখ্যাত
চক্রের
গ্রন্থে
সমর্থনে
দাফন
02
সকালেই
হসপি
বিলের
নানারকম
কারাগার
জাকার
হােসেন
##যাপ
সেক্স
নারাজ
##স্থানীয়
টোক
ইউনিটের
##ণাৎ
##pe
সেলাই
প্রামাণ
cho
এএফপি
নখ
প্রতিস্থা
কল্যাণে
##তলী
অস্থিরতা
##ষেধ
বসুন্ধ
##ত্থ
কালকের
##ন্ডুল
##জীবনে
সিপিএমের
তৃপ্ত
রীতিমত
পর্যটক
##াচার্যের
বেলার
মহকুমা
মহলের
জিনিসের
আবর্জনা
সাক্ষাত
ja
প্রশ্নই
ময়না
মাদ্রিদ
ডিসেম্বরের
ভার্চ
দামের
রজত
উঠেছেন
hel
খট
প্রাঙ্গণে
সুফল
##ষ্ণের
এনজিও
ডকুম
উত্তাল
খারিজ
প্রত্ন
খালাস
৯৪
মেইন
কবিত
নগরে
##ফাস্ট
উনিশ
উড়োজাহ
India
টিকেট
সজল
সম্মত
##য়াদ
মজুত
সেন্ট্রাল
অস্কার
দেশটি
##বাদীদের
কমতে
সুহ
##োক্তি
run
যৌথভাবে
গর্জন
##্লভ
প্রেমিকার
##ন্ত্রের
বুঝিতে
লিমিটে
বেস
প্রোডাক
দুলাল
ব্যাটাল
পর্যবেক্ষ
ক্রিয়া
কাটানো
ব্যর্থতার
##াকেই
মেডিস
ধোনি
প্রাসাদ
নিষ্পত্তি
অবকাঠামো
অদিতি
##ষী
রক্তক্ষ
তৃষা
##জ্য
ঠাট্টা
প্রকাশক
মাত্রায়
লোভে
##্মিক
##চ্ছিস
নানাভাবে
তড়
শিক্ষকেরা
##াতিষ্ঠ
গ্লোবাল
চলাকালীন
year
সতর্কতা
ডেলিভার
back
ঘাব
উর্দু
অর্থবছরে
##ধ্যক্ষ
চাকরিতে
সবশেষে
প্রেক্ষিতে
দেখছিল
কার্যক্রমের
আলেম
##ক্যের
গুলোতে
মতিউর
ঝলক
উড়তে
##বিয়া
দেখতেই
পান্ড
নরসিং
##obile
ক্রিকেটারদের
টহল
লাগেনি
আকুল
কার্যক
সানি
প্রসূ
লস
আবির্ভাব
dec
কেম
হদ
মেই
সাপেক্ষে
জং
আনবে
ইউনিভার্সিটির
নিরীক্ষা
অর্থায়
যোগাযোগমাধ্য
রাজশাহীর
বৎস
বংশের
মতবিনিময়
রাখলাম
ধরণ
ভরাট
১৯৮০
উত্স
নুন
ষাট
ব্যস
also
স্টুডিও
চৌদ্দ
ছোটা
মগ্ন
অরিত্র
প্রবৃদ্ধি
##হিক
বিকট
##দ্রব্য
৯৩
মানস
জিতেছে
দগ্ধ
##াড়ায়
ইব
সেমিন
১৯৬২
কলের
##কাঠি
##ause
কিরণ
স্বভাবের
মদের
তুলিয়া
রাখাল
##কল্যাণ
##ভক্ত
বুঝলেন
ব্যায়াম
##নশীল
টেকনিক
দোকানদার
should
আরোহী
##াতিষ্ঠানিক
rel
কমছে
১৯৯৫
ঝেড়ে
ভাগাভাগ
করান
তুলল
অপেক্ষাকৃত
অবতার
নামও
ফাতে
##ছির
চাষের
ক্যান্টনমেন্ট
আচরণের
ব্রাদার
##িসিআই
পাহার
মাসেই
দুঃস্ব
যুবককে
##ব্বিশ
##iversity
##িস্কার
হীর
কাটছে
অনিবার্য
##ট্টি
আওয়াজে
তারকার
দৌলত
Song
পার্টিতে
চেল
নমস্কার
##শানের
ফেলো
##দ্বীপ
যাচ্ছিলাম
আয়েশা
দূতাবাস
##দলীয়
আমিনুল
কম্বল
সনাতন
জানাচ্ছে
##্লিকেশন
##সাইড
ভুক্ত
ওয়েট
সতীর্থ
হাস্যকর
প্রতিকার
লতা
একাকার
ধরলাম
তথ্যপ্রযুক্তি
বসো
নাচের
ভাগ্যের
প্রতিনিধিদের
চব্বিশ
রিপোর্টে
নিউইয়র্কে
ময়নাতদন্তের
তৎক্ষণাৎ
অ্যার
##har
নেপালের
স্টোর
##্টারের
মুফ
##ys
একরাশ
ম্যাক্স
জ্বি
শৃ
ভক্তদের
গ্রাহকদের
অনুগ্রহ
##ন্দি
##ঁচিয়ে
জলিল
##ফলে
ঘুমন্ত
তিস্তা
##্যাজ
তারপরই
সহযোগিতার
##ছুটি
বিলীন
পরিষদে
সেলফি
##েশে
রোমাঞ্চ
bet
জানবে
৩টি
গাঁধী
চণ্ড
##াস্টার
##sw
চিনের
##ঞ্জস্য
সহকর্মী
##এলে
গােল
অনুদান
##ীগণ
জামাক
ওস্তাদ
বেঞ্চে
তুরস্কের
বুর
কার্প
been
ডিগ্রী
পাপের
কলিং
ব্লগিং
০৭
সাইজ
##াগরে
রুমাল
কুঁ
##ানুগ
চাচ্ছে
যাবজ্জ
##ভাগের
হসপিটালে
মীরা
কেনাকাটা
##সংস্কার
##াবাদে
খাওয়াতে
অন্বে
##ন্নত
পড়ছেন
এমনও
উন্নীত
05
##ড়তে
see
কালার
##বিধ
আদিম
খরচের
আইসক্রিম
under
ডালে
স্মারক
নিয়ন্ত্রণের
##নিম্ন
থাকেনা
##োভে
##পাতা
দায়িত্বশীল
সেফ
মার্কেটিং
##্যান্ত
এলেও
অস্ত্রোপচার
##la
বিরোধীদ
নিভে
গিফট
##পরিব
প্ল্যাটফর্ম
সুপ
অর্থহীন
bel
লুৎ
প্রসে
কলিক
দাঁড়ালেন
কর্মীকে
ইতোমধ্যে
থম
চারা
কম্ব
বাজেটে
ভ্যাল
##াকারের
ব্যস্ততা
স্বেচ্ছায়
ইমার
জ্ঞানী
উৎপন্ন
০০০০
প্লেয়ার
ভালোবাসতে
##বরণ
##ুকার
##urn
০০৪
link
হ্যাট
বিলি
পঞ্চায়েতের
দৃষ্টিভঙ্গি
ছবিটির
থিম
জবাবদি
সেনাপতি
##ani
রাজধানীতে
প্রভাত
বাড়ার
##য়োজনীয়
তাপস
আকৃতি
বিচ্ছেদ
##জীর
বিমানে
ফোল
##জ্জা
স্ট্রিট
সালাহ
আদান
১৮৫
অনিন্দ্য
আড্ডায়
##গোপ
পর্যটকদের
বিষন্ন
সংস্পর্শ
জানালে
মার্শাল
পরলো
##গ্রামে
Comp
মানচিত্র
দ্বিপ
##এমই
কাশ্মীরের
la
রাখব
গেই
##রাইল
ঘূর্ণিঝড়
আজি
শুরুটা
##স্টে
##ীহ
সিডি
ন্যাপ
##UL
ট্রাকের
৫টি
সদা
মুহূর্তেই
ভাইদের
রাখলো
##মূল্য
শরিফ
##হাজার
দিঘ
বহুবার
form
ঝিনাই
ঢুকেই
ভুলেই
আর্সেন
ফেলুন
বাইরেও
নীচু
##ুবা
##চেস্টার
খেলনা
রড
প্রশস্ত
স্মরণে
কিয়
মুক্তিবাহিনী
পড়ালেখা
পরোক্ষ
##ৃষ্টিতে
একুশ
শুন্য
প্লাস
জঙ্গিবাদ
পড়িল
অংক
ড্যান
যান্ত্রিক
##লেটের
রাখছি
কিরীট
ক্ষয়ক্ষ
je
নামাজের
কাশি
ফাঁদে
##দোর
রিচার্ড
##oo
বাগের
হেমন্ত
আগা
28
অবিরাম
বিশেষজ্ঞদের
##বলিত
পুরু
খাইতে
ভার্সন
প্র্যাক
মালেক
মরার
##দুদ
নিশা
##ভাষী
সর্বনিম্ন
##্যাকা
##চাইতে
দেবতার
মার্চে
Su
সহকারে
একটুখানি
বেটা
সূত্রপাত
অনুসারী
আমিঃ
শুনবে
##জনদের
জন্মদিনের
##াইভ
যাত্রার
হাতছাড়া
মন্ড
বউকে
আতঙ্কিত
প্রচেষ্ট
ঈর্ষ
টর
দৈর্ঘ্য
##মিল
হুদা
তাঁহাদের
অ্যাওয়ার্ড
প্রত্যেকেই
ফ্রী
দৈত্য
count
ডটকম
মর্যাদ
ঠেকে
নিয়েছিলাম
পরিত্যাগ
ইলিয়াস
আইপিএল
স্বতঃ
যাবজ্জীবন
She
থাপ্প
বেপর
##সাং
##ীনের
أَ
কং
সমাজতান্ত্রিক
09
মানায়
তথাপি
থাকিস
বেদনার
পূর্বেই
রয়টার
অনার্স
শুনছি
পুরে
অনুভূতির
মধ্যকার
##িবল
হংক
ফ্রিল
কাজগুলো
লোকটির
রক্তিম
চিকেন
স্নিগ
ঝিনুক
অটোরিকশা
তাড়াহুড়
কটি
##ভরে
##বিশেষ
##িরােধ
হুঁশিয়ার
কাপুর
চরণ
রূ
##ষণের
পারলেই
তোমারই
শতকে
শহিদ
##িজার
সুন্দরবনের
কনফ
বেরিয়েছে
##কুট
ইন্সটল
ঠিকাদার
হুড়
##গ্রাফ
ভোগান্তি
পরিকাঠ
হরে
##্তির
মহাসড়কে
জনেই
যন্ত্রের
##ধর্মী
ডব্লিউ
ঘটনাকে
##দ্রোহ
ভাইরাল
স্পেনের
প্রতিদ্বন্দ্বিতা
ঘটায়
ব্যাপকভাবে
অমান্য
সন্দেহে
ভেতরটা
##টপট
##্বাচ
ফরে
পাঞ্জাব
হেলান
##৪০
এইজন্য
স্পিড
বুন
বর্ম
আবাসন
অভিবাসন
##াবিদ
কর্মকর্তাকে
অধিকতর
হতাম
১৯৯৩
দেখাও
চোখটা
আকাঙ্ক্ষা
##াপত্র
তিতলি
অট্ট
ওয়াটার
কোমরে
চান্স
সনে
would
শফিকুল
চারে
27
##ুষিত
সিঙ্গাপুর
গেস্ট
নেচে
##ংশু
প্রকট
হতেন
##সংগীত
জেতা
টানাট
##প্রবাহ
ঘ্রাণ
উত্তপ্ত
কাঞ্চন
দেশগুলো
৪টি
সেদিনই
##ামতো
থ্যাংক
গুড়
##ূলের
##ূপের
তাত
সম্প্রসারণ
লিমিটেডের
ব্যপার
##ভবন
উমর
##িশেষে
বৈচিত্র্য
ছয়জন
এক্সচে
উৎপাদিত
ভুম
ছায়ায়
##োদয়
ভাগ্যে
দিবাগত
আনিসুল
খেলাম
##োকা
sub
তত্ত্বাবধানে
##lim
অনাব
ফোর্স
##ন্তোষ
ঠেকিয়ে
জার্সি
পড়বেন
ইলেক্ট
দার্জিলিং
##ুসারে
শঙ্কা
লোকজনকে
মঠ
kot
কুন
##tm
##amp
পুষ্ট
যতদূর
##র্যা
সীত
প্রত্যাহারের
খোঁজখবর
নিতেই
সনের
এইড
##জীবনের
একত্রিত
##নাক
অসভ্য
পূর্বপুরুষ
পৌঁছেছে
বেপরোয়া
চ্যান
##গোনা
প্রাতিষ্ঠানিক
প্রতিফলন
স্থিতিশীল
##মরা
জলপাইগ
বিচারিক
নয়টার
গোধ
তাকালে
##ব্যা
আলমের
দানা
ভাতের
টেনিস
বিট
ঘরবাড়ি
ইপি
সেইদিন
অ্যাপল
ড্রেসিং
কুড়
বাঁকু
জিন্না
sm
ব্যাহত
মরদেহ
every
উঠেই
রুখে
ইন্টারনেটের
নিতান্তই
pol
অনুমোদিত
##ij
##ধানো
নিশ্চুপ
চুক্তিতে
অনুধাবন
ডেস্ক
হাবিবুর
লতিফ
##ফোঁ
বিঘ্ন
##ুজি
সাংসদের
ফেব্রুয়ারী
নাসর
##জোড়
##য়েই
সমবায়
##েইন
##ষি
##ange
##আআ
পেয়েই
##িমায়
চালকের
চুন
পালক
বিডিআর
হ্যাম
##্শ
মোবারক
অজিত
মহিলাকে
##গুরু
ব্রেকফাস্ট
ফেরদৌস
##ীয়তা
ওঁরা
##োদ্
তদ
অপসারণ
very
মৃণ
চিকিত্স
জেলাশাস
মায়াবী
গিটার
বেবি
লেখে
##প্রসাদ
ডিএসই
হলি
নিয়মের
আভা
দস্য
ধরলেন
আসামির
রিয়ার
সেন্টারের
নওগাঁ
সামন্ত
##দাই
ভাং
আশু
প্রতিকূল
ঘটাতে
##ন্যাল
##সংবাদ
06
স্রোতে
##ward
##ited
খ্রিস্টাব্দে
অফিসারদের
বশ
চিকিৎসায়
স্বাত
চাব
অক্ষরে
অনুপ্রাণিত
##েত
সংক্রমিত
সমন্বিত
##ভোগী
গেছিলো
সার্জন
কার্টুন
সবটুকু
প্রার্থীরা
দোলা
সবসময়ই
##শাসনের
বন্ধুব
রাক
ফিরেছেন
তড়ি
বাটি
বিশ্বযুদ্ধের
##du
চুপি
Con
জেরা
রাজের
মদ্য
ফালতু
মুনাফা
বার্থ
তাগিদ
##ীয়মান
আদির
হিমু
কীট
এনেছেন
দোহাই
এরশাদের
ফাজ
খেটে
মুন্সি
কাঁঠাল
বাকিদের
সবচাইতে
আসিল
নুসর
সেনারা
হইলেন
বোতাম
ব্যাংকিং
দাত
##দশ
পুষ্টি
##োপস
বিষণ্ণ
এনার
লেভেল
পৃথিবীকে
কস
এন্টার
পাঠকদের
সিটির
১৯৫০
শোষণ
দলগুলো
শিমুল
07
রী
সদরের
পার্লামেন্ট
শাকিব
গাধা
বিক্রেতা
বিবাদ
সিঙ্গাপ
বেড়াই
জাদুঘর
মন্তব্যের
then
অসম্ম
ডেটা
বিসিবি
ভাবলে
পয়লা
ধরো
আত্মঘাতী
হাউসে
ইম্প
ভৈ
টেম্প
col
গেটে
সিন্ধু
উচ্চমাধ্য
##ystem
কমানো
পুণ্য
বাহাদুর
স্বর্
জেনেও
দূত
লাজুক
হারান
জেএম
কমই
##সারের
জ্বলন্ত
যশ
##ject
লুঙ্গি
##কান্ত
দরবারে
##ব্যাক
কান্নাকাটি
##েক্স
চ্যাটার
জমাট
##বরত
মুন্স
কনস্টেবল
সিএ
জিও
চত্বর
বিষয়বস্তু
টেকনাফ
সাংবিধানিক
##িপাত
##elf
লাগানোর
অসন্তোষ
চারপাশের
চেয়ারম্যানের
চামড়ার
ইউজার
##োত্ত
রণবীর
##১০
##কাহ
বন্দ্যোপাধ্যায়ের
পাখা
ফেডারেশনের
পাকিয়ে
সংগ্র
##রাতের
মাঝের
ভীড়
বাল্যবিবাহ
খানকে
ঝকঝ
##তাক
##গতভাবে
শাহজাল
বোর্ডে
##ogle
##গাছের
পচা
ছেলেমেয়েরা
ফ্ল্যাটের
##ঘাতিক
সেটির
সংখ্যালঘ
##রাচর
ধর্মকে
খাইয়া
পার্টনার
বেঙ্গাল
শিক্ষাপ্রতিষ্ঠান
মার্টিন
##ner
মুসলমানের
মাতার
##att
##৭৩
আংশিক
পোশাকে
##ুগ্ধ
##ন্নে
নেম
ফোরাম
মুহাম্মাদ
##▬▬
দলই
রুগ
##হার্য
তাঁরই
গোলাপি
##ডিসি
নিবার
উঠার
বস্তুর
তুলবে
ক্যাম্পের
অবস্থাতেই
ধাম
##দম
##ane
##ution
মইন
ধারণার
ভীতি
ফ্যামিলি
##mail
তন্দ্র
##ইং
সারপ্রাইজ
জামাতের
নীলার
বাহ্য
সবক
কাচের
##10
বন্দরের
অবগত
কারিগর
জুব
বাজছে
##িফো
অর্প
অবৈধভাবে
##িসন
##জাদা
বিনাশ
##ush
মিনতি
##une
১৯৬১
তিক্ত
মর্মে
সেহেতু
স্টল
কোহলি
##ble
##্রমিক
খোঁজার
পরিবহনের
প্রেরণা
মানবতাবিরোধী
##ফেরা
##ায়মান
মাতৃভাষা
পাছে
সংলা
হোসেনকে
##্নাল
জবানবন্দি
##ox
জামিল
##স্না
##ীক্ষায়
স্বৈরা
##াগারে
ধরবে
অরিন্দ
খাবি
চললো
##ung
দফার
তাণ্ড
মাহি
অর্ড
##ঞা
শরণার্থীদের
কিম
পুনর্গ
নন্দী
মাঝেও
##্জী
##য়াজ্জ
দুবাই
বাবাই
এনেছি
উত্থাপন
দূতাবাসের
হোয়াট
ককট
মালামাল
আসতেন
মেরি
##ডন
প্রমা
##ode
ফায়
দুর্গন্ধ
পড়ছিল
##abe
পিতাম
##াস্ক
অবতী
ডাইনিং
নভেম্বরে
নিজাম
এরপরও
ইলা
চার্ল
রহস্যের
##পূর্বে
##ুলিপি
ম্যাচটা
নির্ণয়
##day
নালিশ
##অ্যাপ
খাজ
ডিএম
থান
মাল্ট
পেরেছিলেন
##চূ
সৈক
চারিদিক
##মারী
##যোগাযোগ
বৃটিশ
তালিকাভুক্ত
প্যারিস
ব্যুর
জিপিএ
রিত
##লিন
বিবাহের
মতিঝ
সাইড
স্বভাবতই
পারভেজ
লজ্জিত
শোর
ব্রিগেডিয়ার
##ঘুরি
##ute
ওপেনার
##িপাল
গৌরী
বিরূপ
অবলম্বনে
##ুয়াদের
বিচলিত
হেলাল
এলি
##মূহ
ল্যাং
নিউইয়র্কের
অনিশ্চিত
ওড়না
রোগীকে
গ্যালার
আফগানিস্তানের
শিউলি
খানিকক্ষণ
##ুকা
জনৈক
নিকটে
##ন্ডিত
সর্বোপরি
ডাব
অহং
সিঁড়ির
##জেন
স্থানের
right
##ারেস্ট
গ্রিক
##সেট
##০টি
সংগৃহীত
টেলিভিশনের
পশ্চিমবঙ্গে
how
কোনে
বৌমা
স্বাভাবিকভাবেই
কারণটা
ইনস্টিটিউটের
অন্যমনস্ক
তোরে
দপ্তরের
মুরগির
আলেক
হুস
প্রতিষ্ঠানটির
স্নাতকো
নিমন্ত্রণ
নুরু
##ুজা
##সিসি
##দস্য
যুবরাজ
নেপথ
গোল্ডেন
টুর্নামেন্টে
কার্বন
মীমা
পতনের
রাঙা
কোম্পান
##িতেও
বিস্ময়ে
দোতলা
ওনারা
সক্ষমতা
খসে
সুশান্ত
রাধা
হাঁটার
একদা
অডিও
কিক
অনিকেত
অপপ্র
চেনেন
অতুল
হাইওয়ে
ফারাক
সালাউদ্দিন
গল্পটি
চিত্রনাট্য
সম্বোধন
বাড়িঘর
অবসরপ্রাপ্ত
গেঁথে
নাশ
বোঝানোর
অবত
প্রি
বেগুন
##র্ধ্বে
আক্রমন
##ওও
বাপু
অব্দি
শুভর
বাস্তবায়নে
প্রয়োজনের
বায়ো
ম্যাসেজ
##ছর
##দ্বী
মায়ে
মানবে
হাউসের
সাবান
বুঝল
ফাউন্ডেশনের
US
মাপের
রবিউল
##ানিয়া
ছিলোনা
২০টি
##ollow
##পাড়ায়
অযথা
##ON
টির
##erson
রাখবো
খেত
দুটোর
মোতাবেক
আঘাতের
কর্তব্যরত
Bl
যন্ত্রণায়
আলােচনা
হাঁক
গর্ভে
##াহিত
বুঝলি
সংশোধনী
শিক্ষামন্ত্রী
##ন্তি
দিবার
অভিনীত
প্যাট
দেলোয়ার
অনেকখানি
ব্যাগটা
##স্টার্ন
দফতরে
মতলব
আয়কর
পপ
##োশ
পরার
ব্যাটার
##িপে
বঙ্গোপস
##শক্তির
চ্যান্স
##খানের
দেখেছিল
অ্যাসিড
অনুপ্রেরণা
স্ট্রাইকার
হাসিয়া
সেদিক
##বাণী
##বেশি
##কর্মের
##র্ব
বসুন
অনুরোধে
ছেয়ে
Be
জয়পুর
পোস্টের
বাসস্ট্যান্ড
সাজ্জ
আটকাতে
মমতার
মাইক্রোসফট
আইটি
শিথিল
পুঁজি
##কেশ
মোহনা
ঘুড়ি
ধড়
গন্তব্যে
বিড়ি
প্রতিবাদের
শাহীন
অভিন্ন
than
গাজীপুরের
রুল
স্যাটেল
মহাশয়
##িস্তান
নিশ্চিন্তে
বন্ধুসভার
##ates
অর্থনীতিতে
বিশ্বনাথ
##েরই
পিটি
মেয়াদে
ঝোঁ
অভ্যর্থ
তিনজনকে
নব্য
##চই
বরফের
নবন
bh
গুগলের
সেমিনার
Gr
রাজপথে
তরুণীর
পুরস্কারের
আখ্য
##َيْ
এতেই
##AT
জলাশ
ফিরেছে
খাটো
মফিজ
উট
লিখছি
ভ্রমণের
##পট
ভিখ
রূপা
##ওলা
খ্রিস্টান
ob
সেচ
দপ্তরে
ফেললে
কয়টা
##ার্জি
##িমিটার
##ne
জিভ
ভ্যাক
##ious
শরীয়
কাম্য
##কল্প
call
র্যাঙ্ক
##দায়ক
কোম্পানীর
তানিয়া
att
ফ্যাল
##ood
##ালায়
প্রদেশে
প্রসারিত
Me
##নায়ক
ছোটবেলার
নারায়ণগঞ্জের
কচ
##জানের
বিস্ফোরণের
ধসে
##ock
আর্জেন্টিনার
কর্তাদের
নির্দোষ
ইস্টবে
এঁরা
##ুঝ
রাগী
স্বস্তির
শুতে
বিচরণ
এগারো
ক্যাডার
##স্বাস্থ্য
মদিন
হুমম
রেট
ফাটল
##মুহূর্ত
বিষয়টিকে
##তিম
হাসলেন
শাফ
রাতুল
প্রযোজনা
শুনানির
সুরক্ষিত
ইতালির
তড়িঘড়ি
উচ্চবিদ্যালয়
শৌচ
পরিমাপ
ভগবানের
ওনাদের
Part
##িমান
ক্যারিয়ারের
মুনি
বড়ুয়া
##বুক
তাআ
vi
৩য়
পুত্রের
##িবের
চেন্নাই
বিদ্যাস
উল্লাস
অকৃত
University
ফ্রিল্যান্স
শিশুটিকে
দীঘ
দ্বিতীয়বার
রাণী
আভ
first
ঘন্ট
আমীর
মানুষও
মার্জ
##াম্মেল
জামাকাপড়
gu
উন্মোচন
##াদিল
দীর্ঘদিনের
সম্পর্কটা
আতাউর
থিও
সংবাদমাধ্যম
ঘোলা
##গোষ্ঠ
ভাবমূর্তি
জনসভায়
তেই
08
##ware
করিনা
##ital
jon
টেলিভিশনে
থাকিতে
##সাহেব
মহাদেশ
পরিনত
প্রত্যন্ত
নির্বাক
বিস্ফোরক
খাপ
তেঁ
বিনিয়োগের
প্যাক
পেরেছিল
পোষাক
##াজীব
রোদ্দ
পিঠা
কোরবান
##ীক্ষার
ভূপ
টাউন
পিরোজ
ভঙ্গি
##াহত
##les
অন্তরের
মােহ
কফ
গলির
পায়েল
কর্মকাণ্ডের
বকেয়া
অর্পণ
##ন্দী
রায়ান
নামকরা
জেট
পরীক্ষার্থী
গণমাধ্যমের
০১৭১৩৩
##হাটি
##ube
প্রণীত
টুকটাক
want
নিগ
সেন্সর
সেভাবেই
১১টি
হালদার
অশুভ
তারার
কর্মের
কুসংস্কার
ডেইলি
শাহজালাল
বারান্দার
##াকান্ড
ভৈরব
থর
দেখছিলাম
লেফটেন
লল
ইসমাইল
সাথ
বললি
আকৃতির
পয়েন্টে
ফোটা
##প্টার
মিলছে
che
ফসলের
##দূ
করিত
দীর্ঘমেয়
জননী
সেলিব
লজ্জার
29
দানব
রাত্রির
##িপ্ট
need
জহুর
##কামী
##َر
##সালাম
গোত্র
আলুর
আয়ু
মরসুম
পুনরাবৃত্তি
মধ্যম
আজিম
লায়
দেখিয়েছে
মেরুদ
এনা
গিগ
খুদে
##রাহ
অবতীর্ণ
##কোর
##50
ভারতবর্ষের
শশী
##াপন্ন
কাউন্টার
সরাতে
খুলতেই
তালিকার
নীলিমা
বেলজ
##বন্ত
##কেন
খরচে
বাংলাকে
উদ্বাস্ত
##পথের
জানিয়েছিল
ডিভিশন
কমপ্ল
করিয়াছিলেন
রসায়ন
##ওয়ালার
সাহাব
সঙ্কট
##ত্রীর
স্বায়ত্ত
শতভাগ
বরের
বাদাম
##ঠক
পৈ
মেম্বার
কোপ
##াদ্য
##ভিনিউ
##াকান
নাঈ
বুদ্ধির
##খল
গ্রন্থা
##বহান
নেতৃবৃন্দ
##মর্য
নবজাত
গেছো
##্ধে
শিপ
##য়াস
আজহার
ভাসতে
শয়তানের
রেটিং
চন্দ
বেত
ফয়সাল
মুখেই
শেষমেশ
শুইয়ে
চলাফেরা
ধরলে
ইমি
এসেছ
মানসিকভাবে
মডেলের
পার্শ্ববর্তী
কাপের
##কারীকে
##IC
অপচয়
গাছপালা
নাচতে
স্পে
##করণের
আলাউদ্দিন
কোথ
বুনো
ষড়যন্ত্রের
বণিক
হাইকোর্টে
মহাসড়ক
পলা
আর্জি
##মস
##্বান
দোতলায়
অনুপম
##ড়ী
কার্তিক
সনি
সুকুমার
ফ্যাস
##ুথ
চকচকে
##িয়ো
##দাত
কলিগ
পেট্রোল
ভিড়ের
দিশে
ব্রিটেনের
আঠারো
গোড়
চলত
পেয়েও
মাত্রার
কূটনীতিক
জনমত
নিকা
স্পোর্টস
প্রজন
সমানে
খাগড়া
ভাসে
খুলনার
জেনেছি
পরিবহণ
ছাত্রছাত্রীদের
মওদুদ
পঁ
অবদানের
অনাম
##প্রার্থী
আশঙ্কায়
বিত্ত
ফ্যা
##যাত্রী
জিন্দ
বধ্য
##দণ্ড
##জ্জ্বল
##★★
পরোয়
দিকটা
ক্যালিফো
লকডাউনের
পরেরদিন
শেরে
বেশিক্ষণ
প্রেসক্লাবের
##বাগান
##কৌ
##ঘণ
খুঁজছে
কঙ্
১৯৮৬
ঘাতক
ডিমের
সাভার
##্সেস
##ৃত্যু
মাইয়া
আচরণে
মিলিটারি
##aa
ম্যাথ
কিডনি
তিশা
যুবতী
##বেশে
অভিভাবকদের
বিশ্বজুড়ে
##raph
আফ্রিকান
দিছে
করিলাম
##কালো
ঘুমোতে
প্রণব
ভাষণে
##াবাস
##রক্ষক
ফিফা
তিনটার
দুচো
গণহত্যার
গভীরভাবে
ধোয়া
প্রসঙ্গত
সুতো
প্লাস্টিকের
অনবরত
ওঁদের
শান
ফুটবলে
##ather
উদ্দী
##ইরা
##ll
পাতাল
ঢুকছে
লাভবান
##্থানের
মোল্লার
Windows
লাগায়
অঙ্গরাজ
##দেবের
চিংড়ি
অংশগ্রহণের
স্বীকারোক্তি
ইন্ডাস্ট্র
ছাত্রদলের
বিপর্যস্ত
স্কোয়া
উদযাপন
দাদাভাই
হকার
সংগে
##বাসীকে
প্রশ্নোত্তর
রক্ষণাবে
##বেদার
জয়ে
##িপত্র
##চর্চা
নির্যাতিত
জাজ
##তিস
যেমনটা
দাঙ্গা
ইংল্যান্ডে
##ALI
তাঁরাও
ডিভোর্স
##াতীত
খালিদ
শ্বাসকষ্ট
আচার্য
##ান্ধব
বদলাতে
উঠা
পড়েই
পিঠের
বাটন
আনল
mone
sec
ছার
অমুক
op
দরে
##ওয়াব
##িয়ের
রাতার
আহমদের
এবি
সুদীপ
মধ্যবর্তী
চক্রান্ত
জানুয়ারী
মেদিনীপুর
জুয়েল
কোনায়
দাসের
আগরত
কার্ডের
অপরিহার্য
মধুম
টিউশন
##din
মোরে
মতবাদ
ব্রো
স্কট
থালা
টাকাও
##োমকে
ম্যাজিক
সমীক্ষা
কখ
বরাব
জিয়াকে
১৯৫৪
ঝুলছে
উপমহাদেশের
অভিবাসী
নগরীর
আবেগে
নান্দ
মত্ত
মতের
টিপস
ডেল
পূর্ণিমা
তাকেও
আত্ন
##ামূল
সৌন্দর্যের
বব
শিক্ষায়
##্ণা
বর্ন
উৎক
মানুষটির
বেড়ানো
##রাসে
##ুচ
সারে
##জেন্ট
নেগে
Intern
পেজে
দই
চুয়া
সিএস
##ily
হুব
চলন্ত
স্থলে
নাসিম
থাকলেন
মহারাষ্ট্র
মন্ত্রণালয়ে
শোনেন
হত্যাকান্ড
সন্ন্যাসী
মৌখ
##য়াম
ব্যক্তিগতভাবে
দশেক
পক্ষপাত
অমানুষ
বুলবুল
##ঘাটের
চিড়িয়া
দূর্বল
গেছ
আব্দুল্লাহ
জয়নাল
##ঘ্য
রাহাত
সর্বস্ব
Dhaka
অধিনায়
নাহ্
আঙুলের
শাঁ
জমিদ
নয়াদিল
after
লুটপাট
হইচই
চাচ্ছি
১৯৬৫
শোকে
বর্ডার
সেলস
পালনে
নাহিদ
প্যাকেজ
##ঞ্জা
জলদি
১৫টি
ড়
অক্টোবরে
উপাধি
##সন্ত
সাতজন
হেলিকপ্টার
একপ্রকার
সরস্বতী
কুচি
মজবুত
ধারাবাহিকতায়
50
সমসাম
লেনদেনের
বুখার
##ৃদ্ধির
সেইজন্য
অগ্নিকা
এতক্ষন
মুজাহিদ
সঙ্ঘ
##কার্য
হাসন
কসম
অনাথ
##াব্দের
খ্রীষ্ট
থাইল্যান্ড
এরপরই
##কাটা
ইয়েস
ভাগাভাগি
হ্যাকার
ত্রিপুরা
উদ্ভাবন
ক্লে
ইতালি
রুখতে
এসএমএস
ভদ্রমহিলা
##ঠো
চোটে
১৯৬৬
জল্পনা
##পত
##চাড়া
কবুল
কপালের
##যু
স্বয়ংক্রিয়
লেফটেন্যান্ট
শাহেদ
অঝ
##swer
বাস্তবায়িত
অভিমত
##ono
ধূল
আপনের
make
##িকুল
বান্দর
ড্রে
প্রয়োজনীয়তা
##পর্যন্ত
সামাদ
##ভর্তি
দক্ষতার
ইসি
চাহিদার
বাজেটের
পড়ো
বস্তি
গার্লফ্রেন্ড
ভুবন
দাঁতে
198
নূরুল
##দ্ধারা
নির্মাণে
সৌমিত্র
মিরাজ
মারছে
লিভ
##পড়া
গলাটা
যোদ্ধা
সদস্যকে
ক্যাটা
If
##হাতি
ঘড়িতে
মোরা
##সত্ত
##বাজি
নম্বরের
জোটে
সাব্যস্ত
অঞ্জন
সংকো
পুলক
##ক্ষমতা
##সামগ্র
ভাঙে
পহ
##ুদ্দীন
উপনিবেশ
পূরণের
গোত্রের
কবলে
Engl
##ংশন
##সেফ
রাজাকারদের
ওভারের
##পটে
নামবে
ভাঙন
খাজা
অবুঝ
রিমান্ডে
মহাদেব
জরিপে
##িকল
দর্শনের
শারমিন
একগ
তারপরেই
অসামান্য
এত্ত
গাব
##িয়ানি
##স্কি
বায়না
ব্যোমকে
সপরি
তদন্তকারী
জনগন
পরিসরে
মৃন্ম
পদোন্ন
ভাবলেন
প্রান্তিক
লেকের
##াহ্
ঘোষের
গ্ৰ
দাড়া
শুনেছিলাম
##irect
চিন্তাভাবনা
লোগ
সম্প্রসার
মার্কেটে
মুখার্জ
প্রত্যয়
নিষ্পাপ
অনিচ্ছুক
জেলের
htm
অ্যাটর্নি
বিভ্রান্তি
cr
##লগ
##নিত
বাবুকে
উপকৃত
##ীস
গার্মেন্টস
সমাজকে
দীপক
##ডেন্স
ভূষিত
আয়নায়
রেজিস্ট্রেশন
অপছন্দ
তালাক
মুলত
উঠোনে
পরিচালকের
##11
ড্রয়িং
লিটার
বাদশা
মেরেছে
তিম
রঘু
জিস
বিপত্তি
পূর্বাভাস
অসম্প
নোটি
প্রধানের
দৌড়াতে
করোনাভাইরাসে
ঘাটের
সন্দেহভাজন
এজাহ
একাদ
অনুভুতি
সমসাময়িক
আবিস্কার
##াতুর
##াবোধ
নামছে
গণজাগ
তানভীর
পারায়
মোগ
হাতছ
##নারায়ণ
বাবাও
অদূরে
##ফামার
##ধরের
খেজুর
##চ্ছো
চ্যাম্পিয়নশিপ
হুয়া
ডর
ডিসি
বিষাদ
লুটিয়ে
অধ্যয়ন
##আল
বারি
blog
##ied
লাগিলেন
ফ্রান
অব্যাহতি
চুড়
বর্তমানের
প্রজাতি
ডিএনএ
নেহা
ক্রেতাদের
ত্বক
##াবাড়ী
কথোপকথন
পূর্বব
##চ্চা
##জাতির
ছাড়ো
কর্ক
##োহর
ডিজাইনার
##ফর্মে
পেতেন
ভূল
##ti
নিব
মোবাইলটা
বিসিএস
##ments
মোমবাতি
ছিড়ে
ভাজ
তানিশা
##নাস
আখ্যায়িত
স্রোতের
হালিম
জানাবে
প্রশিক্ষণের
জ্বে
ব্রিফ
পড়ুয়াদের
##্রামের
196
পন্থা
হাউজ
উদ্দিনের
ফেস্ট
যুগল
BC
উদ্ভব
##স্বামী
আশির
হেক্টর
web
তাদেরও
বানর
নেহাত
ডেভ
গৃহে
নেশার
ইস্প
মূল্যের
##ৃষ্ঠ
প্রতিবেদক
ঈদুল
বন্ড
##রঞ্জন
##নেও
শ্রীরামকৃষ্ণ
##und
ইন্সপেক্টর
মিতু
##নোর
##দেরও
##alk
শামিল
ম্যানচেস্টার
শাড়ী
মেডিসিন
অহে
শহুরে
সরবরাহের
ডিস্ট
তুলেছিল
উচ্চমাধ্যমিক
মূর্তির
সন্ত্রাসের
##াক্রান্ত
নির্মূল
নিবেন
মুখস্থ
ইয়র্ক
মসৃ
বঙ্ক
হইবেন
ভরিয়ে
মেট্রিক
##য়েদ
দম্পতির
অনুচ্ছেদ
নেত্রক
নির্বি
জলাবদ্ধ
##ামেড
অ্যাম্বুলে
40
অমৃতবাজার
ভোজ
বলেছিলে
অজুহাত
##মাত
উপরেই
রিপাবলিকান
নেগেটিভ
##টেম
অপব্যব
মোহাম্ম
তোমাকেই
সাঁও
৬টি
নীলফামার
ঠাকুমা
মৌসুমের
##দাকে
##গতের
১৮০
এগুলি
উঠতেই
সংস্পর্শে
##সম্পদ
সাতক্ষীরা
চাচার
##ricket
স্নাতকোত্তর
দুঃসাহ
##্যাঙ্ক
সামলা
প্রদর্শিত
নিলেও
##মার্ক
বাসন
ছাড়পত্র
অন্যায়ের
##োয়ারা
##স্টাইন
ভাবতাম
বেশিদিন
বাস্তবতার
চক্রবর্ত
স্রষ্টা
টর্চ
পড়ানো
ট্রা
মহিষ
স্মরণীয়
অগ্নিসং
বইটির
ইন্ডিজের
সেইখানে
আমাদেরই
##াৱ
ভ্রূ
শেরপুর
দেশপ্রেমিক
সংকটে
সোচ্চার
চালুর
বইছে
Rah
সেমিফাই
ফিরছে
অবরুদ্ধ
##োত
১৯৮৪
ভালোবাসেন
##প্রণ
সোমা
প্রাচীর
পড়িয়ে
সেপ্টেম্বরে
নীচ
শামস
প্রায়শ
চাঁদপুর
সংকলন
##ার্ক
add
র্যাম
টেকসই
ময়মনসিংহের
প্রাপ্তির
আমাদেরও
সহিংসতার
পাচ
##্টুর
নেদার
খবরটি
রেস্টুরেন্টে
আয়োজক
পুনর্বাসন
তাকাই
চেতনায়
##ামেচি
হয়রানির
সিন্দ
ছুটছে
আদনান
থামাতে
রওশন
দারোগ
১৯৮৯
##কাট
বুঝবেন
##fore
খেলেছে
##করে
##ছন
হিউম্যান
ঘেরাও
অর্থনীতিবিদ
##জোরে
শ্বেত
act
##মাই
How
স্ক্যান
বায়ার
সংরক্ষণের
চিম
ফিত
রাও
##িনায়
চ্যানেলের
জমজ
ফেস
কাপড়ে
কালচার
আখ্যা
গিন
##গানের
##ific
লাইব্রেরি
অবজার
প্ররো
ঢের
সত্তা
ডন
কোলাহল
খলিফা
শ্রীলঙ্ক
অপরাধীদের
##uch
গাঁয়ের
ভাবুন
দায়রা
বাঁচাও
শশ
কতখানি
অশিক্ষ
পয়সার
প্রভুর
ফ্লে
##নগরের
##oom
##চ্ছন্দ
১৯৬৭
শাব
কাঁদো
আলব
##খুঁ
ডোমে
প্রশ্রয়
হাফে
যাত্রায়
##২২
১৯৬৪
post
মির্জ
জুয়া
আমানত
say
দাম্প
##ters
আঁধারে
আনাগোনা
আম্পায়ার
##ener
জীবনযাপন
##ভেস্ট
শূন্যতা
তাৎক্ষণিক
চৈতন্য
##হানের
আদর্শের
রাজব
বিনামূল
টাল
দিনরাত
কারে
প্রস্তাবের
সমতল
ভেজাল
সাইক
ইন্ডিয়ার
bd
মানবতা
##ement
উপা
পিট
min
রহঃ
ভাস্কর
বেড়েই
দিশেহারা
বয়সেই
##ideo
তাহাই
ভূখ
মৃত্ত
চুলগুলো
লেখকদের
এমবি
ধানমন্ডি
তিন্নি
মূর্খ
ইটের
গোলক
গরমের
rem
পাসের
বাটা
পড়তো
নির্বিশেষে
বর্ধিত
ইচ্ছার
##ডর
রোকেয়া
উদ্যোগের
গুনা
মন্ত্রিসভার
fl
##ীপুর
##১১
১৯৮২
##ছড়া
১৯৭৬
অস্তিত্বের
স্বজনদের
Col
অনুগত
কনে
শফিউল
সজাগ
##েন্টাল
ক্ষেপণ
বিয়া
পৌঁছানোর
গ্রন্থের
সার্কিট
ভিস
সম্মানের
পিসির
স্বাক্ষরিত
দুর্ভিক্ষ
সতের
friend
অপসার
ট্রান
ঝকঝকে
বেচার
##েশনাল
ছেলেটিকে
স্মারকল
১৯৪৯
বনানী
##sc
ইনফরম
নিষ্ক্রিয়
##eno
যত্নে
##গারের
দেখাশোনা
##বুন
টাঙ
ভ্রাত
ঐশীর
ছুড়
##সিভ
প্রত্যক্ষদর্শ
দাম্পত্য
খোলে
সেইটা
ছাড়িয়া
বিতর্কে
খুর
রাউ
##ঞ্জনা
আবিষ
সারির
কনভেন
##line
##্কৃত
ডাইন
বাে
মাউন্ট
কদর
খেতাব
মিলল
রেস্টুরেন্ট
##ৎস্না
পারিশ
বার্তায়
ra
##সাধ
##তিয়ার
গোড়ায়
পুরষ্কার
সমস্যাটা
##vern
ছুর
কষ্টকর
বার্সেলোনার
facebook
জাপানে
অপ্রত্যা
ইবনু
নাকচ
অরু
##সীম
সঞ্জীব
সাকিবের
বেলুন
##প্রেম
খলিল
reg
##LET
tar
ডকুমেন্ট
চান্দ
অমানবিক
ফান
রেন
স্মৃতিচার
ভালাে
কাতারে
set
তৃতীয়া
##দীপের
হিমশ
উদ্যোগী
##ডিস
স্বেচ্ছাসেবক
নবান
যন্ত্রনা
আসসালাম
উৎকণ্ঠ
রুক
হবু
inter
##দিতে
ফাল্গ
ইংরাজ
পেট্রল
রোধে
ভিউ
##পরিষদ
সুদর্শন
নিরাশ
নীলু
নজরদার
গেজে
বাংলাদেশিদের
রহিয়াছে
ছাে
##পরিচালক
গিয়াস
কিম্বা
কিশোরের
নয়টি
প্রতিনিধিরা
##্যক
ডাকি
১৪৪
অহেতুক
শিউরে
রমা
##ient
এনডি
ছায়ার
রেফার
নাড়ল
গ্যালাক্স
সন্ত্রাসীদের
##med
উপচে
ভালোবাসো
ফ্লাই
##ES
They
নিরন্তর
অতিথ
الله
বিউটি
##উড
জনই
ac
বাশার
১৯৫৫
##আনে
ফজলে
জোক
গতকালের
##US
বাপি
শামসু
##প্রদ
বিশ্বজিৎ
নাফ
রুটিন
সস্ত
ইসরায়েল
পাশ্চাত্য
May
word
শিল্পীরা
দায়িত্বপ্রাপ্ত
ষোল
##নেশ
উড়ছে
মৃণাল
ডেড
সাউন্ড
##েশার
##াপ্রাপ্ত
কর্পোরেশন
##শপ
তমাল
##ামানের
##লাদার
ভাগ্যিস
ছক্কা
জওয়ান
বর্ণের
থার্ড
রেহান
সেনান
ফ্লোরে
##চড়া
টেক্সট
সাংঘাতিক
ভেবেছিলেন
মাস্টার্স
জিম্বাব
##াবাইট
##ats
##ফেয়ার
বিআই
অবস্
কুশল
গৃহবধূ
বইমেলা
একাডেমিক
চাইছিল
আসেননি
দ্যাখো
বৈষ্ণ
সম্পাদিত
প্রতিপাল
##ারেজ
আল্ল
১৯৮৮
প্রত্যাবর্তন
ওমা
বর্ষণ
অপ্রত্যাশিত
নড়া
রাঙ্গ
int
মুঠোয়
যাইনি
take
করুণা
##বিশিষ্ট
আসান
রাতারাতি
ওজনের
পী
৮টা
##ঞ্চিৎ
ব্রত
নির্বিকার
জীবিকা
সংবিধানে
ধরছে
বিমানবন্দরের
হরতালের
একমাস
##মটা
হৃৎ
ঘাবড়ে
জানুয়ারির
Comm
যােগায
শিলিগুড়ি
##প্রবণ
হ্যাপি
##get
##রেড
কোনোভাবে
রান্ন
##প্রেস
##্যক্ত
##ৃপ্ত
খুলল
##রিয়া
অবাধ্য
##মালার
##োজেন
বশে
##কেন্দ্রের
শ্ৰ
##বিস
##াসম্পন্ন
নয়নে
ভেবেছি
বেষ্ট
হতাশার
লিখব
কিস্তি
##াটায়
বানায়
ফুটেজ
হায়দর
those
কুৎস
##ঁধে
##বিংশ
দুর্গম
শ্রেন
নিয়তি
সিগন্যাল
stud
শুঁ
নিজেরই
দ্বিম
গণেশ
##earch
রাষ্ট্রভাষা
লাগেনা
গামছা
নার্ভ
##ৃষ্টে
তারুণ
বচ্চ
সোহরাওয়ার্দী
##রোগ
পরোয়ানা
১৩০
BUL
গাঁজা
##লারের
##তালি
##িগার
ঝিলিক
##চেন
১৯৫৩
##খোলা
কিতাব
অতিবাহিত
নারকেল
মেক্সিক
সেমিফাইনালে
Fr
রোজার
সাংবাদিকতা
##পুকুর
কিছুতে
পালানোর
##টুক
শুনছে
##ams
তাজউদ্দিন
প্রোগ্রামিং
ভুরু
কমার
##স্টা
Bengali
সুনি
মেশানো
লাম
অনেককে
গ্রহের
অমূল্য
চিরতরে
সুদীপ্ত
মতাদর্শ
রকমই
বয়েস
মঈন
বিঘা
সমাধি
লালমনির
##দাহ
কাটায়
##hip
পড়তাম
##গ্রাউন্ড
##াস্তব
মানুষগুলোর
আজিজুল
অবসরে
##ভান
##বাসের
খতম
বুম
ভবানী
##গাহ
##টিম
কোনভাবেই
ছেলেমানুষ
##ুড়িতে
##ীকৃত
অলরা
ইস্যুতে
##জাম
নিজেকেই
করিতেছেন
##াবিধ
কাসেম
Sha
##হাক
কোতো
গণনা
সোসাইটির
##বিচার
চাইবেন
দ্বাদশ
দায়বদ্ধ
মন্ত্রকের
BULLET
##ভেন্ট
##min
ওরাও
বরিশালের
##্ট্রি
সুধা
শাসনাম
বসুন্ধরা
##্ময়
বদলায়
গঠনে
উপন
চুম্বন
জায়
##প্যা
বলুক
ওভাবে
আমজাদ
##মাত্রায়
ফিউ
##ফুট
ঘোড়
ইয়াক
আদতে
মনিরুল
বাঁচে
##ঞ্চার
way
##َب
সেসময়
বসাতে
ফেরেশ
##গর্ভ
বিরোধীরা
মনজুর
গবেষকেরা
তাড়াহুড়ো
মোহর
ক্যালে
##য়ালের
অকারণে
দক্ষিণা
##মোন
জনসাধারণ
##OR
সাইজের
##াগুলোতে
তাঁরাই
চিৎকারে
পেস্ট
ঘুমানোর
বাচ্চু
আরাধ
থাকাকালীন
##্রেড
বাড়িটি
রেখেছিলাম
দেবেন্দ্র
কষে
শুনা
চালিত
শাশুড়
##ৰ্য
দেশী
খেলোয়াড়ের
ল্যাপট
মানুষটাকে
##لا
উচ্চবিদ্যালয়ের
##োলি
ডাকল
আলমারি
##odi
##পায়
বয়ফ্রেন্ড
রিকশায়
App
এসেও
আশ্রম
##ামক
##oot
ভরপুর
শাওন
সামঞ্জস্য
Res
ওঁকে
##চেষ্ট
ততদিনে
খুঁজি
কোম্পানিতে
মিটে
##দ্দী
জনপ্রতিনিধি
let
কোয়ালি
উঠেছি
ক্যামেরায়
আসেনা
১৯৫৮
মিষ্টির
পাবি
দুজনেরই
ইসলামে
উচ্চশিক্ষ
জম্মু
##বলে
পাঁচেক
##মিশন
বিআর
ককটেল
ইউনুস
##গুলোই
##ঞ্চে
পেশাগত
তোলপাড়
পিয়া
##ভাত
194
দ্বিধ
আগন্ত
নিউক্ল
রিভল
তৃষ্ণা
জঙ্গিরা
পাচ্ছিলাম
লিখুন
চর্চার
গুঁড়া
ব্যঙ্গ
উৎসাহী
পাপা
বসুর
name
আপেল
স্পর্শে
উচ্ছ্বসিত
বেরোয়
মিঠি
লড়ে
নাড়িয়ে
খোয়া
নাম্ব
হাড়ে
মনা
১৯৭৯
##istory
ম্যারা
এরাই
অচিরেই
টাট
ঘুমায়
ব্রিটেন
বিহারের
##মলে
পাখিদের
মাখন
##পুরা
বঙ্গবন্ধুকে
সকালবেলা
চুড়ি
দ্বারে
##স্ক্র
কান্তি
খালেক
শিখেছি
আহাদ
টিকিয়ে
গাঙ্গ
ছলে
##স্তুত
অভ্যর্থনা
বিদ্রোহের
##্গে
স্যারকে
নামল
সহি
সংজ্ঞ
বিবর্তন
নির্লজ্জ
রিলিজ
জোগান
ম্যার
প্রতিবার
১১০
কুদ্দ
##টুনি
##ology
হোয়াটসঅ্যাপ
বোম
চিরদিন
নৃত
আইর
গভীরতা
সুমনের
##িয়ালের
মার্কেটের
যাত্রীব
##ভূষণ
জিদ
আসবি
মন্ত্রি
উচু
জুত
সাজ্জাদ
টানাটানি
ম্যাস
ছানা
খোজ
বাণিজ্যের
আদেশের
ছোড়া
খেলো
ম্যাচেই
আরবে
##alob
পূর্ববর্তী
##ৎসব
##বন্ধু
কয়দিন
follow
জ্বেলে
##লোভ
মেলাতে
নামই
অবয়ব
ভেজ
ছুঁতে
জানুয়ারিতে
নিশী
১৯৫৬
##way
বোঝেন
ফেলুদা
ব্যবহারকারীদের
কৈশোর
বক্তৃতায়
গগ
গুঁড়ো
গেড়ে
উত্তেজনায়
লগ্ন
বাজা
গগন
বেজ
লক্ষ্যমাত্রা
জসিম
##ীও
হলফ
মেডিকে
ব্যবসায়ীর
ধার্মিক
মিজান
বদলের
বোকার
অসৎ
নীহার
রাজকীয়
ক্ষেপণাস্ত্র
জায়গাতেই
ইনভেস্ট
দাঁতের
রওয়ানা
##আরের
বখ
কাঙ্ক্ষিত
##িকি
##ন্ডে
##জাস
##ুমের
গুণে
রিটার্নিং
দেখিস
বন্ধে
##ফায়েল
##য়াত
##াগের
সরো
গাড়িটি
সেমিনারে
কুৎসিত
did
##জিতের
মিছিলের
##ize
জিতেছেন
##হানির
পেস
লিপি
গোড়া
স্বাস্থ্যের
মোস্তাফিজুর
হংকং
##িয়ানো
অতটা
চাস
##াহান
মহিম
১৯৭৭
কিশোরীর
##টিভি
##ুঁই
##াক্ট
অন্তিম
পায়না
##পার্ট
##ন্ধন
অসুস্থতার
সবের
##শয়
রাজাকারের
কতই
নিকটবর্তী
বিকশিত
গলিতে
##সাধ্য
শহীদের
বংশোদ্
দিনাজপুরের
আর্ক
প্রখর
স্বীয়
মার্কা
sob
##চড়ে
##ুলেশন
১৯৬৩
অস্ফ
##ানাের
থাকছেন
পরাজয়ের
শোবার
জিএস
থামল
জানালাম
##াদারের
##িত্বের
হয়তোবা
পানের
রাখতেই
পোষা
bangl
##roid
সহযােগ
রান্নাঘর
##গম্য
বিপাকে
ফেলিয়া
ওটাই
চ্যাট
আহমাদ
আলতাফ
রচনার
ভাসমান
সহায়তার
জিম্বাবুয়ে
দুহাত
ক্রীড়
বোট
পক্ষেই
চিরকুট
আশ্ব
কীসের
##চলা
সিরিয়ায়
বিরক্তিকর
স্নিগ্ধা
মাঝখান
##োধ্য
##২৪
চাঁপ
##ty
রংপুরের
নগরী
বংশধর
সুস্ম
তুলেছিলেন
##চিহ্ন
নৌকো
সকলেরই
ভাবের
ইসলামীর
আদেশে
pass
##গিরি
##শালার
##ায়ণের
সেটিও
ফাদার
##que
##read
ফুটপাত
রাখছেন
সুবিধে
##ান্দা
##পরিচিত
##ষাঢ়
বৈধতা
জানাজ
সবচে
এপ্রিলে
জাহানারা
মালি
নরক
অসমাপ্ত
ওপার
##99
##ধুনিক
সামু
শিক্ষিকা
##্রিয়ার
রকেট
মধ্যা
সুযােগ
ব্র্যান্ডের
দক্ষিণের
##ঙ্গলের
হেফাজত
লিপিবদ্ধ
ঘটনাস্থলেই
আটল
মোহামেড
ব্যস্ততার
আসলেন
ভার্চুয়াল
গৃহস্থ
বোমার
##কাতর
দর্শনার্থ
জ্বলজ
কায়েম
tumi
##গ্রস্থ
১৯৬৮
সীমাহীন
কমপ্লিট
##ঙ্গনে
সজোরে
সর্বকালের
একবারে
ম্যান্ড
##ঞ্জয়
বয়ান
খারাপের
চরে
লিং
হরম
বাংল
বিনামূল্যে
চিনা
থাকাটা
বাঁধের
জমানো
গোম
##ট্রা
kotha
উর্
গ্যা
নদের
অস্ত্রশ
##ae
সুপ্ত
কালা
এতদিনে
টপকে
##িয়ামে
ঈষ
দূরত্বে
##গতিতে
html
ত্বকের
অতিক
ভোঁ
##চার্জ
ভুবনে
তরকারি
গুণী
সংকীর্ণ
##ণিক
রাতটা
টেলিফোনে
চাকুর
সচরাচর
বাঁচা
সংহতি
লেটার
বাঁধে
একাত্তরে
বহিরাগত
স্যাটেলাইট
জ্বরে
পশ্চিমের
ভিডিওটি
সালমা
নাবাল
Star
##চাঁদ
কতজন
কোয়ারেন্ট
বীভ
কবরের
##মেন্টের
সাতটার
ডাক্তারি
১টা
পড়লেও
ফক
##IR
##াত্
সিরাজগঞ্জ
সফলতার
ওয়ানডেতে
জন্মান
স্যা
কার্যকার
জ্বালায়
প্রফুল্ল
##ঘব
টেকনোলজি
##িশিয়াল
ঘটলে
অন্তর্ব
টুর্নামেন্টের
এমনটি
##ধের
##ান্তা
পশুপ
##৭০
১৯৮১
আবিষ্কৃত
##জিক
কায়দায়
আমলা
বেসরকারী
প্রতিরোধের
মোজাম্মেল
অধিনায়কের
নিমেষে
##ঘাটা
ইউটিউবে
don
##চিয়ে
তাঁবু
##era
পরিচয়ে
দস্ত
দোষারোপ
উচ্ছ্বাস
ভগ্ন
শেফ
কেনই
বেতনের
প্রকোপ
নজরুলের
ক্ষিপ্ত
সাজাতে
ষোলো
##ান্ডা
পাগলামি
নির্জ
ট্যাংক
লিডার
মুসলমানরা
এড়
##ভ্রম
সুজয়
##ax
##আইপি
##যাত্রায়
##১৯
বহুম
এহেন
আন্ট
##বিদ্য
যাইতেছে
বাষ্প
এনবি
আরু
##স্কর
একেই
নিয়ন্ত্রক
খুঁটিয়ে
প্রশাসকের
বালির
সংস্থাটি
##রুমের
পুড়
thr
অর্থবছরের
প্রশ্নপত্র
নেননি
##ুরিয়া
into
গুনতে
গোধূল
আশাক
থাকবি
ইনকাম
রসুন
আকরাম
প্রতিবেদনের
কক্ষের
থামে
##াম্প্র
দাঁড়ালাম
ইহুদী
ইইউ
##ilo
##َع
মিস্ত
ল্যাম্প
##নেল
নেহি
পঙ্গু
##এক্স
অভিক
রেফারেন্স
পারাপ
সৌজন্যে
ত্রিপ
মর্মান
আমর
দেরিতে
ফাইভ
ঢং
ক্লোজ
আলগা
##ness
বারাক
সেক্টরে
চুক
##ْم
দ্বন্দ
সম্ভাবনার
ব্রা
নানাবিধ
##ages
রিনি
চললাম
নীতিন
বড়দের
বাসর
রোগা
টোল
১৯৮৭
হারিয়েছেন
মর্ত
৯টা
অরিজ
লিখছেন
সাদেক
সোমনাথ
১৯৮৫
অনশন
উত্তাপ
বলেছ
পড়ছি
আলেকজ
ei
ইজ্জ
ঘুরপাক
পাঞ্জাবী
ট্র্যাক
বাজতে
থাকিয়া
##ফিল্ড
ইমো
কবরে
সালাত
##ody
ফেব্রুয়ারিতে
অরিন্দম
বেহাল
মােহাম্মদ
ট্রলার
লুইস
ঘটানো
রুক্ষ
সান্নি
জবাই
আলিপুর
ফিরলেন
অদ্ব
রয়্যাল
ফেরাতে
ডেঙ্গু
ঢুকেছে
##umber
হতাে
সুইজার
কালই
মাজার
ফুলিয়ে
অভিব্য
সাঙ্গ
##ton
বেশে
##িজাত
দুর্লভ
##৮০
আনমনে
গ্রাম্য
কর্তার
##ুকর
প্রাসঙ্গিক
তফসিল
সত্যজিৎ
বেড়াল
আবিষ্কারের
##াবলম্বী
##হরাব
উপক্রম
##োলাই
ডেমোক্রে
##ফ্রন্টের
আসামী
ঠিকমত
str
কাঠি
ভাবছিল
##াহি
কোত্থ
শ্রেণীতে
ক্যাফে
একাডেমী
যুক্তরাজ্যে
পর্ষদের
সত্যকে
দিনগুলোতে
দিলি
##দেহের
রৌদ্র
##ক্ষণেই
##মোট
ডেট
পিপি
পাঠালেন
লিখেছি
নিতাই
গদ্য
নেতাকর্ম
##নগরে
সংকল্প
ফাগ
##ঝের
##ঘাতে
পেপ
##বদল
##ience
জার্নাল
ইনিংসের
প্রদর্শনীর
চোরের
কাঁক
গণজাগরণ
##HA
মান্না
উইকিপি
عل
অনী
কোহালি
বিজ্ঞানীদের
##80
দানের
##li
উচ্চতর
হাসিটা
000
ছোক
স্কলার
টাটা
বিক্র
##ope
mat
মুকুট
শহিদুল
ব্রাশ
মহিলারা
খেয়েছি
এতোটা
পলক
১৯৮৩
ওটার
শতাব্দীতে
অভ্যেস
রদ
কুটির
অস্ট্রেলিয়ান
আগ্রহের
পিএইচডি
##শঙ্কর
এতিম
সময়কার
তাইনা
সন্দীপ
তলব
অচেতন
ডোন
রুমি
ভাইয়ার
প্রতিবাদী
inst
ফাঁদ
মাইনে
পাচ্ছিল
মৌন
শচীন
দাপট
মুরাদ
আত্মপ্রকাশ
রূপকথা
##orry
prot
নেদারল্যান্ড
১৯৫১
সম্পাদনা
##লকে
জীবনেও
রোনাল্ড
হাতছানি
Kh
লেবু
শক্তিকে
##ins
পারবোনা
##লেন্স
কয়েকজনের
তেড়ে
সমূ
অরুণা
অভূত
মিহির
১৯৭৮
অকাল
কারনেই
স্যামসাং
##বেলের
উইথ
প্রচেষ্টায়
##ঙ্গায়
মালয়েশিয়ার
হাইড্র
অগ্নিসংযোগ
বন্যায়
প্রজনন
সুবাস
Bangla
স্তন
দরদ
শম
প্লট
অগ্রাহ্য
শিকড়
বেসিক
রজনী
##ুপু
কোথাকার
দরপত্র
স্কাই
গুলিয়ে
অ্যাপ্লিকেশন
অসাধারন
##ena
দালান
কাফের
রেলস্ট
কৌঁ
যাত্রীবাহী
ভেল
##ুচিত
##মিং
পাম
এইচএসসি
পেনাল্টি
বুখারী
##াঁস
বামে
##ular
ইমিগ্র
এট
কফির
নিথর
অতো
তিতাস
বাদ্য
সইতে
রাস্তাঘাট
##মুগ্ধ
##থমে
নমঃ
ইচ্ছায়
কুয়াশার
সময়মতো
Mobile
দেখবি
আত্মীয়স্বজন
##াত্রী
ব্যবস্থাও
মন্ত্রক
শিয়া
ফুঁপিয়ে
অজান্তে
বিস্তীর্ণ
##ন্ধে
##মানি
বাঁচবে
সেক্টরের
##ীয়ার
অনৈতিক
বিডিও
খাওয়ানো
সহীহ
বুঝলো
ইউরোপিয়ান
উচ্চতায়
##rib
গান্ধীর
দাশগুপ্ত
জানালায়
most
পাচারের
##টুকুও
স্যুট
ব্রড
দৃষ্টির
কৌঁসুল
বাহু
ব্যোমকেশ
নৈশ
আমাগো
সংযত
শ্লোগান
সুখবর
হইব
কিসে
কোত্থেকে
##্যাংকের
উপপরিচালক
মারুফ
বললুম
##সনে
##টাকা
পাষ
অসম্পূর্ণ
ওপাশে
যাদু
আশিক
ডিসপ্লে
মাহমুদউল্লাহ
অ্যাপস
মসৃণ
কমবেশি
##ities
জামিনে
মোকাবেলা
##িনেশন
উদ্বেগের
ঝামেলায়
কর্মচারীরা
##শনি
রাস্তাটা
নওয়াজ
টুট
নন্দন
সিক্স
দিচ্ছিলেন
war
##্র্যাট
বিদ্ধ
লাগাম
ভুলবেন
অভয়
ছবিও
ভিডিওতে
##ene
ঈশা
রাগিনী
পলায়
পরবে
বিশ্বাসযোগ্য
রামকৃষ্ণ
জিগ্যেস
অয়
নিবি
##মাখা
কঙ্গ
ফাটা
পর্যায়ক্রমে
BD
বালুর
জিরো
##ern
##চুড়ি
যোগাড়
##ঘুর
ব্যাটসম্যানদের
গিন্নি
সুত্র
মিশরের
লোকেদের
অজুহাতে
ধোনির
##পুত
##ফলের
প্রিয়ার
অ্যাঞ্জেল
##াগম
রুহী
ভোটা
লব
##wn
##হাটে
দারোয়ান
সীতার
দীপ্তি
রয়েছি
বীভৎস
বাসি
বগ
গী
মনস্ত
আলিঙ্গন
টিস
স্বত
ফিরলে
অক্সফোর্ড
##ুত্ব
##বিরতি
আফতাব
সেকেন্ডের
রসিকতা
##সাধন
নাইন
কামরা
##ষ্ম
বর্ষায়
শেয়ারের
খড়্গ
ভালভাবে
খোদা
প্রসেসর
কঙ্কাল
প্রশাসনকে
##াইনবাব
জব্বার
ট্যাবলেট
বিয়ার
আরেকজনের
##শ্রমিক
জামিনের
করিতেন
রায়চৌ
যাহার
মোড়ের
বোলারদের
টার্মিনাল
##াডি
রশি
##াইজেশন
##কেন্দ্রিক
অলোক
দিনভর
অস্ট্রেলিয়ায়
নাটকীয়
নাচে
চারজনের
বোনাস
সমালোচক
উথ
শেখানো
ধারন
কাশ্মীরে
মাগো
##ating
##সিতে
কর্পোরেট
##ন্জ
##ুহ
##con
ফ্রিজ
চিরন্তন
##tu
অসাম্প্র
ভাবিয়া
শব্দটির
মেগাওয়া
তুহিন
##كُ
জনসংযোগ
মর্মান্তিক
শ্য
শ্বা
বৃন্দ
রুচি
রেজিস্ট্রার
##মারে
আদরে
ফ্রান্সিস
মন্ত্রিসভা
পারিশ্রমিক
ইচ্ছুক
##িসম্প
বসানোর
##iya
##িকারক
আটজন
যথাসময়ে
##ডম
##বাসীরা
হেনরি
পরিকাঠামো
শশা
১০১
ধূমপান
##পদে
##কীয়
##কাণ্ড
আওতা
##েইল
অগস্ট
সিআইডি
মিলনের
বাচ্চাকে
মুফতি
সংবাদের
##eth
মূলে
##প্রতিষ্ঠ
ক্রু
##মেটিক
ভাবটা
রসুল
##োপের
কার্ল
জবর
অনার
##ible
পিকে
একতর
সোর্স
##oci
##মুর
বাবর
নেক্স
কমরেড
শিক্ষককে
মিটি
সুনামগঞ্জ
নিতেন
নভেম্বরের
##ives
কুরু
গ্যাং
##সুলভ
কাকার
মোর্
##র্ণার
যৌবনের
ঝা
##সক
মধ্যযুগ
দূর্
##ষ্কে
সুচর
##িয়ম
তুলির
কার্যক্রমে
বধূ
দেওয়ালের
শাকিল
তুললেন
চৌধুরীকে
থাপ্পড়
জর্জর
দুলা
সপরিবারে
মাদ্রাসায়
##সমাজ
কানুন
হেলমেট
file
কোয়ান
দোর
কিরকম
লেবার
খানি
জিৎ
রাজকন্যা
ভাদ
মনোহর
##াইবার
বড়সড়
ঘটলো
খনিজ
ঘষ
ফাত
বরুণ
দৃষ্টিভঙ্গ
রাবে
##বিকা
সুরমা
ইসরায়েলের
দেখাল
##ouse
প্রয়োগের
##ীবিত
সত্তর
##24
##িমে
কর্মকাণ্ডে
মাথাব্য
বসলে
দোকানপাট
প্রবাসে
বক্সে
শিক্ষান
উজাড়
##ৃহে
অভাবের
বিরিয়ানি
ইয়াহিয়ার
অবনী
বাজাতে
##ুলী
##ন্যার
এসএস
ক্যাশ
ব্রিগেড
লাত
ব্ৰ
##রোধ
##টনে
বিএম
প্রতিষ্ঠানকে
সাধারণভাবে
বামপন্থী
বিনোদনের
কুখ্যাত
শুনিনি
সম্পাদকের
জীর্ণ
বিপর্যয়ের
শয্যা
সালেহ
চিটা
সিস্টেমের
ঘোরাঘুরি
বুট
উদ্ধৃত
##ভার্ট
ফাউ
দেশগুলোতে
১৪টি
##মর্ম
আলিয়া
মহুয়া
##বানি
যাহোক
##জিট
ভিক্টোরিয়া
দয়াল
##itter
প্রধানমন্ত্রীকে
একযোগে
বাসস্থান
মৌসুমী
##পরিক
বল্ল
শিল্পে
##র্তী
come
##মানুষের
উপড়ে
অমাব
১৯৪৫
অসাম্প্রদায়িক
সুবেদার
ব্রহ্মা
##্হ
আদায়ে
ইনফরমেশন
কাইয়
##চুয়াল
অনুষ্ঠানটি
খুঁটি
ঢলে
##্দিষ্ট
##টারী
প্রার্থীকে
##াজক
পাঁচটার
মোটরব
রাশে
ইকোন
সেদ্ধ
প্রেমিকের
ফেরেন
অটল
ছুঁই
ব্যাকটের
হেতু
মাশরাফ
Cont
##৬০
##পাটি
কেশব
two
##িক্ষা
উপরন্তু
জাতিস
থাকিলে
গিন্ন
##িকোণ
Mon
সুদের
##বুদ্ধি
উড়োজাহাজ
নির্মাণকাজ
দুহাতে
বেরোনোর
লক্ষ্মণ
দেখেছ
মমতাজ
পঙ্ক
সারিতে
অত্যাচারের
##চরে
টোকা
সমাবেশের
রয়টার্স
##য়োর
ব্যাড
শূন্যে
কায়দা
গর্ভব
##বিলের
ভাঙল
উস্ক
ঠেল
সজ্জিত
অনেকা
আলমার
চালাচ্ছেন
শাপলা
অ্যাক্ট
valo
বিতা
##প্রান্তে
সমীকরণ
কনট
##als
আরবী
থুত
মাকড়
কৌতুহল
যশোরের
অগো
##ان
##স্তরের
রূপকথার
দূষিত
গ্রাহকের
অনিয়মের
##ুড়া
##বিজ্ঞানী
পহেলা
রবে
লড়তে
পাত্রী
##০০০
use
মং
টেলিযোগাযোগ
ঢল
সেজ
##িশাচ
কোনোমতে
অপ্রয়োজনীয়
বাস্তবিক
ধারাবাহিকতা
রক্ষণশীল
অভূতপূর্ব
##সময়ের
##জিতে
মোড়া
পিচ্চি
স্মারকলিপি
সামুদ্র
দলিত
সূর্যাস্ত
##pport
##ঘন্টা
হওয়াতে
মক্কা
পুনর্ব
দুলে
অর্ধে
ক্লিয়ার
উইকেটের
help
ফোটে
##লোকে
প্রেত
##কর্মীর
হেফাজতের
চার্লস
তলোয়ার
রুটে
পাত্রে
সাইনবোর্ড
মারল
অস্ত্রশস্ত্র
সেলিনা
কান্দ
অধ্যাদেশ
বাবলু
##োজা
উঠত
উচ্চারিত
একতরফা
নিপীড়ন
পন্ডিত
বকে
ক্যাম্পাসের
31
Jan
##ফিকের
জিডি
দাদাকে
many
Page
জয়লাভ
টেন্ডুল
দ্রুতই
##সামগ্রী
##োটিক
পরিচয়পত্র
##াংশ
বড়ি
বাইকে
হোস্টেলে
সামুদ্রিক
ser
মানসিকতার
বরাবরের
কাটবে
বাজেয়া
ইবাদত
##য়াজ্জেম
রাখতেন
পার্কিং
রোনালদোর
##aily
তানি
নামানো
অফিসিয়াল
এদেরকে
অপ্রস্তুত
দেশপ্রেম
মারি
ওঠো
প্রসন্ন
##চিল
অ্যাথ
সংশোধিত
##নাদ
খুঁট
start
রাজশাহীতে
##ূর্ন
সংগীতের
অপমানিত
নর্দ
লাগছিলো
##led
##জাতীয়
সম্পাদন
সাতটায়
দুইবার
খাওয়াদা
চৌকি
great
আধো
কার্যকলাপ
মজিব
দিয়েছ
সেভেন
দখলদার
সন্ত্রাসীরা
তারমানে
যতবার
কাটল
বাঁচানো
আকুতি
ব্যারিস্টার
মতোন
হান্নান
শহীদদের
কাতার
##eed
হইতেই
গুলা
আটটায়
তরী
স্বর্গে
person
ঝরা
##দৈ
জেলাশাসক
বালা
গেছিস
##াদিগের
##ption
পুনরুদ্ধ
ফরোয়ার
ঝুলন্ত
পিকনিক
Dec
দুয়ার
রীত
##প্রজাত
দিনেও
গোলাপের
বিবিসির
##য়াজের
##চাপা
ওসমানী
##ative
গুয়া
লেগেই
##সুদ
রেখ
পরিচালন
##ঘুম
সুরেশ
উদ্যত
গোনা
##imes
বংশোদ্ভূত
ধর্মঘ
মৃত্যুবার্ষিকী
লৌ
ম্যাচটি
রাষ্ট্রে
পথচার
স্কার
এপি
পরিকল্পনায়
ফেডারেল
##iness
##শিয়ায়
##ym
##াইর
বিস্ময়ের
##্বিশ
লাখের
##যার
here
দীপু
অতিথিদের
হ্যাল
হুবহু
বদি
##েলী
পুরোদ
##পরিচয়
shall
লাখো
যাতায়াতের
ভাইজান
এপ্রিলের
##ublic
ঝট
বিদায়ী
সেনার
##িউন
লেকচার
দেশব্যাপী
কেউবা
আৱ
##ম্যানের
সততা
সিক্ত
হসপিটাল
কর্মসূচী
খেলাধুলা
##শ্রয়
বিরােধী
যােগাযােগ
যাওয়াটা
টমে
কর্মস্থলে
বারং
শরীয়ত
জন্মায়
লেভ
ইন্দ্রিয়
মৌখিক
রিদ
##চ্ছল
আশ্রমে
শাহিন
খাদ্যের
বসের
স্ট্যান্ডার্ড
চাঁপাইনবাব
##জাফ
আলাদাভাবে
##ঠের
ছাত্রীকে
সিইও
সাঁওতাল
১৯৫৭
অপব্যবহার
১৬০
গোছানো
বাঙালিরা
নিরুপায়
রিপন
জামালপুর
আলীকে
বইমেলায়
##ক্ক
সমেত
ভাবো
সতীশ
##আল্লাহ
##াের
বিরাম
উল্লেখিত
গুনগুন
আয়াতে
##াঁটি
ছিদ্র
তয়
##ুয়েট
পরামর্শে
অভিমানে
নেহর
সুমনা
হাফেজ
বাজেয়াপ্ত
inc
প্রবাদ
আদা
দুচোখ
রিসেপ
ব্রাউজার
এতোদিন
গোঁফ
বেরু
মাঝরাতে
রিয়ে
##ণির
প্রশ্নটি
ডাস্ট
195
টয়লেট
দিল্লী
trans
##গুলার
বান্ধবীর
অভিভূত
অদম্য
কভার
ঠো
ষোড়
##লিকে
কল্পনায়
হেলে
##ures
তাকিয়েই
সেনানিব
আফর
দরুন
নামেও
সার্ভার
হাবীব
বুথ
১৩টি
জাতিগত
##ট্টর
##ালীন
##াতুল
##্লাস
ডিঙ
মস্তিষ্কে
##ram
##্দেশ
জোহ
কারাগারের
তেঁতুল
স্পট
চ্যান্সেলর
##খলা
##كَ
জিবি
খাবারে
কর্মজীবন
##িলির
গ্রামীণফোন
কত্ত
##শাস্ত্র
মনেও
ইরাকের
হাততালি
##চীর
##াসক্ত
পারছিলেন
অধিষ্ঠ
ফিরলাম
##ট্টা
fil
আমারা
বিলবোর্ড
মেলাম
ব্যাক্ত
গ্রাউন্ড
তুইও
আইসিসির
hum
মৌমা
বার্ম
গালাগালি
কুণ্ড
##টিটি
##ini
তিলে
##েশান
প্রতারণার
তড়িৎ
স্বেচ্ছাসেবী
##ূদ
বাইশ
ব্যাঙ
দরকারি
পরক্ষণেই
নাবিক
##সূচক
সমাপনী
প্রপোজ
মিস্ট
##্যতা
পাকিস্তানিদের
best
##াক্ষী
জয়দেব
অস্ট্রেলীয়
ডাকার
রুজ
আকতার
প্রাগ
পাতে
##দ্ৰ
##িয়ত
স্পিন
লোকসান
ফুচকা
দেখালেন
লেই
##িভুক্ত
এমডি
ভূমির
ডজন
রোহ
##োপলি
##akib
অপারেশনের
স্বতঃস্ফ
মুখর
পাইতে
তন্ব
পেমেন্ট
পারস্য
লেখন
মামনি
স্পী
জিহাদ
##َد
গুরুত্বের
জৈব
ডিফেন্ডার
সময়সীমা
পৃষ্ঠপোষক
অতল
##শয
পারিবেন
##স্তর
কুঠ
##রকমে
##ুবাবু
পাজ
তাচ্ছিল
তিনজনে
সাধারনত
##ফাজ্জ
হাঁড়ি
ফিক্স
আইএসের
খেয়েই
স্বাগতিক
নাহার
আসিতে
বক্তা
অনাকা
গ্রামবাসী
ব্যবহারকারীর
রমনা
ইমতি
সমালোচ
Tom
যাত্রীর
অনির্দিষ্ট
##পূর্ন
bu
কেবিন
##বিতে
হাটা
##eep
মুস্তাফিজ
অখ
পৃথা
শুনল
Ah
রক্তচাপ
প্রার
সারাদিনের
বিভেদ
কিশোরগঞ্জ
জাহাঙ্গীরনগর
##বিজ্ঞানের
ভৌগোল
ফিটনেস
একঘেয়ে
হিমা
প্রলয়
##ড্ডি
নাগা
কবিতাটি
##ল্লাল্লাহু
এভারে
দুষ্টুমি
##মিশে
##press
##ক্ষীয়
হেয়
##মালিক
মাসুম
##কার্ড
দ্বীন
সাংবাদিকের
কিরীটী
sur
পাড়ের
আশি
##দিব
ডিজি
টেকনিক্যাল
লয়
##্দা
চললে
##াজারের
শিকদার
##ধারায়
ইসরাইল
##বিরোধ
আন্দোলনকে
বাঁধতে
##প্রসূ
জাহান্ন
খাতিরে
জীবাণু
happ
##শট
বেইজ
##ার্থীর
প্যারা
মৌলভীবাজার
সেটিকে
কচ্ছ
অযৌ
##vernment
By
বেলাল
بِ
স্মার্টফোনের
থের
##হীনতা
নারীব
ঢেউয়ের
রাজপুত্র
অবস্থানরত
পাপড়ি
পরিশেষে
অবতরণ
চাঞ্চল
##সলিম
পরীক্ষামূলক
নবীর
কোতোয়ালি
জর্জরিত
##াইকে
সেবায়
such
##anks
ডায়াবেটিস
ঠেলা
শীর্ষস্থানীয়
১৯৪৬
অরবিন্দ
যানবাহনের
চাচ্ছেন
উমা
উত্তেজনার
কমপ্লেক্সের
বন্ধুবান্ধব
##ঠায়
ডেক
কারেন্ট
১০৫
আষাঢ়
ভাসছে
##ْت
মাঝপথে
##য়ি
বিড়ম্ব
bas
ঐক্যের
জনম
ডাকলেন
প্রবাল
##ধর্মের
country
স্কু
##াসিক
মাছি
প্যাঁচ
##চন্দ্রের
##মানব
##গাম
##ৃতে
সামিল
জুটে
##২৫
##ait
হইলেও
গ্যালারি
লীগে
যাচ্ছিস
তেরো
ঢিল
inf
বাস্তবের
ঐতিহ্যের
সংখ্যালঘুদের
হোমস
ডাকলো
please
রিয়েল
##মাঝে
উঠেছিলেন
##গ্রহের
খেলাটা
১৬টি
ডানে
##াড়ির
##টুকুই
বিরোধের
আপার
রেফ
ইন্টারেস্ট
##যত্নে
##velop
বনি
##ৌল
##াজাত
##েকশন
hobe
ভায়
ফুটপাতে
ব্যানারে
##স্তান
অরূপ
##্সন
##জ্জামান
বাঙ্গাল
ঔপনিবেশ
আপে
দেশটা
বোয়াল
জমজমাট
ফুটো
ঘেঁটে
বঞ্চ
বিভাজন
##িবর্ত
বিরহ
টেলিক
##ache
বিক্ষুব্ধ
অকস্ম
জিজ্ঞাসাবাদের
গ্রাফিক্স
বেঙ্গালুরু
ভ্যাকসিন
টিআই
##َّا
ফোরামের
আবিদ
টাঙ্গাইলের
আসামিরা
মিশনের
মুজিবকে
ড্রোন
শান্তিনিকে
tak
##ুইন
##চনীয়
মুভির
সংগ্রামী
বিচ্ছ
রাধার
বুঝাতে
অসম্মান
ডোমেইন
বারংবার
মার্স
হেলথ
জনগোষ্ঠী
হিয়ার
##oup
ass
##াইব
##জগ
কাপুরুষ
চারটার
ভালোলাগা
ওল্ড
কজন
পরবর
##ংসার
খোলাম
একাত্ম
ছয়টা
Ak
বিভোর
##ুনী
চাহিদ
মুগ
মহড়া
গণধ
বন্ধনে
##সুটি
সুস্ব
অমু
##ma
ওয়াজে
দত্তের
##ডেনের
উপকারী
জ্যাকেট
থাবা
আসছিলেন
উপকম
রুহি
মনিট
শাজ
##িন্য
বোবা
বহ্নি
মৃত্যুকে
পল্টন
সুইসাইড
নাতো
সমতা
সরকারে
##শাসিত
তালেবান
কয়েকজনকে
তৃতীয়াংশ
##ল্যান্ডে
আবির্ভূত
##াইস
নির্বাহ
শ্রবণ
ডিপ্লো
Mr
সত্যই
তিব্ব
ভূমিকার
রকিব
গর্ভবতী
নতুবা
##মাস্টার
প্রৌ
পদোন্নতি
মুক্তিযােদ্ধাদের
আইড
এশীয়
ক্ষুধার্ত
আর্ত
প্রথমার
কুশ
হাইকমিশনার
##মহলের
ওয়েবসাইটের
শ্যা
##টিন
##থ্য
ওয়াট
ব্যাগের
দিদিভাই
##ময়ের
##ানন্দের
ফাতেমা
বক্ষ
##দহের
down
পৃষ্ঠাঃ
প্রিন্সিপাল
আরকি
মোহিত
লিলি
##এসআই
মুদ্রার
রাঙামাটি
ক্রমশঃ
##স্কৃত
বাধার
মাধবী
ঋষির
খ্রিষ্টান
পই
অপূর্ণ
আয়ানের
##২৩
নিভিয়ে
শিলা
কোয়ান্ট
গোলম
ঘাত
হাসাহ
বিষম
ক্রাইম
##ঝর
ঘষে
##উন্ডার
##athe
বাহন
সাফাই
##উউ
নিদার
আতঙ্কের
##শিল্পের
ভিয়েতনাম
হাসিখ
পাগলী
##াত্রি
একজ
জঙ্গী
সীতাকু
রুপা
বাটনে
কামরায়
এসেছো
যিশ
লেডি
বকবক
কভু
##ডিএফ
নিশানা
পূর্ণিমার
বিজ্ঞাপনের
নেভ
প্রোটিন
চেঁচামেচি
##শনাল
খুঁড়ে
অবরোধের
অন্দ
এগোচ্ছে
##বাধ
ইনড
আগস্টের
##স্যার
ইউনিটে
আফজাল
আড়চোখে
মুল্য
নীতিনির্
আস্তানা
স্তম্ভিত
ডেথ
তৌহ
ছোটদের
##্রিদের
স্লিপ
আলোকচিত্র
##ৃশ
দ্বৈত
সােহ
##ten
নিজেদেরকে
মুহিত
লিখলাম
গুহার
আটকানো
অভিব্যক্তি
##াবাজার
##্মান
জন্তু
ট্রিট
এলজি
এরকমই
নালা
হেমা
ডিফেন্স
ডেমোক্র্যাট
প্রেক্ষাপট
টাস্ক
কর্মশালা
ঘনিয়ে
##জানা
ড্রপ
could
##ফুটে
mod
কনফারেন্স
হাওলাদার
চেম্বারে
বড়লোক
অ্যান্টিব
রিজভী
দশটি
ইন্টেল
##tr
##াদারি
লাঞ্ছিত
আলিম
দোতলার
##ল্য
সংগঠক
শাহবাগে
মুনির
##নীল
##্যাটে
##টুট
অলরাউন্ডার
পাঠা
পরিচয়ের
think
দাসী
শিফ
কোরে
পলিথ
##রেন
যাহারা
করেছিলে
হায়রে
রায়গ
সেলে
##লাকে
Acc
World
রউ
##পরাধ
ধরেছিল
দাঁড়িয়েছিল
তপ্ত
লিম
খাচ্ছি
হাপ
##TM
শ্বেতা
৯০০
##angu
##দুয়ার
##িউম
সুমিত
প্রবর্তন
##reen
##ঁকে
নির্বোধ
2019
##যাপনের
অনেকগুলি
শিক্ষকতা
কাঠগ
পয়সায়
ফ্রান্সে
সঃ
উদ্দীপ
চিরে
কোটির
##িনাটি
এসপি
Pre
There
ll
বানিয়েছে
কিঞ্চিৎ
ইহাই
##TH
মানিব
অসময়ে
পড়ুয়ার
দ্বারস্থ
সদরে
##ঞ্চলীয়
আসমান
##hool
কামান
##সৌ
##পিন্ড
নামী
বিশ্রী
ভারতী
##ভয়
রাহমান
##ুজ্জামানের
উসমান
রেস্তোরাঁয়
আবহাওয়ার
আসিস
ব্রাহ্মণবাড়িয়া
কট্টর
পর্ণ
##َلَ
প্রোপ
ভাবতেও
মিসির
উদ্ভট
ব্রাউজ
পড়ব
অশেষ
##adi
আসসালামু
##ন্ত্রিত
পঠিত
বসেছেন
আমীন
ভালোর
মেটা
শংকর
##ইডি
##গেজ
উপদ্র
ক্ষয়ক্ষতি
Act
##াপদ
আলাইকুম
অবহেল
রমন
##িন্স
তোফায়েল
বসেছিলেন
##শোরে
##IS
লক্ষণীয়
হলদে
জুনে
ঠাকুরগাঁও
পুনর্ন
##িয়াসের
বেজায়
ফেঁ
##াবস্থা
উপাচার্যের
ভেজে
সীমার
প্রস্থ
আনন্দবাজার
##12
লেবান
##৯০
ক্রমবর্ধ
ক্রমান
বিরোধীদলীয়
থেকেছে
##পুরী
##মিনি
স্ট্রে
রাকে
রিমা
বেঁকে
পরিহার
নয়টা
অপরিস
##গুচ্ছ
কাটাই
অপবাদ
##ভেদে
বস্তির
ইফতে
ঝো
নিলা
দিবা
১৪০
রাধিকা
ফেইসবুক
mar
কুরআনের
বিআরটি
ডের
দুপাশে
ডাক্তারবাবু
##্লুত
ডিলিট
পরেশ
##ম্যের
Muslim
বার্সা
##িত্রা
বাজনা
মনোবল
পড়াশোনায়
##াদানের
##িপতি
নিয়ন্ত্রন
উপাসনা
প্রতিহ
উপনীত
সুবোধ
ভুলিয়ে
যুক্তির
মিনারে
##জুল
##ডেল
কোন্দ
সত্বেও
অকস্মাৎ
ক্লিনিক
ঔপনিবেশিক
et
টাইট
এটিএম
১৮৪
ঢুকলাম
ঠিকা
একেকটা
অপহরণের
যুদ্ধাপরাধী
সবখানে
ফাটিয়ে
look
বিশ্বকে
মুক্তা
ভালোভাবেই
সিয়াম
সাময়
অর্জনে
বিছিয়ে
ইব্রাহী
করীম
বলায়
সাহার
বিভীষ
বিজিএমই
নিশ্চি
নিহতের
তুর্কি
##িশ্চ
##স্টি
পোলাপ
শামসুর
গুজরা
জ্যোৎস্না
দেখেননি
নাঈম
মোদির
আদলে
অ্যালব
অনলাইনের
ভ্রমন
দরবার
##পালের
বইগুলো
আসামিকে
dh
বিস্ফোরণে
প্যারিসে
স্টোরে
উৎপাদনে
##্যবহার
পোহাতে
কাঁধের
স্কুলছাত্র
God
সংয
সিমেন্ট
প্রৌঢ়
বাঘা
সর্বদাই
রাজ্যপাল
বিক্ষোভের
খিচুড়ি
পরিধি
প্রামাণ্য
অ্যাব
স্থপতি
তৃষ্ণ
##ছায়
##েশা
আগেকার
তনয়া
##ড়াও
##াজির
ত্যাগের
ফতো
আপুর
তাকাচ্ছে
অটুট
##ator
কেরিয়ার
রোক
সান্যাল
প্রেরিত
##রক্ষা
##চ্ছবি
হুঁশিয়ারি
সোপ
জামার
অ্যাটাক
পর্ন
সুস
##পর্ব
##সংক্রান্ত
##াগণ
##িকারী
ইচ্ছাকৃত
দুর্গাপুর
##ought
পালায়
##াস্ট্র
ট্র্যা
##দ্বার
কুতুব
অর্থেই
প্র্যাকটিস
hand
শেষবারের
দৃশ্যের
খ্রিস্টপূর্ব
##ামনি
হাঁটছে
ভৌগোলিক
##ms
শৈশবের
উপনির
প্রমাণের
##কিতে
##oj
দেখবার
শিক্ষার্থীকে
নীরা
জোনাক
গর্তে
ঊর্ধ্বে
সচেষ্ট
আলোড়ন
জনা
নিরস্ত্র
বাহিরের
##্তায়
ছড়াতে
ধুতি
মাইন্ড
রাখেনি
হোঁচ
##ফলক
##মাসের
কৈল
বসবাসরত
দুলাভাই
রাখাইন
পলিসি
আটলান্ট
লিড
নক্ষত্রের
মধ্যরাতে
প্রতিভার
ভাববেন
কতোটা
আরাফাত
তাৎক্ষণিকভাবে
##াবাগ
ডাকাতির
কর্মে
মোচ
কুমারী
সৃষ্টিকর্ত
আচ্ছ
গুদাম
##ওয়্য
পার্থিব
বিষয়টির
সংখ্যাও
কৃষকেরা
##তন্ত্রে
মধুসূ
ক্ষোভের
এ্য
##েদের
##হ্ম
বিএ
স্রষ্টার
কোরান
সুন্দ
##বছরের
নামেন
মিছে
পতি
আজকেই
যন্ত্রণার
ঈষৎ
##ision
ট্রাকে
##াকড়ি
বলিষ্ঠ
অধ্যুষিত
পরীর
প্রবাসীদের
##tic
সরা
পাটের
##াপের
শত্রুদের
ক্রমবর্ধমান
পুরাণ
সংবাদপত্রের
ছলছল
##াবশেষ
বিপক্ষ
আঁতকে
রিফাত
ললিত
অসন্তু
##AS
প্রস্থান
আমেজ
অবিচার
অণু
নুসরাত
এনি
##বেগে
বার্ল
শাহবাগের
ট্যান
শখের
ইয়াং
ওইসব
সভানে
ইনস্টল
##হরি
বুলি
যেভাবেই
জেড
বিচারপতির
পাশা
সম্পাদকীয়
pres
##১৫
বৃদ্ধের
ইলেক্ট্র
বিদ্যাসাগর
##র্সে
জুনের
রিন
বিবেকের
ঝলমলে
মুশফিকুর
সেদিনও
শ্মশান
অপর্ণা
আহারে
কুমারের
কাহিনীর
আংকেল
করের
ইশতে
বিষণ্ন
জোছনা
মুড়ে
ডোন্ট
##হ্
বসবাসের
বাসভবনে
##িত্রী
করিয়াছিল
মুঘল
বিবেকানন্দ
গীতিকার
বিক্ষিপ্ত
বাপ্প
স্তূপ
##াদেবীর
কমতি
##df
ক্লাশ
পোক
##াণী
##ীকরণের
ধম
##ানুসারে
##ূরের
##EN
হাজী
মেমোর
##30
গুচ্ছ
কোনমতে
##ীয়দের
লিয়াক
ফলশ্রুতি
সম্রাটের
করিমের
সরানো
শার্টের
ক্রোম
আগ্নেয়াস্ত্র
##খাত
প্রারম্ভ
সংশোধনের
হইনি
নাটোর
##রাগ
##ামাটির
অংশগ্রহণকারী
ছাউ
পার্বতী
সংবাদমাধ্যমের
ঘাড়ের
অশিক্ষিত
من
অতিশয়
মহামারি
হরেক
##চরিত
মায়েরা
জিম্মি
##্টারে
##নেট
জমায়েত
স্ট্রোক
অখণ্ড
ঘুমা
জুভেন্ট
def
ভবনটি
##বিট
##তালে
ফিরলো
অপুর
ধেয়ে
বিংশ
ইনজে
পূজ
একেকটি
ইভান
ব্যপারে
বিনষ্ট
##াপা
বিভাস
##pect
তরবার
নায়িকার
সংবেদন
চারুক
কুমির
সিন্ডিকেট
Sec
ফ্রেঞ্চ
মায়েদের
পরিযায়ী
দিনম
দেখেছিলেন
জানিতে
সল্ট
অদ্ভূত
বেশীরভাগ
যেরকম
বালতি
আইসোলে
ভরত
কাটাকাটি
প্রতিনিধিদল
বিএনপিকে
ট্রান্সফার
Par
উদ্বোধ
উন্নয়নশীল
Te
##ftware
পাইকারি
এগারোটা
পারছ
##পন্থীদের
কামরুজ্জামান
হার্ভ
##াদ্ধ
অবজ্ঞা
মাস্ত
উন্মত্ত
স্টেডিয়ামের
##াকারে
হঠাত্
উপকূলীয়
ব্রিজের
আওয়ার
রঞ্জিত
ত্বর
##াসু
##ভূক্ত
ফরেন
বছরেও
উত্তরটা
জনি
নিস্প
বিনীত
মুক্তিযোদ্ধারা
রফত
পারদর্শী
##ঙ্খিত
ভাগ্যবান
নিলেই
৮টি
##বক্স
One
নির্বাচনকে
প্রতিষ্ঠানগুলো
ঋক
made
এইমাত্র
উৎসুক
ইউপির
##িনীকে
কলকাত
মেকআপ
হোঁচট
প্লান
##সেনা
প্লাজা
সাদ্দ
মিশ্রণ
রিয়ালের
বিশ্বযুদ্ধ
অংশটি
বোধগম্য
বুকিং
পদক্ষেপের
অঙ্কিত
জাতীয়তাবাদ
##ষ্কাশ
অভিশপ্ত
section
##ni
তন্ন
ফেব্রুয়ারির
against
অন্তর্বর্তী
পরছে
আধটু
শুনলেন
বানাই
স্বাচ্ছন্দ
পেশাজীব
সংগীতশিল্পী
media
রিলেশন
তাগিদে
দিদার
খোঁড়া
অ্যাভিনিউ
থে
হচ্ছেনা
গাফিল
##ita
পস
নির্দেশিকা
ঝুঁকির
স্নেহের
পর্ষদ
করিয়াছি
উল্টা
ডার্ক
বুশ
জীবাণ
61
বহুজ
নিশ্চিহ্ন
আশংকা
আল্লাহকে
আক্রমণাত্মক
##গুলাের
অবশ
বিরাজমান
হুইল
##াপয়
##নির্ব
জর্ড
ডুক
ব্যাঙ্কে
চিকন
কোলের
১০৪
উঠছিল
মাদকের
অনুকূল
দুইটার
##িওর
ভুলেও
স্কয়ার
##ব্রিজ
বাহিনীতে
শুনিতে
##জিবির
##বাদীরা
##পিছু
এমনিই
##দ্দার
##শেখর
শক্তিতে
রাসুলুল্লাহ
##সানের
হত্যাযজ্ঞ
পাঁচটায়
##AA
বিড
##্রিয়ায়
##াজনের
মারবে
হলোনা
ঝাঁঝ
ডোর
প্রতিবন্ধকতা
নাইজের
বসবাসকারী
Moh
##ature
ইউনিভার্সিটিতে
ত্রিভ
dif
##পস
##ury
মৌলবাদী
ঢোল
##বালের
##َو
আরমান
চেষ্টাও
ফ্রাঙ্ক
##কোয়ার
belie
##ঙর
যেদিকে
দিমু
##ভাঙা
যাত্রাপ
মেনু
রিয়াদ
অনুষদের
বিপণন
পেখম
রাশিয়ান
##গানে
পড়লেই
হম
দুঃস্বপ্ন
Ami
দ্বন্দ্বের
চলিতে
স্ফ
##াগুলোকে
শেখর
তীরের
ইউনিক
মিথিলা
##বিধির
পরাশ
ক্ষুদ
গর্বের
স্যানি
হদিস
ক্ষেপে
Dr
##বেদনা
প্রচারণার
kono
চের
ক্যাথ
রান্নাঘরের
##ুনিয়া
##60
রেই
রিপ্লাই
ঢোকা
ট্রাইব্যুনালের
লোম
##াতু
হিটলার
##ammad
হাঁফ
ব্যালট
##টেইনার
মেক্সিকো
অভীক
সড়কটি
##য়ালা
পড়ালে
চাকরিটা
জমেছে
যোগাযোগমাধ্যমে
ষাটের
##তাছি
মিলেমিশে
ঘোমটা
আগরতলা
ভীম
আব্বার
আড্ডার
মুস্তাফ
মনোরম
##নেজ
হাঙ্গ
রিও
কানাই
##রক্ষার
কর্ণধার
##টেনে
রাব্ব
গির্জ
অন্তরালে
Do
##দ্দেশ
উপরোক্ত
সময়েও
পালের
কমিশনে
ter
জনসন
জীবনানন্দ
প্রস্তুতির
স্নায়ু
সাত্তার
##গাছা
জার্মানিতে
নিভৃত
প্রভাষ
চোখদুটো
সিকদার
প্রেক্ষাগ
প্রকাণ্ড
জনকণ্ঠ
ফিরেই
বিধাতা
##হাই
ভাটা
গুহা
##চেল
সর্বাত্মক
অস্বীক
খুলি
##কারখানা
মালিকেরা
কৌশলগত
আহম্মেদ
শ্যাল
মাধুর
##তুন
পূর্ণতা
ভয়েস
অগ্রণী
রোজই
আবাহনী
32
well
ভারে
প্রিয়তম
বণ্টন
##২টি
শ্যামলী
##প্রাস
মাসির
টিউব
তকমা
অট
Set
kort
দেনা
det
##্ট্র
দিদিকে
সম্পুর
##োষিত
প্রতিফলিত
সাময়িকভাবে
প্রণয়নের
বেশিরভাগই
বুঝার
হাতিয়ে
ব্যাটিংয়ে
টিয়া
অপরিবর্ত
বাঃ
##hile
আত্মীয়ের
সামহোয়
সরানোর
##িপাড়া
রোয়েন
ইব্ন
পুস্ত
জ্ঞাত
ভূমিকম্পের
##বান্ধব
স্বতঃস্ফূর্ত
পত্রের
##ting
সর্বশক্তি
ব্যবস্থাপনায়
পেন্স
মৈত্রী
আগষ্ট
স্পর্শকাতর
পরস্পরকে
কাভার
##eric
আগ্রহে
উইন্ডো
রেশন
ওয়ার্কার
তায়ালা
তৈল
৩০টি
Rahman
আগন্তুক
##ঢ্য
ফতে
##লেটে
##দিত
১২৫
##সকল
দেখেছো
পত্রিক
Mic
##ami
বৈষ্ণব
হিমশিম
ব্যথার
বিশ্বাসে
এশিয়ায়
অযৌক্তিক
যুবকদের
আলোচ্য
Dis
যী
পাটা
পাইলাম
মাহবুবুর
never
সংগ্রহে
বাঁকুড়া
Na
mor
অনিশ্চয়তা
##ছিয়া
বদনাম
##খালীতে
##ির্ম
ফ্রেম
প্রাক্
কৌঁসুলি
শ্রদ্ধার
বিল্ড
##ense
##মাত্রার
স্বর্গীয়
##রঙ্গ
স্বজনেরা
##খালি
সমাদ
##ুপে
##িগোষ্ঠ
প্রাপ্তবয়স্ক
কাস্টমার
##বৎ
##িজ্য
ইতিপূর্বে
কুম্ভ
মুখার্জি
##ident
পৌঁছয়
অ্যাকাউন্টে
ডেমোক্রেটিক
করবা
পিয়ার
মিডফিল
কস্ট
download
these
বহিঃপ্রকাশ
শীল
দেখিল
##দেবীর
ওয়ালা
##ন্যে
জানাজা
সোজাস
প্রত্যাশিত
জিন্স
সিন্ধ
ইফতেখার
যথাযথভাবে
গুলিব
##যায়
##ালিটি
পুস্তক
মেনেই
স্বর্গের
বিশদ
বড়জোর
##ুদেব
##গার্ড
##মনীয়
তাহলেও
মহানবী
লোকগুলো
স্বাভাবিকভাবে
প্রণয়
দীর্ঘমেয়াদি
প্রতিরক্ষ
তোড়
##ল্পিত
২০২১
ফিলিস্তিনি
হোলো
লিখবো
sim
নিঃশেষ
ঘটনাও
বাচ্চাটা
মালিকানাধীন
জুর
শোকের
ইয়াসমিন
##্যর
cha
ফেয়ার
রুবি
থাকবেই
আর্মির
##ُوا
##ণীয়
কনটেইনার
লম্ব
শ্রীন
ডিআই
জাই
জুগ
##ডিল
লৌহ
ক্রুদ্ধ
পূজো
ছােট
পটুয়াখালী
before
##র্থক
নাটকটি
ক্যাটাগর
লিখেন
চাকুরি
লাশটি
বলিলাম
হৈম
##কুমারের
ফটক
মূলধন
##ক্ষিণ
##বিক্ষ
ভিল
১০৮
উপস্থাপনা
দত্তক
সুস্বাদু
##ক্ষনের
বাধে
##াসং
##দ্ধার
শাহাদাত
সুন্ন
##াম্ব
##রাজ্য
সৃষ্টিকর্তা
জলজ
ডায়ে
##খোর
হাজিরা
দৃশ্যে
হাইস্কুল
কাশী
নির্ভরযোগ্য
ধিক্কার
অন্যটি
thak
ছোঁয়ায়
ব্লকে
শিক্ষাবিদ
পুতুলের
##ভাষায়
আরিফুল
শাহের
##োপে
বিবর্ণ
বিচ্য
একুশের
এলিজ
স্মৃতিতে
মাদ্রিদের
where
খৃষ্ট
প্রদর্শনের
##ral
সাবলীল
মেগাওয়াট
din
বোরো
সংস্থাকে
নাম্বারে
পরিশ্রমের
করোন
এসেছিস
##তেজ
##ন্তীর
##ুইয়ে
আনিয়া
##িরাও
শাসকদের
##খাটে
পর্যবেক্ষক
ভন্ড
##বার্তা
কপিল
হাসাহাসি
ততক্ষনে
তনি
ছুরিকা
ভান্ডার
মামী
শেষপর্যন্ত
অপদ
ভেবেছে
সংগঠনটি
Sa
গানটির
পরিজন
সন্মান
খুচরা
আশাকরি
##াক্রম
অর্ঘ্য
does
সঙ্গীতের
##idd
শোনায়
quest
তন্দ্রা
উষ্ণতা
লিটল
অনুপস্থিতিতে
##িকাদের
মাউ
##রণীয়
ঘুমাচ্ছে
##পুলের
Music
Em
##ui
সাইকেলে
##ever
আইএম
টাচ
লিপস্টিক
খুলনায়
##শ্রীর
অফুর
সুজাতা
সানা
##ূষ
##র্না
৫টা
##ধনের
চাইতেও
চাইনিজ
তামিলনা
##red
পারভ
মধ্যস্থ
মহিমা
লয়ে
প্রশান্তি
বিনয়ের
ব্লগারের
##ঝিম
অন্যথায়
রিশ
একখান
সুদীর্ঘ
রোদ্দুর
অঘটন
ট্রায়
মোদের
ওয়াজ
মিশ্রিত
ঝুড়ি
পাখিরা
আশঙ্কাজনক
গাইবান্ধা
সিসিটি
গ্যালাক্সি
##্থে
সন্দেহজনক
last
দাঁড়াই
ফরিদপুরের
ওজ
নাঃ
##াপাড়া
English
অনড়
##োগ্য
পুরুষকে
read
ইমতিয়াজ
##ফাইন
##ছান
সর্বজনীন
উপস্থাপ
আবূ
অনুভূত
ভারতবর্ষে
মুজ
শাড়িটা
বিশৃঙ্খলা
আশ্চর্যের
ইভেন্ট
ভাবছো
মুজিবনগর
যোগী
##সাহিত
কঙ্ক
ব্যথায়
through
##ভবনের
আনু
##্লুর
জন্যেও
আরতি
##ফায়
বসেছি
কাগজটা
উক
শিকল
##তলের
নাসের
Off
দেশেও
হিলারি
জিম্বাবু
পরিচর্যা
গোলরক্ষক
এ্যাড
এধরনের
সংগঠনটির
বেয়াদ
জানিয়েছি
দুরু
বাদামি
লালচে
মিডফিল্ডার
জনপদ
১৯৫৯
নেক্সট
মনু
ডাক্তারদের
মনিরুজ্জামান
##সন্ধ
ক্লায়েন্ট
##কোষ
##يه
হতেও
বাঁধানো
রায়কে
গায়েব
পাথরে
সয়
##উনের
গর্জে
ঢুকলেন
মূলতঃ
পদপ্রার্থী
##َال
বিদ্রোহীদের
কেরান
##uck
জাসদ
তাণ্ডব
gl
##ঙ্কি
উদ্যোক্তাদের
হাঁপাতে
ডেলিভারি
রজার
কর্মক্ষেত্রে
৪র্থ
অনব
ফর্মে
রুমা
##ধিষ্ঠ
দাবা
ভিজতে
বুয়েট
মেধার
হাসিনাকে
মীন
খেলোয়াড়েরা
##me
তত্ত্বের
উপার্জ
মতিঝিল
##ছের
Add
সখ্য
##ven
শোনাতে
ইস্টবেঙ্গল
##াসাহ
নিধন
কিছুদূর
অ্যান্টি
even
When
##iver
কারাব
কোস্ট
সর্বমোট
##view
বোঝাপ
##াইনে
মেট্রোপলি
সেনাবাহিনীতে
জীবের
বিদ্যুৎকেন্দ্র
সেকি
মুড
##দিগের
অ্যাকাডেম
song
সত্যিটা
##বৃত্তি
নাতন
##নাময়
থাকাই
প্রশ্নবিদ্ধ
১৯৩০
Rel
##াপুরুষ
##সঙ্গীত
##াবিষ
জোয়ান
##স্কা
মীমাংসা
বেনার
হতভাগ
এডওয়ার্ড
জলপাইগুড়ি
জিম্বাবুয়ের
##োগুলো
লিবার
কেদার
প্রবীর
National
ডোম
মুজিবর
প্রতিবারই
গ্রীক
বাথরুমের
##েশ্বরী
দূর্গ
##পন্ন
##ষু
নাব
##ীয়ান
##formation
ha
৭টি
মানুষটিকে
২টা
বেল্ট
ফরোয়ার্ড
বরকত
##গোর
##ars
সীমাবদ্ধতা
জ্যোতির্ব
##ভিচ
লাগলেও
তুলছেন
বিজিবির
##ese
বৈকি
লিয়াকত
el
ভোলার
##ird
এলাকাবাসীর
সৌরভের
অপপ্রচার
পেতেই
দাহ
##ক্ষণিক
বিকল
পায়রা
চাচাতো
প্রচারণায়
হওয়াটা
স্থায়ীভাবে
##ts
ফিরতি
এনেছিল
চক্রবর্তীর
কুদ্দুস
অগ্রিম
বাক্সে
তিনটায়
১৮৩
##ুজে
কোনোক
লুকোচ
মধ্যপ্রাচ্যের
অস্বীকৃতি
চাকার
বাড়িটার
অঙ্গনে
##ভাষার
রত্না
##oun
রেজিম
টাকাপয়
হলিউড
ডেস
##িনহো
##৭৪
অনুমোদ
সাধনার
news
long
উড
তাফ
ব্যয়ে
বছরেই
ফৌজদারি
##াস্তা
লীগকে
##আইয়ের
##বধূর
যাওয়াই
##ুণি
অগণিত
জগদী
##AM
অত্যাধুনিক
ডাচ
নায়কের
Gu
আক্ষ
অভ্যুত্থান
৬টা
ঊর্ম
##ুমারি
ভালবাসতে
##ভোকেট
অপরিসীম
##kh
বিবিধ
গঙ্গোপাধ্যায়
প্রায়শই
free
পাঠাই
##ঠাকুর
ইন্দোনেশিয়া
রাক্ষস
##াগল
মূসা
নড়াচড়া
##্টনের
লিফট
স্থানান্তরিত
##সিডেন্ট
শিহর
##দ্বীপের
##ًا
##ংসী
কর্মসংস্থানের
ভাইয়েরা
রাবেয়া
সুরক্ষার
আইও
শুনলেই
##ঘণ্টা
কক
ঠুকে
##দাল
নায
##সেপ্ট
আইনজীবীরা
মাহমুদুর
fam
প্রাত
পাকাপ
লক্ষী
ভারতীয়দের
আলামত
নাছির
অশান্ত
সম্পূর্ণভাবে
ভাড়াটে
ওয়াচ
জহিরুল
ভ্রান্ত
অর্পিতা
নারে
##দিয়ে
ইনশা
স্টাড
সাগরিকার
এনার্জি
ফাস
বহুকাল
##ঙার
feel
সিংহাসনে
aut
অতর্ক
সেবন
প্রতিদান
ভৈর
লাগাতার
##এসএস
##াউড়া
##word
বলবার
ভেং
দমনে
জেব
উনাদের
বচ্চন
কাপ্ত
##বিশ
মাধ্যমের
পাঁচজনের
সন্তানেরা
দলিলপত্র
টুম
##orn
##বাড়িয়ার
সংবেদনশীল
দন্ড
বখাটে
##চিন্তা
নার্সিংহো
শহরত
প্রাইম
পিপলস
জঞ্জ
কিসি
ব্রাউন
থমথমে
কাটলো
##সুন্দর
বিচ্ছেদের
তোয়াক
##পিণ্ড
ব্যাপারেও
বালাই
জুলুম
অভিমানী
গেরিল
উদ্ধৃতি
প্রলোভ
পোস্টটি
গার্ডেন
নব্বই
চোখেই
ব্যবস্থাপনার
কাইয়ুম
ঐশ
হ্রদ
ব্যাক্তিগত
কনসার্ট
ডক্ট
হনুমান
##নির্দেশ
নিবন্ধিত
আস্থ
আসিনি
দেবীকে
ইবরা
পেয়ারা
কুঞ্জ
সেনাপ্রধান
শ্বশুরবাড়ি
বিহীন
ডলারে
##তমা
ভেতরেই
উপন্যাসে
বলিউডে
জামে
আফ্রিকায়
প্যাসে
তাআলা
বিসিবির
হিমালয়
পেঁয়াজের
মিনু
ধাতব
হীরা
লির
বাউন্ড
##নারি
খর্ব
আম্মুর
কেলেঙ্কার
কুড়িগ্রাম
ইসরাই
##পরিবহন
##ওয়ানের
আবরণ
##গাড়ি
ব্যাবসা
কাঠগড়ায়
লুকোচুরি
বিণ
পরাধীন
##ধারিত
সাধক
১৯৪০
আখের
##ক্রিয়া
রেসিপি
১৯৪১
জ্বলতে
একখানি
অর্গান
মারফত
মনোযোগী
ড্রাইভিং
##px
অভিনয়ে
গ্রন্থাগার
ওয়াজেদ
দুটা
চারজনকে
##িচারে
ইলেকট্রিক
প্যালে
আমন্ত্রিত
gh
ইসহাক
সমাজতন্ত্র
প্রান্তের
##ৱে
মারলো
ছাগলের
Bh
রাঁধ
রসদ
এরমধ্যে
জবরদ
ফ্যাক
অভিযুক্তদের
কোরবানির
শ্রোতাদের
কোপা
বিলিয়ে
##ান্দার
ইপিআর
বেহেশ
ক্ষান্ত
কোনওদিন
অম্ব
নির্বিচারে
প্রকল্পটি
হাওর
অর্নব
##সারে
##নিষ
পাগলি
লিভারপুল
##টেজ
প্রলে
রাখিস
পরল
নয়টায়
##ُّ
ইমর
আর্দ্র
##তাবাদী
মিসর
গবাদ
##ission
উচ্চশিক্ষা
রিকোয়ে
লুচি
##َة
চেহারাটা
Inst
##land
ব্যুরো
##ছালো
চারু
অনুসন্ধানে
##site
সর্দি
লোডশে
##ঝাড়
উঠানে
রেলপথ
হিমেল
তিথির
##🙏🙏
তান্ত্রিক
একজোড়া
সযত্নে
##কর্মে
##ream
আহ্বানে
wr
জনসভা
##লেকশন
গুরুর
ল্যাট
Web
ব্যাধি
##োদর
বাধ্যবাধ
টানাপ
মোড়ক
##32
গ্যালারিতে
##্টনে
বিঃ
##ালিন
##ran
স্থবির
##পুট
ডাকবে
হর্ষ
##34
আত্মস
ফিফটি
হাসিল
স্বপ্না
##ােধ
১৯৪২
তীব্রতা
সিম্প
আলবদর
শিক্ষাপ্রতিষ্ঠানের
Raj
##rid
শেয়াল
পৃথিবীটা
ছিলই
গতিশীল
ছাত্রকে
inv
অভিবাসীদের
2018
নিবেদিত
অনামিকা
পচ
অক্ষত
আঁকতে
আদিবাসীদের
##ঞ্জনের
করবেনা
গাঁধ
##সম্পর্ক
একদিনে
নিতাম
তনুর
ডেঙ্গ
পড়তেন
এজন্যই
সমঝোতার
অবাঙ
অকে
ফেলেছিলেন
এক্সপের
ইপ
##ায়িত্ব
নম্র
শিবের
##বশত
কইলাম
সার্জেন্ট
স্টাডি
Google
বেশকিছু
দুইদিন
##ুজের
সীতা
ধৈর্য্য
##ঞ্জিত
গৃহি
##ين
ইহাতে
##या
নাজির
বঙ্কিম
khe
##োচিত
পরিবেশনা
ওটাকে
জয়েন্ট
##ালন
فَ
##শৈ
##olo
সম্পূর্ণরূপে
কয়টি
ভোরবেলা
বুড়িগ
##সেইন
##সংলগ্ন
ওখানকার
উদ্ভূত
##কর্ষ
ঋষভ
খুজতে
আটা
বাড়া
সমর্থনের
##োহন
নূপুর
##ন্দুর
স্পন্দন
বলতেও
রবির
পাঠদান
শিহরণ
##প্রা
নেওয়ায়
মাহমুদুল
সয়ে
দেয়না
অক্টোবরের
আল্লামা
৩৫০
টমেটো
বাইর
পাইনা
##ety
১৭৫
##ম্বল
##لم
##িয়র
হালাল
বৌদির
মহাসাগর
প্ল্যাটফর্মে
##ামাটা
##uss
সোহম
জামাতে
যথাসম্ভব
##ুপের
স্পাই
ফলন
##াত্ম্য
ঝলসে
##ুয়ের
ঘটিয়েছে
##কান্দি
ক্ষমতাব
মকবুল
পাউডার
একান্তই
##শিস
##াখ
##ফিউ
ব্যয়ের
ন্যায়বিচার
দাওয়ার
##াধা
হােক
প্রফেশনাল
Jul
তও
আত্মত্যাগ
কবিদের
ভীর
মাদকদ্রব্য
##aster
সাবজেক্ট
সিনহা
##চর্চার
ভার্জ
##োপাল
যুধিষ্ঠ
এডুকে
মহাবিশ্বের
ওপরই
conf
ব্যালকনিতে
##াসীরা
##yr
মাথাব্যথা
প্রসিদ্ধ
চিরকালের
ওতো
##ফোর
শৈল
##পতন
ক্রেতারা
তৌফিক
much
##সুমি
ট্রিপ
চৈত্র
বিজন
শোয়েব
সস
##ৈঃ
কিলো
সেগুলোকে
ইজারা
শ্বাশ
##আরপি
prov
তামিলনাড়
writ
একটির
তুলা
শম্ভ
##inc
ইউনূ
স্ক্রিনে
নির্লিপ্ত
নিরিখে
end
অন্যভাবে
মারধরের
##ural
bar
টায়ার
কোয়ান্টাম
মিঞা
দিতেও
আইসিটি
এতবড়
গাঁয়ে
পুঁতে
ছাত্রছাত্রী
শায়ে
##িলিটি
দিইনি
সনাক্ত
সংবাদমাধ্যমে
বিসম
ভিক্ষুক
##clud
##মধ্যেই
ডাকেন
পটল
সিএম
##্ভার
kar
করিতেছি
প্রতীক্ষা
ওক
##২৬
আসতাম
বলেছিস
বেডে
##ক্রিপ
তছন
##ডুব
ঘন্টায়
##মেজ
মালিককে
পিশাচ
##মহলে
পাত্রের
হিত
আপস
উভয়েই
আমদানির
এয়ারপোর্টে
রচন
##my
##ْر
চোদ্দ
১০৩
শিখেছে
খিলখিল
##ারদের
##াকারীরা
নিম্নরূপ
কনফারে
হাতড়ে
jonno
##ধাম
মার্গ
##ets
নৌবাহিনীর
ধনে
##পড়ে
##িয়াদের
লেবুর
দূর্ন
মর্যাদার
পেঁচিয়ে
কর্ণফুল
অবহেলিত
অপলক
প্রকাশনী
হালনাগ
ইরফান
দোয়েল
হ্যাকিং
এআই
নলক
প্রজা
বিভূ
ছোটগল্প
##দ্দের
নাতনি
কংক্র
আদমশ
আক্ষরিক
নিলামে
কেরোস
বাছা
##ames
সেটিই
দোসর
ক্যাডেট
শাশুড়ির
যেমনটি
উপকূলে
কল্পনাও
বিমা
করারও
##তাবাদের
নেপথ্যে
প্রমো
##স্রো
ওয়ার্নার
বিধিনি
রামপাল
চূড়ায়
উনারা
ok
জোড়ে
চড়াও
##ভদ্র
অন্যজন
##ইট
##হলে
চারটায়
রাতেও
কানাডায়
সারদা
পিরিয়
পর্যন্তই
##কীর
১০৬
প্রত্যেককে
আয়ুস
যানজটের
হাটের
সাশ্রয়
হাসবে
কতদূর
এসবই
##াবিষয়ক
ছড়িয়েছে
##াকাঙ্
বিরুদ্ধেও
আসামের
একটিও
pic
প্রচ্ছদ
সৌহার
পোঁ
##ype
অস্ট
##বিত
সাতক্ষীর
##ron
পদ্মার
ডাকলে
দুঃখী
ডাক্তাররা
শিকারের
এক্কে
##খিলেশ
##ব্যবস্থার
মজল
টাটকা
##িসম্পদ
সোনিয়া
ফুটপা
নিকোল
দৈব
##এফের
নিস্তব্ধতা
##uh
##ক্ষু
অসুর
জোসেফ
নির্মাত
গুপ্তচর
পৌষ
##rain
খোলামেলা
রণদীপ
হাসিখুশি
আসিয়াছে
##িমাকে
আগমনের
##ব্যস্ত
মশলা
ঝলমল
সুচিত্র
##সাৎ
gmail
দেখালো
গোপনীয়
##পরী
তোয়াক্কা
##িটে
পরিধান
মহাত্মা
অবস্থাও
ব্যাকরণ
ইসরায়ে
এদেশ
সেটে
লুকানো
কোনোরকমে
অসন্তুষ্ট
##াহর
ফেলব
##াজ্জ
সাধারণের
মাধুরী
##ৃত্তির
অ্যাসিস্ট
শৃঙ্খ
##ule
আজাদের
সোবহান
গ্রামা
নোয়াখালীর
তারাত
ছোড়
##প্রজাতন্ত্রী
##ভিয়া
##ণাধীন
ঘৃণ্য
নাড়তে
##ayer
##িন্ডার
সংস্থায়
স্বাধীনভাবে
##্লাবে
বাঁচি
pur
বিভিন্নভাবে
দ্যাট
মেজো
ঘটার
##াদিত
##বার্ষিকীতে
cap
আন্তঃ
জার্নি
তামাশা
আনছে
পরিপন্থী
১২টায়
##হুম
##72
##ুলকে
ছেদ
গ্রেড
বোনদের
ব্যান্ডেজ
মৈনাক
সর্বত্রই
খাজনা
গুলশানের
ইজ্জত
إِ
##কারা
ব্যার্থ
মহসিন
চালাক
##সত্ত্বা
car
##এএ
লাগি
বিরক্তির
গালিগাল
হ্যাটট্রিক
Link
অস্থিত
দমে
সুপ্রিয়
ক্যারিয়ারে
লোগো
লেখিকা
পন্য
##িস্ম
দিকেও
কোনোরকম
##লভ্য
রাজস্থান
ফিরবেন
সুরু
পায়চারি
পাগলাম
পতাকার
##তুল্য
সেমিফাইন
খাতির
লিওনেল
চোরাচাল
##হিতা
ওয়্যার
ল্যাবরেট
##ফটের
##াবলীর
পার্লামেন্টে
ফটিক
ভাষাকে
সংখ্যাটা
যোজন
প্রাণবন্ত
উত্প
উঁচিয়ে
বৎসরের
তছনছ
চেতন
ভাবেনি
##বিভাগ
কিট
রাজাকে
নার্ভাস
জায়গাটি
দোষে
ব্যবহূত
পদার্থের
##বনা
খুলিয়া
##র্ট
মিথ্যার
##যানের
জীবিকার
অন্দর
চালে
নিকৃষ্ট
মাতাম
জানাজানি
জসীম
খুললেন
তেজগাঁও
চপ
বিপুলসংখ্যক
ফয়েজ
নিট
বৈষম্যের
নয়াদিল্ল
##সূত্রে
রোজকার
তুঙ্গে
প্রতীয়মান
আসবার
মুষ
##শতাক
বৈশাখের
পারস
বুঝিনি
##its
যেমনঃ
দশটার
ভ্রমণে
ব্যান্ডের
ওবামার
##মিশ্র
করবেই
ড্রাইভারের
থামলো
##্যাৎ
##ecial
খাঁচা
##ঁর
ভেঙেছে
প্রোডাক্ট
কুদ
মেষ
অনেককেই
মুখরিত
১৮টি
কাকতাল
অর্নীল
লোকটিকে
প্লীজ
ফারজানা
শূণ্য
থেই
বাঁকে
fr
ঐদিন
চিরদিনের
মিডল
তদারকি
##مَا
##eld
সামহোয়ার
bole
pdf
তখ
গুণগত
ইয়ান
তফাত
##alobas
ধারের
নিয়ত
প্রশংসিত
##ভিয়ার
নিরিব
##াশীল
প্লাবিত
ফাইনালের
কাঠামোর
এঞ্জ
সৈয়দপুর
ফুরফ
নিমি
ফাহিম
তুর্ক
##ীবনের
ঘটনাগুলো
লিখলেন
বন্দুকের
নেটওয়ার্কের
##َنْ
রেফারি
সাখা
শেখায়
ষাঁ
Day
দির
##ef
কোনরকমে
মেয়রের
স্বাস্থ্যসেবা
টিপু
##জ়
বিদায়ের
##৭টি
রেজি
ভৌমিক
##র্পণে
সখী
##্ধ্য
##ঁদ
বিষয়েও
প্রজন্মকে
নাট্যকার
মজন
তারকাদের
number
##ঘ্নে
##পরায়ণ
সিনেটর
চিত্তে
ঝুপ
এইভাবেই
book
গ্রেফতারের
##বাংলার
##রিনা
##কোট
##হুল
রাজেশ
ছড়াচ্ছে
এনআরসি
শাজাহান
অসুস্থতা
##িতাম
পেইজ
তোমাদেরকে
তানজ
বারা
##চ্ছেদে
অনেকক্ষন
তক্ষ
পরিচ্ছেদ
থাকেনি
##হীনতার
##সাজ
সুরাহা
শাসিত
আনন্দময়
কোরআনের
সিংহভাগ
ইরাকে
মাহির
##যােগ্য
সুষমা
সর্ব্ব
হিন্দুরা
অবমাননা
ঐসব
খাওয়ানোর
মুক্তিযােদ্ধা
আবাদ
স্ট্রাইক
পারভীন
শুনানিতে
##ada
তোপ
হেয়ার
বর্ষে
দৃষ্টিকোণ
আঙুলে
খেলি
পেরেছিলাম
অলিম্পিকে
ঝোলানো
করম
ভাবিতে
মাখিয়ে
অবলীল
পরিহাস
উঠুক
ইউক্র
সংবাদপত্রে
##ফাজ্জল
##তান
উদ্যানে
এজেন্সি
har
##১৩
আইটেম
রক্তপাত
সন্দেশ
পারমিতা
##44
যুদ্ধবি
##uter
##উলিয়া
আবেদীন
মিঠু
প্রহরী
ভ্যালেন্ট
ধস
##াইম
সামুর
চারেক
ইলিশের
কারওয়ান
শাসনামলে
মহাপুরুষ
##লিতে
##মাসে
শীতকালে
সিঁড়িতে
গ্লাসে
বাহুব
##icial
পলায়ন
##ility
মগজ
জবাবদিহি
জ্ঞাপন
আসক্ত
মহাজন
শুভেন্দু
গেঞ্জি
উর্বর
সমরেশ
রউফ
রোযা
বস্তিতে
কায়সার
কিনি
ভেরি
ma
ফোনটি
নাড়াচাড়া
Love
##ামতি
বিরােধ
সহপাঠী
অ্যাম্বুলেন্স
বলটা
কালীপ
নন্দিতা
পিরামি
cre
টুনি
দাদি
মুরু
হিশ
বার্ধ
রশ্মি
ব্যাটালিয়ন
পিরোজপুর
বাগদ
##ier
##াসমূহ
বাড়লে
কমা
##দর্শক
নৈতিকতা
##দীপ্ত
##ুলেট
খুঁটিনাটি
ভাসা
শিং
তথ্যমন্ত্রী
রাখত
লিখন
স্টিফ
ক্লিপ
গুণের
আচরন
এসিড
রাকেশ
কোয়া
##cept
চাঁদে
৫০টি
গার্লস
Daily
##ধন্য
ট্রাভেল
বহুজাতিক
##work
আল্লা
মিলের
##বলী
##্গা
বর্ণনায়
নাগাল
মূহুর্ত
##bar
##ানাথ
অপারগ
বিধিনিষেধ
পৈত
ঊন
##কিং
ভালবাসায়
ছোড়ে
আদিল
পাবনার
রক্ষিত
##করের
এবারই
উঁচুতে
রায়চৌধুরী
স্টপ
বিড়ালের
শৌচাগার
লিজ
শীষ
ঘুষি
প্রতিভাব
মায়ায়
প্রাসাদের
প্যাস
শিরা
চতুর্দ
সিড়ি
কমনওয়েল
ফতোয়া
সহজলভ্য
মুকু
হাঁটুর
Pe
মোগল
##OU
ব্যাঘাত
চলচ্চিত্রটি
আত্মবিশ্বাসী
da
থিকা
আশ্রমের
সুফিয়া
##গ্রীব
দণ্ডিত
গাঁথা
ফিশ
##াকেন্দ্র
##ito
নামাতে
সহনশীল
কচু
দাড়ায়
সেতুটি
ঝর্ণা
পবন
তারিক
আঁকার
শোনান
জ্বরের
এ্যা
নিজামী
কমিশনারের
আফগানিস্তানে
ফলেই
ভাড়ার
সমার
এলিজাবে
হরণ
##লেক্স
রেললাইন
ব্যতিক্রমী
##ামপুর
ভুক্তভোগী
##ger
অবাস্তব
শতাংশে
নীলাভ
কীটনা
কলাপ
##ister
অভিমানের
জ্যাঠ
##ইয়ার
পর্তুগিজ
খাগড়াছড়ি
watch
##ফিকার
##aki
اللَّ
ভুমিকা
ব্যাচের
ফন্ট
##ুলিয়ার
আসরের
##াপী
রাফি
ফরাসী
পিছলে
##পুণ
দিশ
রাজিব
##কিউ
অন্ততঃ
ডান্স
##ামুক্ত
ক্ষুণ
মন্তব্যে
ডায়মন্ড
রাষ্ট্রায়ত্ত
প্যান্ড
বচ
মুর্ত
ওয়ার্ডপ্রেস
ঠাসা
বাহ্যিক
অবধারিত
##বহির
##্যবস্থাপক
ছাল
এক্সচেঞ্জ
ওরাই
সম্মানে
উচ্চপদ
প্রকারের
খবরদার
##র্ষণের
রিপাের
ফুসফু
প্রভাষক
Has
প্রিয়তমা
ভিটে
twitter
##ত্
চাষিদের
গোয়েন্দারা
প্রজ্ঞাপন
জনবল
2013
##র্পণের
টমাস
ভরি
##ID
বিচারকের
সব্য
সুযোগের
বাজানো
##সূরি
শহরটি
tor
মেটানোর
সমকামী
##্যানের
অরুন
ঈশ্বরকে
পদত্যাগের
কবরস্থানে
মস্কো
মথ
নতুনভাবে
##ীকা
##ভস
##ৃষ্ণের
সেতো
কাটি
##ঠাসা
চেস্টা
সাদিক
আগার
ইটভা
heart
জ্বলজ্বল
পৌঁছানো
পৃষ্ঠার
আউয়াল
অধিষ্ঠিত
উপগ্রহ
জাভেদ
জলাশয়
মাজে
##55
জেনেই
দরখাস্ত
সুন্দরভাবে
পারফেক্ট
##্বয়ে
রসগোল
ঠাম্মি
##ন্দ্ৰ
পাটি
একবারের
বনগাঁ
পেনশন
কিশোরদের
মৃত্তিকা
##fi
##১৬
টিকটিক
গড়িয়া
মহাভার
জিজ্ঞাসাবাদে
আমজন
গোস
জাদুঘরের
##ফোঁটা
##মারা
##৫টি
মুরগী
রিটার্ন
##কক্ষ
মেপে
সম্বলিত
ভাঙলো
ভিলেন
আগস্টে
গ্যারান্ট
দেশজুড়ে
আত্মগোপ
##শিব
শান্তনু
মজুর
সুবিধাজনক
তাৎপর্যপূর্ণ
ফলশ্রুতিতে
পৈতৃক
খেয়া
ভণ্ড
##ED
মোনা
মহায
##FA
##রাশি
লাভজনক
পৃষ্ঠায়
সিলিন্ডার
মন্থ
আস্তিক
সুড়ঙ্গ
##কক্ষে
উপমহাদেশে
##ন্দাজ
কোনরকম
##মিক্যাল
মোটে
বধ্যভূমি
অস্থিতিশীল
##ঘে
পুরুলিয়া
নীলাদ
পায়েস
তরুণেরা
ভস্ম
পারিল
ফুটফুটে
আর্টিস্ট
TH
পেন্ট
বিসিসিআই
ব্যারাক
নড়েচড়ে
সংবাদে
সংস্থাটির
years
##ুও
##শিয়ান
##াতনামা
##কানুন
বাসটি
০১৭১৩৩৭৩
মন্ত্রিপরিষদ
নেইমারের
সৌহার্দ
দেবনাথ
দ্বিতীয়ার
##hop
বান্দা
অধিবাসী
সাভারের
স্কা
fin
রিক্ত
বারাস
##কানি
2020
##সিসির
নায়েক
অনুকূলে
অভিযোগও
ভিত্তিহীন
প্রতিক্রিয়ায়
স্বেচ্ছা
ছিলি
##সমাজের
ঘুমটা
মন্ত্রীদের
সিংহাসন
##দ্দীনের
রেলিং
অহন
Aug
মিলির
রেজিমেন্ট
প্রদক্ষিণ
মুর্শিদাবাদ
সৈকতে
ক্ষি
দীপের
ফলাফলের
উত্তরবঙ্গ
অনবদ্য
বিপিন
রাশিয়ায়
tomar
##ার্থীরা
ব্যাকগ্রাউন্ড
কোচবিহার
রমজানের
সংকোচ
##anguage
##ল্যা
##১৪
থাকবেনা
গোছের
##েস্ট
দিয়েছো
প্রীতম
বুড়ির
অমিয়
ম্যারাড
অডি
দাতা
কয়েকদিনের
Edition
টিউশনি
এক্সিডেন্ট
অনুমোদনের
##وا
গাড়ীর
দৈহিক
##ালকে
##াইরা
স্কে
##কালেও
##স্থির
##ffect
##xt
গ্রীন
মিহ
লগ্নি
বান্দরবান
Oct
##সস
##মেলা
রচনায়
##িসিস
সেব
স্টেজ
প্রেসক
অজ্ঞাতনামা
খদ্দের
দেখভাল
মনঃ
দক্ষিন
হাঙ্গের
উইং
##জগতের
সিস্টেমে
At
##ছবি
দুখ
রামপুর
সুলতানের
##ograph
মণ্ডলের
বার্সার
শেরেবাংলা
বিতাড়িত
আমন
সাহসিক
অধিগ্রহণ
হোস্টেল
##গড়ের
##OM
টিকিটের
আইসিইউ
##াবস্থায়
প্রাণীদের
গ্লা
##াড়িতে
মহী
ভূমিতে
##টিসের
ড্রইং
লালা
must
##ঈল
ঐশ্বর্য
মেদ
বজল
##ুটির
##দৃষ্টিতে
তন্ত্র
কলোন
ডাইরে
কনভেনশন
আম্মার
বাঞ্ছ
ধারাবাহিকভাবে
গোস্বামী
গানগুলো
ওত
##ামির
##thing
সার্বভৌমত্ব
##ঝির
বাফু
সেশন
গণপ্রজাতন্ত্রী
বহির্ভূত
সমষ্টি
কাব্যের
চালাবে
##irl
ধরাধ
##ways
##্বিয়া
##াগন
আইনস্টাইন
##rop
নাসরিন
১লা
বুর্জ
লালমনিরহাট
চলতেই
##শিট
খুলবে
লাস
মোয়াজ্জেম
##িকেই
নেত্রীর
কৌতূহলী
পরিচ্ছদ
বারী
চালকদের
শঙ্কিত
খায়রুল
nai
##২৯
বাড়িতেও
ভুটান
সিঙ্গেল
বারও
শুনলো
সাবমের
পর্বতের
খুনী
জ্যোৎস
দ্বিমত
##মতের
মহাজোট
ইদ্র
কলমের
সূচ
জৈন
##গম
দুয়ারে
খুলেই
বিশেষত্ব
এজেন্স
প্রতিবি
দীর্ঘস্থায়ী
সুস্মিতা
অগোছালো
ধুঁ
গতানুগ
সঙ্গত
জানায়নি
##গুনা
আইনমন্ত্রী
সফলভাবে
রমণী
মিনা
বক্তৃতার
##ন্থি
হুঁশ
মেদিনীপুরের
গালিগালাজ
মেয়েই
ব্যবহারকারীরা
##omen
গ্রীষ্মের
ম্যালের
men
##ীবাহ
যোগান
##প্প্ব
চাষি
জিন্নাহ
##ঁড়
চৌর
অগাস্ট
কোহলির
দুর্যোগের
##নাতে
##বালা
নিউমার
শেখাতে
##বৃন্দের
ছোটাছুটি
সামহোয়্যার
প্রতিশ্র
লক্ষ্মীপুর
মূহুর্তে
অভিধান
##ায়রা
কৃষ্ণের
কর্মচারীর
without
গৌরবের
##ভারতীয়
##ুরার
রাখিতে
##সোল
খাচ্ছেন
নির্বিঘ্নে
serv
##াগারের
সম্পূর্ন
প্রাণপ
##লিপি
যায
মশাল
মালে
ক্ষেত
দর্শনে
শার্ল
রপ্তানির
Sing
সীমানায়
মেরিন
Pol
কাড়
ক্রীত
দেশবাসীর
##দানী
পরিণাম
##ফেস
ইহাদের
বহর
যৌতুক
##ওহর
পড়ন্ত
সর্বশ্রেষ্ঠ
কোনোদিনও
ret
পন্থ
অয়েল
আমাদিগকে
মালতী
##ource
আযম
##সংশ
##নীতির
##াবিশ
বৃদ্ধাশ
শাখ
অবিবাহিত
লইতে
ট্র্য
প্রতিহিং
##ঙ্গেল
ভাঙ্গার
##টাইম
কনসাল
এটুকুই
কাধে
দিদা
##দ্ধে
##ৃত্বের
মুদি
রাজপথ
সহকর্মীদের
##পেজ
থামতে
১৯৪৪
উলটো
শেখের
হাশেম
প্রস্র
সিরাজগঞ্জের
ফায়দা
ভার্সিটিতে
টেলিকম
ভুঁ
বহরম
ঐন্দ্র
কোনভাবে
বরঞ্চ
too
দাপটে
##ইনের
##হিস
বহুগ
হইলাম
সংকুচিত
নির্ধারণের
উদ্বাস্তু
পুরস্কৃত
সুযোগটা
ডিস্ক
কালারের
রাউন্ডে
ইবরাহ
##বহির্ভূত
সুতা
##ka
অন্তরঙ্গ
মিয়ানমারে
ফ্যাক্টর
সতেজ
আবৃত
##িজী
পড়িতে
গতবার
গ্রহণে
সারাদেশে
ডিলার
##33
কোনটাই
ক্রিয়ে
কামালের
আপেক্ষ
কূল
##70
##িক্সেল
জ্বী
ফিকে
##পানে
প্রতিকৃতি
ইভি
১৭টি
এক্কেবারে
৯টি
##চেত
মেট্রোর
main
ডুম
দেড়ে
##িয়াতে
##hes
গুনাহ
##dh
theke
##riv
উত্ত্যক্ত
কর্কশ
##টারির
খাটিয়ে
##ষ্টির
##সীমার
চলতো
##র্ষি
Des
রণা
আকাশকে
বালকের
পুরাে
##ati
টেন্ডার
লিখেছিলাম
সাতে
সেনাবাহিনীকে
পরিদর্শনে
because
Ag
এডিট
সাইকেলের
ব্যক্তিত্বের
##ৈব
চেয়ারের
জিডিপি
ঘামে
উপস্থিতির
রুস্ত
জ্যাকসন
give
সাজিদ
হস্তে
সাহসের
মানিব্যাগ
গতানুগতিক
Up
পরিপাটি
ততটাই
চাদরে
ক্ষণিকের
স্বাগতম
ভোজন
ইংরেজদের
মেলবো
আয়ারল্যান্ড
নিদারুণ
##খিন
পুনর্ম
##chi
অন্তঃসত্ত্বা
নিবারণ
বাদুড়
That
Press
অবসরের
স্পীড
##য়েম
বাঁদর
মোটরসাইকেলে
মেট্রোপলিটন
বিরতির
পক্ষই
ছোপ
৭টা
পড়ানোর
ব্রেন
প্লাজ
ব্রেক্স
class
##ঘের
দিয়ো
উপুড়
আত্মসাৎ
কসাই
##ৰ্ব
বলছিলো
দুর্ভাগ্যজনক
Bar
ইন্না
##চক্রে
চিনির
হেডকোয়ার
mil
তারচেয়ে
মাইকে
অপরাধীর
সাদামাটা
মতামতের
##ula
system
পচে
##ত্তিকর
##চ্চে
দেশবাসী
দুর্জ
মলয়
##পল্ল
##সিটি
মসলা
হ্যারির
কয়েন
সুরকার
২৫টি
বীরত্ব
কিনার
বুঝেই
আগ্রাসন
চিবিয়ে
##ফিকেশন
মুখোপাধ্যায়ের
শত্রুতা
পিকচার
রিকোয়েস্ট
ব্রাহ্মণবাড়িয়ার
দুনিয়াতে
##দ্দা
ক্রাশ
সোয়ে
সৈনিকদের
ইছ
নেমেছেন
ভৌতিক
বিশ্বাসঘাতক
জপ
হিপ
আর্থার
প্লেটে
cons
পুষিয়ে
ফ্লোর
হকি
প্রতিরােধ
চিরস্থায়ী
##ড়ক
কৃষ্ণচূ
অলিম্পিয়া
গ্রী
দমকল
একমনে
বসছে
খোদার
প্রজাপ
বেপার
লাগেজ
পুরুষেরা
আপ্রাণ
##ত্তরে
রাজবাড়ী
চিত্রা
match
team
##ঘি
##দ্ধতি
নিমিত্ত
কোষা
সম্পর্কেও
আওয়ামীলীগের
##ধরণের
কার্যকারিতা
Co
হেরেছে
চকো
পূরণে
যাত
সুইট
ফ্ল্যাশ
বহুতল
মিশনে
হারিয়েছি
হবিগঞ্জ
প্রান্তরে
ঝোড়ো
##ালাই
##িউশন
Answer
এস্ট
রামের
মনীষ
অলীক
চূর্ণ
##হহ
পরিমল
মৌমিতা
জটলা
আইপিএলে
দেওয়াই
2006
রিয়েলি
কেনাকা
কিনারা
ঋতুর
ধ্বংসস্ত
অভিমুখে
অ্যানিম
ফুটবলারদের
সরকারও
ডিভি
কাটেনি
শিবানী
দেখছ
##ony
আরেফিন
ঝাপিয়ে
নিশাত
##ভাসে
মধুসূদন
##কণ্ঠে
তারাতারি
নিরূপ
সোহরাব
সতেরো
পণ্ড
প্রদর্শনীতে
নাশকতার
অর্পিত
##let
বেড়ানোর
আইনজীবীদের
রগ
কারচ
কমিউনিটির
দুশ্চিন্তায়
সার্জারি
প্রতিষেধ
দ্বিপক্ষীয়
##িয়ন্স
মুখেও
ডিরেক্ট
থা
উল্লাসে
বাথ
করতেছে
বাজারজাত
ভুগছেন
##AD
##টেস্ট
জনপ্র
নিমেষ
নির্ভুল
রপ্তান
হতাশায়
সফটওয়্যারটি
ফিলিস্তিন
ওতে
##১৮
##atic
ছাত্রদল
বক্সের
contin
##পঞ্জ
ফুরফুরে
খসর
ন্যাক
ময়দান
দিবাকর
খাওয়াদাওয়া
Rec
কইতে
মমিন
ছাত্রীরা
ভিআইপি
কংগ্রেসে
পলকে
শৈশবে
pa
##পদের
জানাব
##দিনা
চাঁদাবাজি
একাধারে
পুজোয়
হজ্জ
আলোটা
##কম্প
##alth
কাউন্টি
সুগন্ধি
বললেনঃ
অভিনয়শিল্পী
##পর্যায়ের
Android
ছিপ
ব্যথিত
##ুত্তর
অতিষ্ঠ
জুলফিকার
##ওভার
##দিয়ার
স্বচ্ছতা
bus
উঠোন
হাতাহ
টস
এটিও
Amar
ফজলুর
কৃষ্ণাঙ্গ
বাকর
কোয়েল
শতাংশই
অবহেলায়
অ্যাথলেট
ঋত্ব
খুনসুটি
সন্ত্রাসবাদ
ওহ্
অ্যাপার্টমেন্ট
বিশ্বব্যাংকের
ইন্তে
##ারির
শ্রোতা
ক্ব
##ourn
##তমত
##যুগে
তামা
ভন
প্রবৃত্তি
মিথ্যাচার
##ালু
সাঁই
ইস্টার্ন
##িরার
সভানেত্রী
রিকশার
নিদ্রা
ডিপ্লোমা
ওঠান
লঙ্কা
ম্যাডামের
তফাৎ
সেকথা
লুণ্ঠ
মানববন্ধনে
রহিত
##arth
Americ
##২৮
লাগান
কিনেছে
ভক্তরা
জঙ্গিবাদের
ইস্তফা
##বৃদ্ধি
লোকেশন
লেখাপড়ার
রাবার
বিপাশা
বাড়ল
উইন
গবেষকরা
প্রতিষ্ঠায়
প্রাইমারি
##গনে
বিষয়কে
ফোল্ডার
ইনজেকশন
সেপ্টেম্বরের
মেডেল
Af
##রিচ
হত্যায়
মাঝেমাঝে
যাঁকে
খাঁচায়
জাতিসংঘে
অনাদ
সিটিতে
##মাশ
বরাদ
মরিয়ম
ছটা
আদ্য
সহজাত
চারদিন
উপরই
ড্রাম
Indian
কিবর
একটিমাত্র
কবুত
অংশগ্রহণে
Mah
পরলে
##ক্ষাধিক
সাদৃশ্য
real
সাদ্দাম
৫ম
যাকাত
##ocial
পারুল
##াপূর্ণ
প্রতিচ্ছবি
১৯২০
##িকেও
রাসূলুল্লাহ্
রসের
##ْن
##ড়িং
মাসখানেক
আগ্রাসী
পরিল
##ama
ইব্রাহীম
পোপ
কাঁপিয়ে
ঝিনাইদহ
Cent
এভ
মাথাপিছু
উচ্চপদস্থ
শয়ন
সুবীর
উঠেন
পত্রপত্র
দুটোকে
যোগ্যতার
##ভ্রষ্ট
কুষ্টিয়ার
জলাবদ্ধতা
হন্ত
দেল
আসলেও
রুই
বলিয়াই
ল্যাবে
##rol
কিংস
##তুতো
ব্রিটিশদের
প্রথমদিকে
অংশই
ক্যাড
##বাড়ীর
সমন্বয়ক
আবেশ
মান্ন
সিক্রেট
মোকদ্দ
রাঙিয়ে
##কৌশল
১৫ই
দেইখা
মহামান্য
বহুমুখী
অর্ধেকের
থুব
##ঝাঁ
পাহাড়ী
being
রিসোর্ট
ঘেন্না
কক্সবাজারে
প্রেসক্লাবে
ট্রেনটি
ask
open
পঞ্চগড়
চমকপ্রদ
যুদ্ধাপরাধের
text
কথাটাই
জোয়ারের
প্লাবন
ভালা
যাদেরকে
বাক্যে
##াইশ
আইকন
গণক
ধর্ষিত
##ওয়্যারের
দাঁড়াতেই
গর্তের
##OO
উৎসাহে
##িক্সের
##োড়া
২৫শে
দেখতো
চক্কর
পার্ল
পাঠ্যব
##uring
বিনো
সাক্ষাতের
দমকা
সাম্রাজ্যবাদ
ক্রমান্বয়ে
##িনু
##োহী
বন্দুকযুদ্ধে
তৃপ্তির
এমএ
35
Apr
থতমত
এমতাব
রাজপুত
প্রতিল
শিল্পা
মিয়াকে
ছান
হাজারে
শুনবো
আড়া
##ঁতে
##িফিক
##উদ্দিনের
ভুগতে
বাগেরহাট
পরিহিত
##co
স্থূল
ছড়ানোর
অট্টহাস
ঘটি
##গদ
এনআই
##াগী
অব্যবহ
পঙ্কজ
##তাত্ত্বিক
65
##জাতি
চতুর্
মিঠুন
সমকাম
ক্যাথলিক
own
ধরায়
অসহি
মােশ
অবিকল
গোবর
মানবের
ঘৃণার
কপির
##্যায়ন
##ালিক
দৃশ্যটা
কয়জন
##ُونَ
##ত্তন
##্গিস
অমুসলিম
Sou
শুভাশ
##hob
সেকেন্ডে
ডাম
এয়ারলাইন
হালনাগাদ
মডার
ফেলেছিলাম
ঝরছে
যত্র
ধর্মান্ধ
##লেজ
দেখতেন
সুজিত
গ্যারে
ঠাম্মা
##াসকে
সেইরকম
del
ঘাসে
##por
##ড়াচ্ছে
ক্লিনিকে
দোষের
সাপ্লাই
##রেটর
সবুর
কাজকে
দেবের
পুর্ব
হাঃ
জেতে
আসবেই
الم
তহবিলের
Feb
শশুর
দেবতাদের
চ্যাম্পিয়ন্স
শহীদুল্লাহ
সংলাপের
সব্যসা
প্রতিষ্ঠানগুলোর
ফেলবো
লোভী
কনিষ্ঠ
ইমরুল
##ween
##াগড়ি
সাখাওয়াত
##hy
##IT
##াবতীর
কালু
ড্রিংক
অস্বস্তিতে
##ফরম
##نا
জুবায়ের
তেন
তরম
দিচ্ছ
খেলছেন
দারোগা
ধপ
##মতেই
##ষ্কৃত
খটকা
##্রামে
নয়নের
প্রতারিত
প্রন
বরিশালে
ছাত
একন
ডানার
লোকই
গাও
##ালাে
বন্দনা
##োর্ড
##ন্ঠ
মেঝের
চায়ে
মোস্তাক
বিশ্বভার
বিতান
জেরুজা
লোন
মধ্যপ্রাচ্য
##শ্রেণীর
মেমোরি
যাচ্ছো
ইয়াকুব
ba
পেড়ে
বাংলাদেশেও
ইরশাদ
Har
লজ
##্কু
মরবে
মিসরের
ফ্লাইটে
via
##যন্ত্রে
Ne
সুকান্ত
##❤️
##াসনের
ক্লার্ক
কাহারও
খতি
অদূর
সিঙ্গাপুরে
স্প্র
page
সিউ
বুঝায়
ভিসার
অনভ
ঘোষণ
সংবাদদাতা
যৌবনে
বিধ্ব
কোকিল
কাউন্টারে
##ক্ষায়
নির্ঘাত
##owl
প্রচেষ্টার
hoye
গাছগুলো
মূলক
চুম্ব
উজ্জীবিত
বসায়
সিডনি
রঘ
##েয়ার
ঘেউ
##াবাবুর
দাঁড়ালে
স্ক্রিপ্ট
বলরাম
সময়টায়
রানীর
এককালে
কুঁড়ে
উলঙ্গ
##ালিতে
বরাদ্দের
##ঘুটে
খেদ
বানু
পলিটিক
কিছুকাল
##ished
বিধিম
জোনাকি
ডাউ
##ple
নিপীড়নের
অস্ত্রোপচারের
এজাহার
ছোকরা
সাধের
খোঁজাখুঁ
কোলকাতা
নাড়ি
ব্রজ
মান্য
রেলওয়ের
কতা
##ored
আপত্তিকর
পড়বো
অসহযোগ
দেখেছিস
##eche
বরগুনা
অ্যাটলেট
ট্রাইব্যুনা
পিন্টু
মাগুরা
বোলো
প্যাড
প্রতিভাবান
est
মহল্লার
ধানমন্ডির
জিজ
নিরসনে
রামচন্দ্র
##কামনা
রাস্তাটি
ঘটনাই
##টিসি
প্রতিযোগী
তামিমের
উপত্যকায়
কড়াই
ফেরেনি
বেরোচ্ছে
আবেদনে
নরসিংদী
##লেন্দু
হইবো
পুলিশও
ঝামেলার
লায়লা
অভিনেতার
নন্দিনীর
##ভিন্ন
সমর্পণ
আনভি
উপজাতি
আয়াতের
##মট
##হাব
##less
উঠবেন
মিহি
মোমেন
নিমজ্জিত
##৪টি
নেটে
##িস্তানের
সিজার
অহর
টোয়েন্টিতে
স্টিল
মাশরাফির
##ডিপির
আমদের
তাকানো
##াপেক্ষা
অনন্যার
মাধবীল
মঙ্গলের
ve
যোগে
বিয়োগ
##িসিকে
##ুষা
সময়কে
স্কেল
ঢিলে
##নিয়ার
লিংকে
অন্দরে
চাইব
প্রেজেন্ট
সলিম
বহুদূর
১০২
নিয়ন
ত্রিম
char
##কেশন
##িবাঁ
নোটিস
লঙ্ঘনের
ধর্মঘটের
power
পাশ্চাত
লক্ষাধিক
##বিদ্যার
১২৮
তাত্ত্বিক
দেখত
পোলাও
চটি
##erc
কনুই
কর্ন
ঘুমাই
বাঁহাতি
যমজ
মোহনবাগান
লিবি
##িলো
জানলেন
পথচারী
কাকের
##ersion
ডালিম
নির্বাসিত
চেনার
অসিত
##জীবনী
সম্প্রীতি
##িয়েন্ট
##িপিতে
১০৯
অন্নপূর্ণ
৭ই
##উইন
ক্ষুধ
সেঞ্চুরির
গোড়ার
দলবল
রক্ষণাবেক্ষণ
চাত
##ন্টিং
হাজি
নিষ্প্র
কাকুর
উপকমিশনার
##مُ
ক্রো
অ্যাপটি
শিরোনামের
পারফর্ম
##াজান
তিস্তার
ঈসা
প্রাদুর
কমেনি
বৃক্ষের
প্রযোজন
চড়াই
##ano
ঝিঁ
রোমাঞ্চকর
ফখর
আঁচড়
ext
ইন্দোনেশিয়ার
ধইরা
চিলে
সাইদ
##মুখর
##মান্ড
proble
##মুল
Ass
মিউনি
##ত্ম
মিশেল
ট্রাইব্যুনালে
Sub
দেবু
##য়েস
দূরেই
##টকি
সার্বক্ষণিক
আপেক্ষিক
##aut
উপমা
বাহ্
ওয়ার্কার্স
লিখলে
গোলাপী
প্রতিস্থাপিত
সর্ম
উঠতি
সারাহ্
ওষ্ঠ
বাঙলা
জীবনটাকে
দৈর্ঘ
বারই
গাছটা
কাকতালীয়
রুন
বার্ড
ব্লগাররা
জিল্লুর
দেখাবো
স্প্রে
ঘোরাফ
গুহায়
সিসিটিভি
সমবেদনা
##echn
বেলে
##্লান্ত
##োটায়
যাইব
ডেকেছে
বিতরণের
##াগুলির
দিয়াছে
আয়ন
##্লিং
আপ্লুত
নেমেই
কৱে
##শ্চিত
কাটান
গাড়ীতে
কল্যাণের
স্বাধ
মৌসুমি
যোগসূত্র
সুইস
প্রাইজ
আইনটি
##াক্ষিক
দাড়ালো
পাঠাবে
লরি
কিনেছেন
নকশার
##পানের
বিহারে
দর্শকেরা
টরন্ট
##olution
ঘোড়ায়
মনোনি
ভুট্টোর
kill
##ন্ডি
ফেলবেন
চট্টোপাধ্যায়ের
প্রবন্ধে
জগদীশ
পরকী
টোটো
মুণ্ড
দ্বিজ
show
ইয়ো
##ব্যান্ড
##ডাউন
দেখতেও
মোহাম্মদপুর
বোলাতে
করপোরেট
কোনদিনই
##োঘ
##েমি
চোখেমুখে
রিস্ক
উপত্যকা
গ্যারান্টি
গম্ব
দাবার
##টাইল
##ভেজা
বাধাগ্রস্ত
দুধে
##ক্তা
পোকার
সাদিয়া
মেনন
পদমর্য
বাড়িয়েছে
ভূগোল
উর্ম
##্দো
##eneral
Now
##্য়
রাষ্ট্রপক্ষের
ছাড়বো
সুরভি
পার্লামেন্টের
কোনোটাই
খেলাপি
রেজিমেন্টের
ইশা
রেওয়াজ
করিড
মন্দার
কাব্যগ্রন্থ
কয়েকম
যাদবপুর
জালিয়াতির
এরিক
##ider
রুদ্রর
Ha
গড়াগড়ি
ফিরছেন
শপ
নিহিত
##lection
নির্গত
অগাধ
প্রতিপক্ষকে
বিশ্বব্যাংক
একগাদা
সৃষ্টিকর্তার
ফ্র্যা
##োগত
##স্হ
ধরতেই
ছুয়ে
মনাে
অঙ্কিতা
ভ্যাব
তাকান
গিরিশ
আল্প
বিজয়া
উদাহরন
জ্যান্ত
ব্র্যাড
সর্বভারতীয়
জুড়ি
সপ্তাহেই
মহাভারত
##ails
কেলেঙ্
কাটিয়া
##লোর
রিনা
##গব
নবায়ন
নিরপরাধ
স্টেজে
বায়তুল
কোমরের
বিজ্ঞাপনে
##tain
গোপালগঞ্জ
অবহেলার
এমতাবস্থায়
সমান্তর
প্রতিদ্বন্দ্বিতায়
##ِينَ
বিশ্বাসঘাতকতা
জহুরুল
##টোয়ার
প্রতিবেশীদের
শ্লোক
##দৈর্ঘ্য
দুর্নীতিবাজ
চর্বি
রংয়ের
রাজীবের
##থিতে
ধর্ম্ম
প্রজাতন্ত্র
জ্যোতিষ
##ুসের
উড়ান
প্রথাগত
টুস
##সঙ্গী
##মুক্তি
পরলাম
হেলেন
##বার্গের
ঈর্ষা
ঠাস
বয়কট
হলিউডের
শ্বেতাঙ্গ
আব্দুস
##বিক্ষত
জহ
কমেডি
বেদনায়
sent
বনা
##দ্বা
ফিরব
##িহ
##gin
মারেন
গুঞ্জা
শতবর্ষ
##চালকের
ব্যাটসম্যানের
##য়েকের
রূপার
##ession
অবলীলায়
যাহাতে
উপশ
ফিরতেই
##ট্টু
অধিকারে
ফেনীর
bad
মহাপ্র
জারির
সীমান্তবর্তী
মন্ত্রিসভায়
অধরা
মনোনিবেশ
বন্ধুটি
সদস্যসচিব
কষ্টটা
প্রতিযোগিত
ভুগছে
ট্রাস্টের
##যন্ত্রের
night
##িস্থান
গোরা
রিমির
ট্যাঙ্ক
দুজনকেই
ছাড়ি
##সূর
যতীন
##ন্যান্স
মুসলিমরা
##hik
টাকাপয়সা
সবল
##্সি
চাহনি
বীণা
নিম্নমানের
লগইন
কনটেন্ট
কার্ত
MB
##ফাত
##ret
নববর্ষের
ঝোঁক
যন্ত্রাংশ
পল্লব
##খেল
জেস
নাটোরের
ছেড়েছে
##ধনু
হুগলি
##ন্তুর
বসির
ভাঁজে
অস্ফুট
সুপরিচিত
কাঁপে
ইকবালের
মঞ্জু
অব্যক্ত
ঘোরাফেরা
শুধরে
ঠিকাছে
পাঁচিল
ভোটারের
প্যান্টের
##ovie
আইসা
দোকানি
69
পরম্প
পালটে
ইমামের
প্লাটফর্ম
চড়িয়ে
সময়কাল
অবসাদ
১০৭
তুললো
ইয়ং
একটিতে
মারলে
দাবিদার
কানেক্ট
চাঁদাবাজ
ছাড়েন
লেখালেখির
দেখিলাম
##িয়ার্স
দ্বারাই
মরসুমে
প্রত্যক্ষদর্শীরা
sorry
তসল
রাজনীতিবিদদের
##্তো
বৈশা
##ডিএ
মোসাদ্দ
অধ্যায়ে
দাঁড়িয়েছেন
PD
##ালিকা
অবচেতন
ছাড়ল
স্বাস্থ্যমন্ত্রী
খেলেছি
ইনস্টাগ্র
নিপুণ
প্রেয়
##পর্বে
দেশই
বাজায়
অগোচ
ক্ষতবিক্ষত
##বিদ্যুৎ
ইমান
খোদাই
জটিলতার
কৌশলের
টেন্ডুলকার
##মতি
##্রেক
গ্র্যাজ
শিরিন
রোশন
অন্ধ্র
কেনাবে
##পিড
mus
মোহিনী
ভালবাসেন
নোমান
ঠিকভাবে
আনোয়ারা
লোডশেডিং
শ্বশুরবাড়ির
যাইবার
অহনার
ঘেমে
আনলেন
হাফিজুর
মরুভূমি
অহরহ
জাহির
ইউনাইটে
এন্ট্রি
##ভান্স
আঁচলে
সরকারিভাবে
সিদ্দিকুর
ইমিগ্রেশন
ঋজু
রেহানা
অকারণ
polit
##চেষ্টা
উৎকর্ষ
সমর্থকরা
হিসাবের
চাইত
ভর্তুকি
অকেজো
History
ধকল
বায়ার্ন
খালার
##ুজো
يَ
অ্যাক্স
##গেছে
বিহ্বল
লাইল
লাদা
ডিপার্টমেন্টের
জিসান
এগোয়
অনিচ্ছা
অনিয়মিত
তুলনামূলকভাবে
স্টেপ
অভিভাবকেরা
স্টোরি
নোনা
পিং
##্নির
কুন্ত
কেন্দ্রবিন্দু
রাইস
আসক্তি
জুনা
ভিন্নতা
টাকাই
ফুপ
দেখছো
কর্মশালায়
উদ্ঘাট
রসূল
intern
##urity
##চরের
##রেডি
প্রবৃদ্ধির
উরুগ
Mo
চাঙ্গা
সর্বদলীয়
ডাক্তারকে
শিক্ষাপ্রতিষ্ঠানে
র্যাল
কথাগুলি
হাঁপ
##োগ্রাফি
##15
বলেনঃ
সোয়
ব্যবহারিক
গ্রহে
অলংকার
Can
জবানবন্দ
জাসদের
পজিশন
জাগরণ
খোসা
বাদেই
১৬৪
ইনভ
১৭০
অপরিবর্তিত
উয়ে
কনের
বিক্ষোভে
অনীক
মণী
অদ্র
##াবন্ধ
পাঠিয়েছিলেন
সেলসিয়াস
ঘোরের
পরোক্ষভাবে
##ND
বুনে
চালাই
শব্দগুলো
হাবিল
চারবার
##itor
এগিয়েছে
চন্দ্রিকা
মনিটর
Direct
পোড়ানো
ব্যবসায়ে
মাইক্রোবাস
আজ্ঞা
aj
কেপ
রূপসী
সুইমিং
অনুকরণ
মিশরীয়
শীর্ণ
বর্ষসেরা
ফোকাস
##৬টি
##ায়োটিক
ur
##টেবিল
দুঃসহ
আর্মেন
##ণ্ট
সঞ্চিত
কহে
##স্তিকর
av
##মানান
ছয়টার
নিঃস্বার্থ
শরতের
##ক্সের
বিচক্ষণ
পাশবিক
##জ্জার
চকচক
got
জোজো
দীর্ঘকাল
নির্মমভাবে
আরোহণ
বিন্যাস
tai
তরুণীকে
বালিশের
মহাল
সাইক্ল
জাগো
সন্দী
নীলফামারী
উদ্ভাস
পটভূমি
দুষ্কৃতীরা
সমান্তরাল
##ামশাই
##াত্তর
গেমসে
ঋদ্ধি
dr
mak
উখ
কোণায়
ফটকের
মেহমান
রাইটস
Fl
দর্শনীয়
##ছেলে
কুয়ে
ড্যাম
অনুশো
##্বিধায়
##14
আগেভাগে
ভবিষ্যতেও
##osition
অতনু
মাহবুবুল
ববি
নেপালে
##lock
##ুচি
বেটার
মহিলাটি
স্পষ্টভাবে
নামি
ঘনত্ব
হস্ট
পারছো
পাল্লায়
##্যাপার
##াড়ী
এতদিনের
খানম
আচরণবিধি
Che
##ভীতি
##ায়নি
##টাকেই
##ুলু
উঠিতে
ছেলেবেলা
ফাঁড়ির
রোহন
খোলেন
ফরমান
##ন্দার
##িত্যিক
##abb
মুম্বইয়ের
ছাউনি
Ap
list
ধামা
##করন
কাবু
আলির
বুয়েটের
ইডেন
নামলো
মাদকাসক্ত
##রিং
includ
ভার্সিটির
প্রাসাদে
##িদী
বিষয়টিও
রঘুনাথ
হওয়াই
##৩টি
##ষ্টে
##্বাচিত
দুর্দশা
মহাবিশ্ব
differ
##শর্ত
##গজ
মাশুল
ছাঁটাই
##ICK
নির্মান
নীড়
Stud
শায়লা
গড়ায়
চোয়াল
ক্ষমার
শোচনীয়
তোড়জোড়
Khan
##ত্ন
##িনেট
গবেষকদের
কিছুক্ষনের
কালচে
ইতিহাসবিদ
KH
করাকে
আমূল
দ্রুততম
কানেকশন
টুয়েন্ট
##োৎসব
পালিয়েছে
##reak
লালু
মূর্ত
##ঁপে
নাশতা
নান্দনিক
ইনকিল
গ্লানি
অসহিষ্ণু
সালো
##ঋণ
বাস্তু
তপস্যা
এড়ানো
সাংবাদিকেরা
হত্যাকারী
টুন
জুস
গুঁড়ি
অংকের
বেমানান
সাইয়
##ষ্টিত
ভিতরটা
পুতিন
পুনর্গঠন
প্রসেস
চাইতেন
##শিখা
##টকায়
সামনাস
এগু
##িস্টের
কার্যনির্ব
লোহা
ডিজাইনের
তাঁত
অভিস
অধ্যায়ের
ফয়স
অগোচরে
Who
কাণ্ডে
ফিরছিলেন
আনলে
দামও
স্নেহার
রাজকুমারী
##বেশী
প্রতিবেশীর
পিয়াল
##ুটিং
সচিবালয়ে
কমিশনকে
কমনওয়েলথ
পান্তা
##স্তম্ভ
##বলের
##িকিউ
এরও
##বসতি
শ্রদ্ধাঞ্জলি
প্রসেন
কেয়
খাওয়ায়
রংপুরে
কারোরই
ye
লাতিন
একইসাথে
মিরপুরের
রিপোর্টার
##াটুকু
অভিযাত্র
একাত্তর
লিনাক্স
পরিলক্ষিত
দিয়ার
পুলিস
হোমে
ফজরের
কতকগুলি
আতংক
সামনাসামনি
cor
তুফান
লেখাগুলো
##ichu
তোয়ালে
জনস্বাস্থ্য
শিক্ষাগত
##পিয়ার
দেহটা
চোটের
বিহারী
অফুরন্ত
##র্নিয়া
কিলোমিটারের
ক্যারে
##বিহারী
এঁটে
##ason
বদরুল
##্লোল
cent
##১টি
ট্রাম
বাইকের
kora
সাকা
হাসিব
File
Not
থ্যাঙ্ক
##সিও
রেজিস্টার
ঘৃনা
লহ
দিদ
রিক্সায়
ওয়াহিদ
এএসআই
##মাউ
pay
তিয়
##هَا
আপোষ
স্বৈর
ক্ষোভে
মিতালী
ছড়াছড়ি
##কল্পে
বচন
##ায়ু
##পাড়ে
##22
vis
যবে
##াকো
বঙ্গীয়
ফরজ
সোপর্দ
খুঁত
স্যর
কাদির
ম্যানেজারের
স্তুতি
##ফুলের
নস্ট
বিনু
থাইল্যান্ডের
##ror
বোলিংয়ে
প্রতারক
ওহে
লীনা
##ামোর
হারাবে
কেসটা
থু
পূর্তি
##গড়া
##ৈর্য
##পুঞ্জ
শুটিংয়ের
সওদ
jodi
ভ্যানে
##বোধের
ভাললা
##ীবাবু
পুরপ্রধান
দূর্ঘ
কড়ি
গাদ
ব্যাটে
অক্লান্ত
##য়েনের
অনাস
পৌঁছালে
শুষে
সুটকে
মাষ্টার
সুযোগও
সংঘের
কন্যাকে
হিজাব
শরিফুল
অসত্য
স্বপ্নটা
##HAK
Lord
মালয়েশিয়ায়
অপমানের
এক্সট্রা
##ানুযায়ী
কাস্টম
ব্যাচেলর
His
সমাবর্ত
উৎপাত
সুধীর
পশ্চাৎ
পুনর্বি
প্লাগ
অশান্তির
স্টিফেন
খেলবেন
বিস্তারের
##ences
##িষ্ঠ
মাসিমা
অলরেডি
find
##িমূলক
দৃষ্টান্তমূলক
সংঘাতের
পেন্সিল
শিক্ষাবর্ষ
নথিপত্র
ভুলটা
অনির্বান
jay
পরগনা
নেহরু
অড
##ুলির
সমাজকল্যাণ
ঝুঁকিতে
##সমূহে
নিরিবিলি
দীক্ষা
সৌভাগ
দায়ভার
গুরুদেব
চাষিরা
##দিবস
মুখখানা
##ভেঞ্চার
অংশগ্রহন
fun
বলেছো
পরিচার
পূর্ত
নাসা
দেবাশিস
পদস্থ
##ত্রা
সাজানোর
করিয়েছেন
##ৃষ্টির
জিনিয়া
গন্ডগোল
লিল
##য়েডের
##any
বসবেন
between
দেখাইয়া
নিমাই
বুঝেছে
ক্রিকেটারের
bhai
##চুরের
পত্নী
হুসাইন
ভূখণ্ড
পাবল
ধুক
সিস্টার
আয়ত্ত
korte
##পুত্রের
##88
ka
##ড্রো
##ীগঞ্জের
##াবুদ্দিন
বাধ্যবাধকতা
##১২
আদুরে
টেপ
বৌয়ের
another
ভিপি
ল্য
##SS
স্মৃতিসৌ
ইটস
প্যারিসের
ক্রোয়ে
নির্দ্বিধায়
বার্থডে
কৈফ
##কাহিনী
মেডিকেলে
শ্যাম্প
ব্যবস্থ
স্থানীয়দের
মুচড়ে
##যাে
চলন
বুদ্ধদেব
##ৃঢ়
স্মিত
##ডেনে
জিতবে
চাইল্ড
প্রাণপণে
নেহ
ওইদিন
১৭৮
##ants
Your
##তক
ব্যাখ্য
##সূচি
লেনিন
ভোটাররা
##াজ্য
পাইলে
পক্ষান্তরে
que
বুদ
জাব
##মিটি
থিয়েটারের
দুগ্ধ
##িয়েন
কামিজ
টিউনের
কোনদিনও
সন্ধি
শয্যার
অবাধে
সিঙ্গাপুরের
Ek
far
মর্গ
পথটা
অমোঘ
##ফায়ার
ক্রসিং
শাশ্বত
sl
উজির
##াবারুদ
mind
যোগদানের
ওঠায়
মহাকাশে
সফটওয়ার
উপদ্রব
Us
আশিস
কুইন
আবর্জন
আশপাশ
##ুয়েজ
মিডিয়াম
##ীন্দ্র
পরাস্ত
##য়ার্ত
লেন্স
কারণও
রেকর্ডিং
কোয়ালিটি
রূপসা
ঘরানার
##ces
##শাের
##াদম
পরিত্র
মন্দা
live
নাসার
অবস্থানঃ
কীর্তন
দুশ
##ড্ডু
সৃষ্টিশীল
থিয়েটারে
##মাম
রাজপ্রাস
ফিল্ডিং
অনুসন্ধানের
যাম
বার্গ
সংলাপে
Name
##সাপে
ছাতার
দুদিনের
##্জে
অলক্ষ
ব্যয়বহুল
নয়না
আত্মজীবনী
আজকেও
সাম্রাজ্যবাদী
ক্যালিফোর্নি
ইওর
উঠতো
রাজনৈতিকভাবে
বায়ুম
progr
ছাত্রছাত্রীরা
কিবরিয়া
কিনবে
দিয়েছিলে
সংস্করণে
এককথায়
হোলি
কপো
প্রিস
বসতেই
##ৃপ্তি
##৯টি
আপ্যায়ন
মাহমুদের
##ক্ষেত
ফ্রাই
গোপী
সন্ন্যাস
##সজ্জা
টাইটেল
মোটরবাইক
রাদ
জরিয়ে
টানাপোড়
সময়টাতে
বুথে
বিজ্ঞানে
বুদ্ধিমত্তা
##হরে
জমতে
পাকিস্তানিরা
##োপযোগী
হককে
##িজেন্স
বোঝাবু
2017
##ren
কার্লো
কাবাব
অভাবনীয়
নাম্বারটা
দিনকে
##সমেন্ট
পৌঁছান
গাছটার
বহনকারী
##াইটিস
দুরব
মুখার্জী
উপসং
মার্কস
পাল্টাপ
স্বাতী
home
ডালের
##ota
টানিয়া
পরামর্শক
গাইছে
পটা
##টিয়ার
শ্রমিকরা
চুষ
জবা
উইকিপিডিয়া
সামুতে
##ড্ডা
আক্রান্তদের
অগ্রগতির
মেগাপ
ঝটপট
পাথুরে
##মন্দির
উঃ
ভাবছিস
উত্তরপ্রদেশের
مِن
রনির
##াং
কর্পোরেশনের
জিএসটি
সময়কালে
খুচরো
অনাকাঙ্ক্ষিত
Cr
child
তিতলির
index
অভ্যুত্থানের
চুয়াডাঙ্গা
লঘু
শিখার
order
কেবিনের
নেত্রকোনা
মুম্বাইয়ের
কন্ঠস্বর
সুচিত্রা
তট
হেডফোন
শ্রদ্ধেয়
বোকামি
বরে
bab
মায
ভালোবাসতো
উত্তরাধিকারী
##জন্ম
##প্রবাসী
গুজে
বেগুনি
বত
বাসন্তী
ব্রহ্মপুত্র
##প্রণোদিত
কার্যকলা
##ossain
##ভাড়া
নিবাস
##ention
ঝোপের
রাসেলের
জুঁই
সমাগম
বহুনির
বোনেরা
পৌরসভায়
গিরি
প্রতিষেধক
##কোহ
দ্রষ্ট
##পুষ্ট
ঝিক
কার্ব
মেশিনের
পদার
##দাম
১৯৪৩
মুন্সী
দেখাব
বিকৃতি
দমনের
গালাগাল
##ফুস
অসুখের
ধাতু
মরুভূমির
34
হেরি
##gan
মাহে
কাঁথা
অবিরত
শেষমেষ
মেরামতের
বিধানসভার
প্রকৃতিকে
support
##শাকে
প্রতীক্ষায়
ফলাফলে
নিষেধাজ্ঞার
কোণঠাসা
##হার্স
left
বৃত্তান্ত
জেএমবি
দুষ
পেপারে
##het
জ্ঞানে
রেডিওতে
আশ্রয়ে
কনস্য
কাঁচামাল
সুনামগঞ্জের
উত্তরবঙ্গের
অপসারণের
পেতো
সিটের
সদস্যপদ
শুভকামনা
রাইডার
##দাতাদের
##ades
শরীফের
৪টা
আনাম
মৌলবাদ
##রাে
##টুকে
এ্যাল
৩টা
আলহাম
খেপে
বেঁধেছে
টুইটে
win
লরে
সারতে
কবিকে
দীপঙ্কর
সমৃদ্ধি
##বই
কবিরাজ
মোহামেডান
চয়ন
মরছে
পরমা
ভেদা
বর্ধমানের
বহুনির্বাচ
##শীপ
প্রণোদ
শ্যামা
##ান্ধ
ধর্ষন
এককভাবে
কাওকে
জায়গাতে
বিমানটি
অ্যাম্বুল
খরগো
##ায়ত
##বিষ্ট
শাহন
আঁশ
জাদুকর
ঘোষণায়
তাজুল
পাইয়ে
অফিসারকে
গার্ডিয়ান
March
গিগাবাইট
স্থানীয়ভাবে
মিনারের
সংস্কৃতিতে
ছেড়া
চলাচলে
##বিএস
গন্ধটা
বেঞ্চের
তৈরীর
পাল্টাপাল্টি
sk
##িউস
##amb
মিরপুরে
##স্তুর
ঈশিতা
ঢাকনা
সাভারে
prof
##লাক
শেখে
১১৫
##ষেকের
তিয়া
##াখা
রেঞ্জ
উভয়ই
ন্যস্ত
অ্যাপলের
যাচ্ছেনা
36
##শ্চিত্ত
জেসম
চিকিৎসাসে
প্রোজেক্ট
ব্যাকটেরিয়া
boy
cle
যক্ষ
##যী
##لى
মাখানো
বাঙলাদেশ
##ডাঙা
আটলান্টিক
মানুষরা
##urr
পার্সোনাল
একাদশে
##্রিবি
উচ্চতার
##ocal
সাসপে
ভেস্তে
##োয়ানের
ইফেক্ট
শিল্পপতি
ক্রিকেটাররা
মাঝেমধ্যেই
কেলেঙ্কারি
লভ
##দাঁ
##বাগানের
ফ্রেস
অর্থায়ন
সুদে
চোখাচ
2008
বৈশাখে
Yes
কিউট
ফাজিল
থুবড়ে
##cess
প্রজ্ঞা
##রেও
##াইডিং
উৎকৃষ্ট
Ser
নেল
##্যকে
গাণিত
টেনশনে
##ন্টন
সোফা
সর্বস্তরের
বদলেছে
##লিং
জালিয়াতি
হারাই
বয়েসে
ডানদিকে
##aper
ভীতু
বিলাপ
দ্রাবি
##self
বলেনা
জয়িতা
নোভা
##reed
প্রাচুর
জরিপের
মটর
জিতলে
পরেন
##ley
মানবজাতির
রহস্যজনক
প্রতিবেদনটি
তিরস্কার
##ুজোর
বানী
কাটিয়েছেন
##ড়কে
##াজারে
Ash
অনুসারীদের
##৭৫
##AC
বছরও
দাঁড়ি
দুরূহ
প্রণালী
নগণ্য
সতর্কতার
তালি
বােধ
ক্ষেত্রের
হ্যাভ
বিধ্বংসী
ব্রুক
খ্রিষ্টাব্দে
##াদিত্য
রাঘব
##িয়াসহ
2007
ফ্লোরি
ঠিকাদারি
কামাই
আসামিপ
শ্রাবন্তী
এখানের
##সন্তান
##ূঢ়
এইডা
বুঝতাম
ঢুকবে
প্রান্তর
দাদী
টেলিগ্রাফ
International
কামরার
শরীরকে
সমীরণ
সামলানো
##lete
রেসপ
##স্টন
আইই
হেনা
মিলিমিটার
রেজিস্ট্রি
##ication
##সাগর
বাঙালীর
চম্পা
মেলামেশা
##োতি
শুনব
দেবদাস
সোহিনী
ওয়াসার
চেষ্টাই
টোকিও
##ঝাই
অনুত
##মূহের
বিস্ফোরিত
চশমার
পাঠ্যপু
সদি
অনিকে
Net
সােভিয়েত
ভিজিটর
তিমির
খরা
অমৃতা
সম্ভাবনাময়
লকডাউনে
##ET
##্যাপা
আপনজন
দিতি
একগাল
মাস্টারের
ভাঙ্গে
বীরশ্রেষ্ঠ
একাডেমীর
হিটলারের
স্বৈরাচার
ধুন
নামলে
##par
সঞ্চালনায়
##মেন্স
##কর্তার
ইনু
আনোয়ারুল
চকর
ধমকে
তুলসী
ছোঁয়ার
ফিরেও
তন্বী
##িকান
গণপ
গলিয়ে
দুশ্চিন্তার
গােপন
প্রলেপ
away
ভূগর্ভ
মাইর
দিনমজুর
বুড়া
বগুড়ায়
place
কোষাধ্যক্ষ
কর্
সেলের
উঠান
লিখতেন
স্ত্রীলোক
##000
প্রাদুর্ভ
রাখতো
স্ট্যা
64
##ঙ্গীর
অন্যান
বৈদিক
সাংবাদিকতার
তাসকিন
আশুতোষ
খেলেই
ক্যাসে
জঞ্জাল
শৃঙ্খল
##জাফফর
একবছর
গণিতের
নারায়ণগঞ্জে
সংখ্যাগরিষ্ঠতা
এনায়েত
জানাবো
ভুয়ো
স্টলে
##ists
##৮টি
গিয়েছিলে
আনমনা
স্ট্যাম্প
৪০টি
মন্ডল
##সম্মান
আড়ি
প্রশ্নও
পাঁচজনকে
আকাশটা
##চ্ছেদ্য
পেয়ার
মিনহাজ
কলিকাতা
ঝাঁকুনি
মৌলভীবাজারের
চরের
same
শ্রীব
ফ্যাকা
কোর্সে
নামানোর
##েন্টি
##চল্লিশ
সরোজ
ভক্তের
অটি
বিভা
মাসী
অনুরােধ
রচয়
শবে
মুন্না
রাজেন্দ্র
##ওয়াদ
##umb
ঘুমোচ্ছে
45
60
Book
বসেছিলাম
মুগ্ধতা
ভোটাধিকার
sw
لَ
গনি
উপহাস
ইরানি
فِي
জনস্ব
শহরকে
##চকিয়ে
সূর্যকে
সুচরিতা
কচ্ছপ
East
##ামতে
মানান
হলনা
স্টাইলে
আছিল
শাট
##গুলিও
লিফলেট
খেয়েছেন
দুইজনে
টলতে
রাত্ত
আঁখির
বাঙ্গালি
লুৎফর
iv
মজুমদারের
sir
ড্যা
##গড়ে
##ved
তাহম
সার্কেল
কেঁদ
মুক্তিযােদ্ধারা
ছিটে
একদৃষ্টে
গ্রেপ্তারি
বিকাশে
##eal
স্বনাম
রিড
সিনেট
সত্ত্ব
বিধাতার
অটোরিকশার
বৃষ্টিপাত
ইজরা
মোড়ল
import
ছল্লাল্লাহু
হুক
হ্যান
রেইন
ক্রিশ্চ
কথাসাহ
মেকানিক
আদমশুমারি
দূর্ঘট
উপনিষ
##ঁচড়ে
আহরণ
প্ল্যান্ট
অ্যাডাম
উৎখাত
ভর্তা
ত্রিপুরার
আগর
বিশ্বাসই
এগুলোকে
বিচারা
##ন্নাহার
কিডন
ফাহাদ
##লেখ
জীবনযাত্রার
ID
ভৃত্য
অমিতের
দোলে
পার্শ
##িজির
আন্তরিকতা
হোস্টিং
##ট্যান্ট
শাকসব
দেড়েক
আপদ
নয়জন
আহ্
তহবিলে
maj
সবজির
##দিগকে
মিলান
শিল্পকর্ম
ঢুকলে
ভোগে
কপট
আজিজুর
মেরুদণ্ড
শাদা
##বড়ে
হাছান
জুতার
Good
ফ্যাকাশে
key
পদাতিক
রোগীরা
নীতিতে
জাপটে
যুধিষ্ঠির
##বাে
প্রত্যাশার
কীটনাশক
কালীগঞ্জ
অ্যালেক্স
পরগনার
একপ
আসছিলো
ব্যবস্থাকে
বাঁধার
##াফট
হানাহ
দেখলেও
যায়গায়
মুখস্ত
১৩৫
কল্যাণী
##িকৃত
কুঁক
শোয়ার
খাদ্যা
##osed
সোজাসুজি
চুক্তিবদ্ধ
ড্রাইভারকে
কখনাে
buj
##িন্ট
মহল্ল
মাইলফলক
##বর্গের
দলেরই
মদদ
ব্লাউজ
##যুগের
বিশ্লেষক
শ্মশানে
মালদহ
খুলেছে
এইচআই
আলাপচার
##মুহূর্তে
শুকনা
কর্মকার
জয়নুল
বশির
##জিয়া
##ng
সুলভ
পেনসিল
ইয়ার্কি
##ছড়ির
গ্রাফিক
দীনেশ
ঝাঁকে
অর্জুনের
ইভা
##ৰ্ম
কেমিক্যাল
মন্তব্যঃ
মেজাজে
পাহারায়
সেইরূপ
দলনেতা
##লিখিত
পাঁচশো
বনু
ফলপ্রসূ
সংঘবদ্ধ
নাড়ু
চিলতে
সিএনজিচালিত
লিক
হাবু
জিয়াউল
রক্তক্ষরণ
একভাবে
বিকির
ট্রাম্পকে
নিভৃতে
Tumi
dist
ঝাক
##্বাধিকার
##কমল
প্যাটার
বিঘ্নিত
ডাকিয়া
দীক্ষিত
সচেতনতার
দিগন্তে
সর্ম্প
তদন্তকারীরা
বাহক
সচিবের
দিবসটি
ঝন
বুঝিয়া
##সম্ভ
এনবিআর
Aut
অঙ্গে
শুনছেন
মঞ্চস্থ
জাদুঘরে
সূচি
মার্ক্স
নাশকতা
মইনুল
উদ্ভাসিত
সেবাদ
বুয়া
মনমোহন
ভোগের
সমুদয়
করাটাই
সবাইকেই
##oman
জলদস্য
ক্যাপিট
হায়াত
চুরমার
ধাবিত
অনুপাত
নিউট্র
অভিষেকের
ঝাপটা
যেরূপ
ear
দুক
##িশের
খুনিদের
Trans
Ma
শ্লীল
সালেই
##akh
তােমার
ফিনি
বন্ধুসভা
চীৎকার
চেয়েছিলো
সাঁঝ
ব্যানার্জি
উত্থাপিত
পোর
দেবর
জোয়ারে
অভিবাদন
##্যালে
স্মৃতিক
রেললাইনের
বেড়াচ্ছেন
নব্বইয়ের
সরকারই
##তারের
রুচ
ময়দা
জনপ্রিয়তার
মিউজিয়াম
সার্কাস
ক্যালিফোর্নিয়া
ব্রোঞ্জ
##্যমান
##াবার্ষিক
পথচলা
খুললো
মানিকগঞ্জ
Av
ছম
বানিজ্য
সীমানার
চকোলেট
##emb
স্বপ্নেও
কার্যনির্বাহী
##ষ্টের
সালমানের
নির্দেশের
শরণাপন্ন
##দাদুল
হতাহতের
চিমটি
প্রতিবিম্ব
মন্টু
##ices
খাঁচার
lead
খড়ের
বুঝিনা
গোলটি
আর্টিজ
ডায়েরী
##দ্রে
##াজুড়ে
পুরুষরা
##বাক্য
পুনরুদ্ধার
##দ্দি
##প্রধানের
##ছোড়
টানছে
চতুর্দিকে
##39
আইএ
top
আদালতকে
##َالَ
এইডস
ইনকিলাব
কন্স
##্রাহ
রহমতে
##ript
ইকো
##UF
অপ্স
কাতারের
Video
বিসমিল্লাহ
##খড়ি
বলয়
অনুরাধা
পদার্প
টানার
##খী
মার্বে
চরিত্রটি
ফ্রম
লঙ্ক
ভাবিস
সদানন্দ
লাইফে
##iving
শাস্ত্রী
ko
ইঞ্জিনের
শেষবার
উৎফুল্ল
মাখামা
পুব
##প্রক
বিদ্যার
ঘুমাও
অবস্থাটা
ছয়টায়
সাংসদদের
খিলা
##ما
উঠলেও
##হস্ত
##্কেলের
দমদম
ডিস্টার
##গ্রহণের
সেনাস
hai
##❤❤
হত্যাকারীদের
##৯৯
করিয়েছে
রেপ
অনুগামী
##16
মাউস
পরিবর্তনে
সুবিধার্থে
সমাহিত
মোহনার
ধনু
গরিবের
অতীন
শুনছিল
##াবাঁ
মেহেদি
ফরেস্ট
পারাপার
রূপালী
শারীরিকভাবে
Sw
##িকেটের
থরথর
বাক্সের
সুনিশ্চিত
টিলার
২২টি
প্লাটুন
বিএসএফের
বিআইডব্লিউ
জ়
##সিপি
সুসংবাদ
ভেবেছেন
টনি
লত
শাসকের
ফ্র্যাঞ্চ
নিশান
ইস্র
Hossain
নিরাপত্তাহীন
রিমোট
খায়ের
##িসম্পন্ন
ফাইলটি
নিরবতা
দ্রষ্টব্য
ধূপ
হয়েছ
জলখ
কাঁদি
বোল্ড
হুঙ্কার
ডাইরি
লেঃ
মৃন্ময়
নিশীথ
অ্যালবামের
ধবধ
শুনবেন
প্লেনে
বিচারাধীন
কর্না
ষোড়শ
##্লাহু
ছাড়ব
##TML
বিকার
##্জ্ব
##্ধের
##els
শ্রেণিক
মল্লিকা
শাড়িতে
জনশক্তি
##্যবাদের
der
বিক্ষোভকারীদের
অপ্রকাশ
নাজুক
##োগ্রাম
##ikh
বিলাসবহুল
রিটায়ার
অবাঙালি
অরি
গোক
চটে
জাতীয়তাবাদের
ins
নৌবাহিনী
অনুষদ
জেএমবির
##স্তার
অভী
রামু
##ux
ব্যাটিংয়ের
##মোহর
সচিন
গুলশানে
আক্কেল
তন্মধ্যে
বুদ্ধিজীবীদের
নাছোড়
বয়সি
আঙিনায়
##ঞ্চের
অনুসর
মিত্রের
প্রজাতন্ত্রের
ঠেকানো
আরামে
পৈশা
দিভাই
কার্নি
বড়াই
গাওয়ার
##তাবাদ
পৌরা
টকটকে
নীতিনির্ধার
দালালদের
কিছুমাত্র
খৃ
মোক্ষম
অভিপ্রায়
##ization
পুনর্বিবে
Vol
বিধানসভায়
চ্যালেঞ্জের
নজরদারির
নাজে
৪৫০
মুহুর্তের
##75
উঠিয়াছে
শরবত
##otos
এনাম
সার্বজনীন
কুমিল্লায়
প্রতিনিধির
বাউন্ডারি
ঘনিষ্ঠতা
দায়বদ্ধতা
##৭৬
##ete
সমস্তই
আন্দোলনকারীদের
শ্বাসরোধ
test
লিচু
##ুটিয়া
ইয়াহু
সাবমেরিন
মালপত্র
রক্ষীবাহ
##মণ্ডলীর
নার্সিংহোমে
##াবলে
##িন্নির
##ম্পা
ঠোট
আনুষ
পদক্ষেপে
ফেরানো
কথোপকথ
ঠায়
কারুক
পাঠের
আবেদনপত্র
আমলাত
গণপূর্ত
ঝাউ
##িস্তি
অযা
উমার
##OS
জীবদ্দ
চালককে
সুদৃঢ়
##awn
মেক্সিকোর
ধক
##ুরিতে
প্রথার
##ল্ড
বাংলাল
হলুদের
নেতৃবৃন্দের
##াদ্ব
##দ্বয়
বাণিজ্যমন্ত্রী
আলেকজান্ডার
কথাটার
হাতুড়ি
বন্দীদের
##িভাই
পিটিআই
##ration
চুপিচ
ক্যালেন্ডার
নামতেই
সানগ
সোনারগাঁ
রুনা
ফ্রেমে
শুনতাম
যুক্তিতে
পবিত্রতা
শোনেনি
লাহি
##ince
যৌনতা
আহম্মদ
Tor
আগাগো
##হানা
ক্রন্দন
মামুনের
লিখবে
অশরীর
পেনড্র
পাকবাহিনীর
বাইবেল
বিনিময়ের
নওয়াব
##তাইয়ের
##ন্দ্বে
বাসভবন
অস্বস্তিকর
স্টোক
##াধিক
##াধারা
জেনেছে
##মকাই
ফুসফুস
অবক্ষ
গতিপথ
মোর্শ
এসএ
আহতদের
ডেভেলপার
জাবে
##ভোজ
##স্নে
##ন্ডারের
ভাবছ
গিফ্ট
##ফিনের
##ঙায়
অর্থাত্
তৎপরতার
সাহারা
প্রক্টর
রাতভর
এড্রেস
দিয়েন
চাইছিলাম
নিয়মকানুন
টাইমে
দাবান
ref
গুজরাত
হুল্লো
মমতায়
সাময়িকী
হ্যান্ডসাম
বৃদ্ধার
চুপিচুপি
##abo
সন্ধ্যের
নিরামি
##কুন্ত
Ahmed
dem
##fire
আরিয়ানের
##াশে
তেলাপ
পিকআপ
ইন্ডাস্ট্রি
ভেরিফ
With
##সচেতন
##থেয়
সহজভাবে
চক্ষে
সব্ব
ভবিষ্যদ্বা
এক্ষুণি
গেজেট
অনেকাংশে
##ির্বাচিত
##্টেড
প্রোগ্রামের
বিপিএল
##োলজির
জুড়েই
শ্রীকৃষ্ণ
প্রতিস্থাপন
তমা
##কন্যা
ট্রায়াল
নাড়ে
হয়রান
ঘটক
পরিশোধের
রিপোর্টের
##োকল
চাইতো
##ড়াম
পারমিশন
আহলে
বাহবা
রূপরেখা
##াসাধ্য
নভো
খুঁজছি
##্ভীর
এতকাল
প্রযুক্তিগত
পড়ুয়ারা
কদা
##টেক্ট
##্জির
কানায়
দুবছর
স্বত্ব
অ্যাশে
ক্যানসারের
পিষে
মিশতে
বিস্তৃতি
বিবরণী
ভিশন
মেয়াদের
নাজমা
অধিবাসীদের
##ডাকি
ব্রিটেনে
সেন্টিমিটার
গহনা
##হোম
##াধর
প্রাণহানি
চরমে
গেইল
চাউ
দৌর
following
নায়েব
##াগ্রাম
always
ধরাধরি
থিত
আজন্ম
শিহাব
তত্ব
##বদলের
##ীমের
আফ্রি
ফ্রিজে
অসহনীয়
গুঁড়িয়ে
রাবণ
##বর্ধন
##uary
দায়িত্বের
কতৃ
তেহর
পর্বতম
বিভক্তি
ছবিই
১৫০০
অত্যধিক
ধর্ষক
অত্যাচারে
খুক
##্টিম
অস্ম
##ager
আচমকাই
অ্যাপের
লেপ
সর্বজন
ব্যাটালিয়নের
চেলসি
SHAK
jo
জানতেই
##াকারীর
জুটির
হিমালয়ের
##বাঁ
এলাকাটি
এফবিআই
অনুশীলনের
##ট্রি
কারফিউ
অনুন
used
চুট
চেয়ারপারসনের
ইহারা
তপু
##বিস্ত
প্রিয়ঃ
কোরবানি
##মূঢ়
পল্লবী
অঙ্কে
##ৌর
সুহাস
ভাষণের
নির্দলীয়
সর্বোত্তম
প্রতীকের
অর্থায়নে
ক্ষতিগ্রস্থ
মনুষ্যত্ব
জয়পুরহাট
তথ্যচিত্র
##কোটি
##গোষ্ঠী
ফতুল
হাইস্কুলের
##বিদেরা
অযাচিত
##ইলা
##ূরক
মাজহার
দুরের
দুর্ধ
জুয়ে
##লক্ষ্ম
কোনা
আত্মাকে
জান্না
মহকুমার
সাবিনা
মিন্টু
অশ্বিন
jan
##োভন
ত্রিদ
অবজার্ভার
স্ট্যান
সদ্ব
গাঁধীর
ইসরায়েলি
মদী
নাভ
উদ্ধারে
##yp
একতলা
গ্রিল
আব্বুর
##rist
যায়গা
দূষণের
##ৃদয়
ভীড়ে
ক্যারিব
চড়ুই
মিমির
নটা
শিয়ালদহ
ড্রিম
প্রশংসায়
গাণিতিক
দেখাদে
##চাষ
মেরিল
ক্যান্টিনে
##মণ্ডল
উপনির্বাচ
সর্বাপেক্ষা
##াঘ
##িয়াত
অলআউট
কালিয়া
দুলিয়ে
জেনো
আবাহনীর
তর্জন
ডাকাডাকি
##হোল
সাবের
থ্যাংকস
পৌরাণিক
System
উড়ি
ঝির
##মিয়া
কারার
ভোটকেন্দ্রে
পঞ্চাশের
Sm
পাকবাহিনী
ফেস্টিভ
ইমরানের
PDF
ভোক্ত
##সারী
জুড়িয়ে
দূরত্বের
##শ্বরী
শিবু
কিশোরগঞ্জের
আনিসুর
লাইব্রেরী
দুঃস্বপ
Per
##াপোল
চন্ড
##aan
##ুয়েশন
##বোধক
##াবাড়িতে
ডিস্টার্ব
ঠুক
গাছপাল
নম্বরটা
মাতিয়ে
বাচ্চাটাকে
কোনোদিনই
প্রজাপতির
খাতার
দন্ত
##চারাল
দশটায়
ক্রেতার
ধ্রুপ
হেলিকপ্ট
চিরা
বলাবলি
সিরি
সুন্না
ব্রায়
গায়িকা
বায়ে
বাসুদেব
বোঝাপড়া
ফেরানোর
মোসাদ্দেক
##েন্দু
##কাজে
##িকালে
স্টুয়ার
শ্রাদ্ধ
ভাসানীর
আলেক্স
##USUF
##রোর
##দরিদ্র
##EL
পড়ুক
এগুতে
পক্ষকে
পিসিতে
##ency
YUSUF
লিয়ে
প্রতিবেশীরা
ইদ্রিস
##்க
আবহে
বিদিশা
প্রতিষ্ঠাবার্ষিক
কোচবি
##ৃত্যুর
##ংলা
সুজাত
##িদির
মাদুর
গেয়েছেন
ভাঙনের
বেড়িবাঁ
##শিক্ষক
মর্যাদায়
জলো
বাচ্ছা
সহমর্ম
আকবরের
বাহারি
নারদ
শকুন
YUSUFALI
ঘোষাল
অশালীন
##গুলোতেও
সিআইএ
রসগোল্লা
KHALI
PICK
ছাব
##েটের
ন্যান
##এনএ
সূত্রঃ
##পুঞ্জের
সিলিং
apn
ডুকরে
ধবধবে
##ছোঁ
পরান
ট্রেই
অবিচল
দুইজনের
site
গাদা
##ষ্টিক
বেতের
প্রাচ্য
১৯৩৯
অপকর্ম
সাবস্ক্র
রুপে
জেলেদের
জার্সিতে
##ছুল
চারিত্র
হাটহাজার
এলিজাবেথ
যারে
##zz
বুবু
রাষ্ট্রদ্রোহ
গুটিক
ইনস্টাগ্রামে
আপনারাই
যাইত
টেক্সটাইল
33
miss
##বাণ
অচিন্ত
##ves
বিদেশিদের
লিখবেন
শিখর
SHAKIR
এরিয়া
দেখালে
মামাতো
বর্ণা
রামায়ণ
চূড়া
খোরাক
##THAL
PICKTHAL
##দাতার
গোলাকার
আর্টস
চার্চের
উন্মাদনা
কর্ণফুলী
##তীকে
অধিকর্তা
রায়গঞ্জ
high
val
ডগায়
দলটা
হারতে
আয়রন
চিত্রশিল্পী
ফাল্গুন
##াহক
অধীনস্থ
মোটরসাইকেলের
বইমেলার
জুতোর
খসরু
##নেত্রী
ক্ষয়ে
ঘটানোর
অতৃপ্ত
ছাপানো
অকালে
##ারক
স্বাদের
চলেছিল
অলঙ্কার
KHALIFA
bo
রয়েল
গতিবেগ
গতিবিধি
##rael
bit
বলাটা
মাহাতো
যথাসাধ্য
মহাব্যবস্থাপক
দেহি
তারের
ফিরছি
শাসনতন্ত্র
সুপারভাই
গোপনীয়তা
ওপরেই
ছিনতাইয়ের
হরমোন
##হায়
##াইছে
বিষের
কমিটিকে
আদর্শে
ফুটেছে
আলোকপাত
অর্কর
প্রায়শ্চিত্ত
নীলকে
দুপুরবেলা
Ge
আত্মবি
উদ্বোধনের
ইজি
রিস্ট
##SC
য়ের
মোরগ
অনীহা
পড়েছিলো
##াইলাম
অন্তহীন
কান্ট্রি
আধুন
নগরীতে
Facebook
##78
উদী
জমিজ
লাকি
তুলতেই
##বৈচিত্র
রাজম
আল্লার
আইনানুগ
স্বপ্নগুলো
ছাগু
##ها
এরদ
জাহিদুল
পূর্ন
এনেছিলেন
ঝাড়খ
যুবদলের
দিকনির্দেশ
নৌযান
ডিভিশনের
ক্রিস্টিয়ানো
##িটা
##নাকারী
##াকশন
পুরোদমে
সালোয়ার
##்த
পাকিস্থ
বিল্ল
তিনজনই
ya
রাজপরি
হাওড়ার
নাযিল
care
##পেন
জাপানী
উভয়ে
মাড়িয়ে
জানলেও
দশজন
আনুষ্ঠানিকতা
জুলাইয়ে
বীরের
হুদ
আবশ্য
অকৃত্রিম
বিটিআরসি
ইডি
##bd
ঈদগাহ
চাকরিজীব
##ues
requ
দুর্বলতার
বেচাকে
সমিত
Bengal
ওড়ে
ভোক্তা
নির্ঘুম
কুমু
উদাহরণস্বরূপ
في
বীরে
ভালোবাসাকে
##গাং
ভুতের
উদ্যোক্তারা
শক্র
ফ্রেড
অনাহারে
##ব্রে
শুই
জন্মভূমি
অনুশীলনে
ইয়াসিন
স্যান্ডেল
স্পেনে
বিবেচনার
মহামারির
বেলজিয়াম
গৃহিণী
কলোনি
গৌড়
মধ্যপ্রাচ্যে
নাজেহাল
২১শে
কুরআনে
মহামারী
rest
##ার্ত
দুদিকে
সুইডেন
##াইজড
ট্রানজিট
ভাইপো
নেমেছিল
ইতালিতে
ফ্যান্ট
ইন্তেকাল
পৌল
ব্রান্ড
সান্নিধ্য
প্রারম্ভিক
হর্ন
নিরসন
গোয়েন্দাদের
##्या
কুস্তি
বর্ননা
নহ
##সেন্ট
##oud
##ৌত
##ব্রি
##ুমুক্ত
পড়িয়াছে
মনটাকে
হাদিসের
এহসান
বিরুদ্ধেই
উদ্দীপনা
বাশ
একাগ্র
আসমা
মিতুর
Abd
শবন
##থিও
জাগায়
হাজারেরও
স্টোন
সংখ্যাটি
গল্পগুলো
কয়লার
প্রদানে
হত্যাকাণ্ডে
খ্যাতিমান
হৃদ্র
জারা
##িয়ানার
বকুনি
ধোঁয়ার
অঙ্গরাজ্যের
##كُمْ
পন্
সমানভাবে
পলাশের
মানার
চোখেও
রুটের
ল্যাপটপে
human
##াবাড়ির
##দৃষ্টি
লিখিয়া
টিলা
##ামুখী
সোহান
দাবীতে
আসিতেছে
শত্রুপ
##টিভির
রানু
জুলাইয়ের
হিন্দুর
জমিদারি
##দূরে
বাস্
##আরসির
##othom
স্যানিটাই
চোখাচো
ট্যাং
##বদ
খুঁজছেন
আলহামদুল
গফুর
ওকেই
উপাখ্যান
es
কখনওই
প্রতিজ্ঞ
ট্রল
ওয়েস্টার্ন
দুর্বোধ্য
##ারিত
সমীক্ষায়
থাকবার
চালিয়েছেন
আজকালকার
প্রতীকী
রোহিঙ্গারা
##▬▬▬▬
কথামতো
আসিবে
ওঃ
অধৈর্য
আয়ুষ
point
ঋজ
কতকাল
মশিউর
দাদুভাই
##াপর
মফস
টালি
একবারই
##রাজের
মধ্যাহ্ন
##বড়ো
শ্রাবণের
সুশাসন
সন্তোষজনক
জমিদারের
##চিকে
##khe
সময়টুকু
পৌঁছলাম
বিমর্ষ
স্মৃতিচারণ
ধো
##বন্ধন
ইরানে
বিস্মৃত
কুসুমের
মনোয়ার
বুদ্ধের
কালবৈ
পাপী
ঘোলাটে
##শর
খাটা
শুনতেই
জলপ্র
মানানসই
মহল্লায়
থার্ম
দুর্গাপূ
মাখামাখি
হরিশ
change
সিলভার
lag
##ইসি
##শস্য
সম্পূরক
নথিভুক্ত
অংশকে
গৃহবধূর
Cha
কচুর
ফন
##োহে
##াশাস
লিখছে
১১২
##িয়ানদের
হরিণের
ডবল
কিই
সুরেন্দ্র
গেরুয়া
স্বপ্নকে
ফটোগ্রাফার
আসানসোল
তিয়াস
##সীন
##াদৌ
##স্টাইনের
##ality
##ঙ্করের
ধ্রু
আরামদায়ক
স্কোরঃ
পৈশাচিক
মলে
##নারী
বইলা
রাস্তাঘাটে
পাবলিশ
হেঁসে
প্রতিধ্বনি
তৃণা
এফআই
প্রকারে
তৃণমূলে
মৌমাছি
আমাৱ
হেদা
উপলক্ষ্যে
হোগ
প্রচ্ছন্ন
##ডেন্সি
নিরাপত্তায়
##ফার্ম
বানিয়েছেন
হেনস্থা
ডিএমপি
Don
হাওয়াই
##okhon
মাইনাস
IS
##ীরাই
অনুষ্ঠেয়
##ott
এতোটাই
কম্পন
সত্তার
হার্ডড
দুস্থ
বৈরী
হইয়াছেন
বন্যপ্রাণ
চাঁদপুরের
পত্রিকাটি
শৈবাল
সুসজ্জিত
কামনায়
হাঁটে
2009
ছেলেবেলায়
জড়াতে
ছোটে
বলদ
নামলাম
এতদূর
##বাগের
পিপল
পঁয়
##ঢালা
তাহাদিগকে
তারুণ্যের
ড্যাড
গৃহযুদ্ধ
স্ট্রিটের
লাদ
১৬ই
টিকতে
কেরোসিন
##োণ
##াকৃতি
##এফআই
আইরিশ
পত্রে
##ium
আমৃত্যু
হারমিও
চীফ
ঝোলা
শেন
প্রতিও
অম্লান
লড়াইটা
এইটাই
things
কাটিয়েছি
##তাস
সম্পৃক্ততা
ডালপালা
এমা
হয়তাে
সুবল
আবরার
নিরামিষ
কিসব
শাসনে
নিস্তেজ
গ্রহণযোগ্যতা
পাণ্ডুলিপি
বিশু
নির্দয়
জুড়
##ola
ঠাকুমার
عليه
bat
moto
##শিক্ষিত
onek
অন্যান্যের
বিফল
থেকেছেন
হস্তক্ষেপের
বিভূতি
ব্রেক্সিট
sit
##১৭
শিক্ষকরা
সাংবাদিকরা
নিঃশ্বাসে
বলোতো
বিবর্তনের
মাইক্রোসফটের
অঝোরে
রীতিন
আজান
হামলাকারী
টাঙানো
ধর্মগ্রন্থ
অনুভূতিতে
##gy
এইসময়
school
সিমি
ননদ
মনোভাবের
লাইকঃ
গণ্ডি
কেল্লা
কান্ত
সর্বক্ষণ
সম্মানজনক
গির্জা
পঠিতঃ
মোচড়
দুর্গের
##unes
হানিম
সামার
ভারাক্রান্ত
তাঁকেই
আরেকজনকে
আক্তারের
##সহকারী
##চকিত
##row
হকচকিয়ে
সচিবালয়
কুলসুম
হারামজাদা
Hum
bond
সংহত
দিনগুলি
ভাঙাচ
গাজীপুরে
রোপণ
ধরেছি
লোকসভায়
সাইডে
শান্তা
টুং
রিতা
দুব
##স্বীকার
নৌক
2014
##াবিজ্ঞ
স্বনির্ভর
পেশেন্ট
হুশ
Israel
লেনের
একচে
চোঁ
##কমণ্ড
অরণ্যের
চটপট
একটিই
কামিনী
পরিসর
##পাতার
##ওন
##্বলে
##্লিউ
কারণেও
পয
##টাস
##pur
##তিক্রমে
Islamic
ললিতা
কেষ্ট
##্ডে
ছেলেও
শিশুক
শরীরটাকে
নিদ
##াগঞ্জ
পাকি
সৌমিক
নিউটন
রবীন্দ্রসংগীত
ইন্টারেস্টিং
##ণ্যের
কতক্ষন
অদক্ষ
আর্জেন্টাইন
নমনীয়
সিইসি
প্রতিমার
বেধ
হায়ে
বুদ্ধিব
##জীবি
সব্যসাচী
দুএক
বেড়ার
বাইপাস
##সেনের
রাকা
মানছেন
ওয়াদা
পেরো
মোশারফ
ওয়াটসন
চরণে
##ually
##শ্ম
খাদে
ব্যাকআপ
হস্তান্তরের
##্কেট
চলেই
প্রতিক্রিয়াশীল
##িক্ষার
ইতোমধ্যেই
ভেলা
কাঙ
অনতি
##প্রেমী
পুঁথি
থিওরি
আন্টির
টোপ
##াকৃতির
বেড়ান
government
রাব্বি
মস্তক
তিলোত্ত
ধ্বংসাবশেষ
আইপিএলের
ব্যানার্জী
water
হাজরা
বইটিতে
অবিচ্ছেদ্য
গুদামে
সৈকতের
##64
গোছা
দয়ালু
##ii
ভাল্লা
রাখায়
প্রেসার
Int
উবে
ট্যাক
##শলে
##শ্রম
কোষের
ভেড়া
চ্যাটার্জি
খয়ের
পোলার
অসাধু
নৈরাজ্য
পারিপার
যেতেও
টিক্কা
ফুর্তি
অনির্দিষ্টকালের
##োঽ
কর্মবিরতি
রূপম
অপ্রতুল
আপাদম
##ারেড
চললেন
আমিরাত
মায়ানমার
ভেদাভেদ
##74
##িলাল
তাঁকেও
১৩৪
সত্তরের
অনন্তকাল
হাবিলদার
কিছুনা
ক্রিক
অঙ্কুর
##চিকিৎ
বিঃদ্র
পরোয়া
পর্যবেক্ষণে
##ফৌ
##ঞ্চির
পেয়েছ
বউদি
দুমড়ে
অ্যান্ডার
অদিতির
অনিশ্চয়তার
যীশু
অন্নপূর্ণা
ড্যান্স
রন্ধ
কলাবাগ
Please
বাকের
ঘড়িটা
নবান্ন
অত্র
করাচি
খবরা
##ন্তান
আনহু
ভাট
##ocum
##ুন্ন
হোমিও
বাইরেই
১১৪
##পদক
বান্দরব
##ব্বি
গ্রো
হার্টের
রিধ
ভীষণভাবে
অপহৃত
إِن
ঐখানে
হট্ট
ইচ্ছের
Shakib
ব্যাঙ্গ
একগুচ্ছ
বিধানের
ক্ষতিপূরণের
অতিথিরা
দুর্ধর্ষ
ভেনেজ
ভুগে
কুয়াশায়
আরোপিত
ফাকা
##বৌ
##চেনা
হ্রদের
##িয়াল্লাহু
জাগতিক
অক্সাইড
টুয়েন্টি
পারিয়া
মক্কায়
অদ্বিত
এডুকেশন
পলে
কমলার
নয়ত
অংশটুকু
আহমেদকে
মুবারক
গোঙ
সাইদুর
ছাড়ছে
হার্ভার্ড
বেদের
তাঁদেরও
ওয়াক্ত
##কোর্স
##ries
মদ্যপান
##াবলির
যেটার
দলও
ইজতে
এলিয়েন
নিহতদের
পাখী
জ্যে
কবিরা
Mod
##ভ্যাস
##ফ্ল
১২৩
লিস্টে
ball
দেশদ্রোহ
খাওয়াই
ক্ষেতে
গট
জিক
কিশোরীকে
##সিংহ
ঝরনা
ছায়াপ
এপাশ
##িবে
রুস্তম
টঙ্গী
##্ই
##ধরা
পরিকল্পিতভাবে
মেমোরিয়াল
চিতা
উড়ন্ত
শ্রাবণী
##াতিরিক্ত
কৃপা
আসবাবপত্র
জুয়েলার
তরুণকে
সিনেমাটি
লাফাতে
নিস্তার
আলিপুরদুয়ার
করিও
এমএস
হাঁপিয়ে
জায়েদ
পলিথিন
জীবনযাত্রা
ম্যাট
অ্যাঁ
অভিনেত্রীর
##াব্যবস্থা
গুলোও
##গেন
কড়াকড়ি
মজনু
রব্ব
##িনিং
কুয়েত
বাঁশির
গোয়া
পাকিস্তানীদের
কাবের
বলিতেছেন
##ক্ষেত্রের
##MS
করিয়াই
স্বজনের
গিয়াছিল
জনসমক্ষে
দেখাদেখি
চুড়ান্ত
কালবৈশাখ
কসর
ড্রি
লুস
##ভিদের
শােষ
##সোর্স
প্রলোভন
শকুন্ত
##কলের
##খলে
##ன்
##স্ক্রিয়
উনিও
প্রশিক্ষক
আকর্ষন
আইনজীবীর
April
##yn
##ُل
দ্রুতগতিতে
টিউনটি
##را
দুটিতে
চিলেকো
try
টগব
মানুষেরই
##lex
লিখার
##স্পন্দন
সম্বিত
##াজনিত
রোমের
বাছাইয়ের
চারুকলা
চালালে
খাচ্ছিল
বাণিজ্যে
যৌক্তিকতা
গালের
বিলটি
ব্রেইন
তাহারই
পাক্কা
Then
মোড়ানো
সন্তুষ্টি
অনিন্দিতা
ডটকমকে
##থিয়া
##za
কাজিন
still
রমেন
Will
##ৰ্ণ
আমারো
খরচা
তিতিরের
ইঁদুরের
ল্যাংডন
age
অতীব
ব্যারিকে
দূতাবাসে
সার্থকতা
ওইখানে
##ীত্বের
সাতদিন
টিউনে
ফ্লু
##ুরেন্স
টিস্যু
##mm
তাকানোর
১৭৬
বিজেপিকে
সেমিফাইনাল
সাবিত্রী
develop
কমিউনিকেশন
কোম্পানিগুলো
চিকিৎসাসেবা
##35
এইরূপে
ডাকলাম
কবেই
নিবন্ধনের
ওয়াসিম
##জুরের
নাৎ
##rive
কার্ডে
ফায়ারফ
##stand
সংক্রামক
##ভারেজ
গহীন
আত্মসমর্পণের
ছিটমহল
দলা
চালনা
হতভাগ্য
ডিটেক
এখতিয়ার
ব্যাডমিন
##পন্থি
##হ্যাম
গ্রামবাসীদের
তালিব
প্রস্তাবটি
সীমারে
মণ্ডপে
টং
##ডিশ
নাবিল
আইআই
ভিডিওর
মিডিয়াতে
অনায়াস
কুবের
##য়াদের
##ুমে
পুরাই
সান্ধ্য
##হাদের
আশঙ্কার
##পাখি
জনপ্রশাসন
##ডল
এতসব
বোল্ট
নড়বড়ে
ধাঁধা
old
##ুযায়ী
উপসহকারী
আটকের
কিনেছি
নির্মাণাধীন
বহুব
কুলি
উদ্ধত
অগ্নিকাণ্ডের
স্বাচ্ছন্দ্য
শ্লীলতা
চেনো
মহকুমাশাস
জানতেও
তোমাকেও
খ্যাতনামা
ক্যান্ড
yout
নাগরিককে
রুপার
সৃজা
বেরোবে
প্রহসন
জান্নাতে
##aya
সম্পর্ককে
এক্সপার্ট
অরণ্যে
কমলাপুর
ইতালীয়
ধারক
কেন্দ্রিক
মোতালে
মেটানো
Je
##নিষ্ট
কিনলে
প্রজেক্টের
মেহেরপুর
##িরােধী
ডেঙ্গি
চোখাচোখি
জনার
ভ্যাম্প
কোনদিকে
বিশ্রামের
কৃষিক
লাইব্রেরিতে
বাংলাদেশিরা
কাবা
সাইফুর
##ভাষ্য
পাকসেনাদের
ডিআইজি
আর্শ
প্রানের
আধিকারিকদের
ছত্রভঙ্গ
নিচ্ছিল
লাফে
##কালাম
পাইবে
চত্বরের
আপাদমস্তক
ইসলামাবাদ
তিয়াসা
ডিয়ার
আত্মহারা
ইনস
জোরেই
কেনেন
মাইলের
ময়মনসিংহে
খোরশেদ
পাইক
অ্যাটলেটিকো
##তত্র
নড়াইল
August
June
অভিযােগ
গরীবের
পাষাণ
লুটে
##িসকে
তিনশো
দ্বিতীয়বারের
ফেইসবুকে
ডাম্বল
মুনিয়া
সংযোগের
##25
ভয়ার্ত
##প্রস
গতবারের
প্রশিক্ষিত
প্রজাদের
##মগ্ন
##ালাপ
##াহে
##ticle
##যাত্রীদের
ক্যাটরিনা
কোয়ারেন্টিনে
প্রাক্কালে
যোগসাজ
mess
অবন্ত
একান্তে
Rob
দেখছিস
আনো
প্রিয়জনের
পাতি
মদিনা
##ীলের
শিশিরের
কোরআনে
##ত্ত্বের
ভিন্নমত
ইঙ্গিতে
যাবেই
অফিশিয়াল
তাকাও
তিব্বত
বঙ্গোপসাগরে
কণার
একটায়
ক্লাই
Eng
পারছিস
তুললে
ইস্পাত
ভদ্রতা
next
##পুলে
সমবয়সী
আছাড়
বৈর
ইত্যাদ
গড়ন
why
রিলিফ
##add
সিদ্ধান্তকে
সেজন্যই
দূর্নীতি
ভ্যালেন্টাইন
##িয়ারিং
স্তব
টাওয়ারের
##প্য
প্রতীকে
বাঁচান
ভলান্ট
রাজবংশের
সনিয়া
ধাপের
ছায়াম
মোনাল
শাই
##মীর
##রমা
মজুদ
চাষী
সাঈদী
অ্যাসিস্ট্যান্ট
কেজর
##ohn
met
ব্যালেন্স
স্থানটি
Pres
##oro
##উনে
সেগুন
মার্ডার
শব্দও
সাতকান
শহরেই
নরওয়ে
##ruary
উটের
ছবিঃ
অসাধ্য
39
sure
ধোঁকা
অকার্যকর
রক্তক্ষয়ী
পড়াশুনার
আঙ্গুলের
বেয়ার
ইংরেজীতে
মহাকাব্য
ফ্র্যাঞ্চাই
নির্দেশক
##ague
2005
সৌহার্দ্য
days
fire
বরগুন
নৈতিকতার
কুচ
উপজাত
রাষ্ট্রপক্ষ
ভীরু
সপ্ন
আজমের
বিষয়েই
আনাচে
শ্রীপুর
##ground
জাকারিয়া
spe
##লাট
##ঙ্গত
কুত্তা
এসবে
মাহফিল
অনুসরন
প্রস্তর
এমনিতেও
Prof
সম্প্রসারিত
রহিমের
wait
মামাকে
##ume
শিকারে
ফ্রেন্ডস
vai
##ঘোষিত
বিবির
তারি
রকমারি
আপনাদেরকে
ভিত্তিতেই
কটমট
question
সম্ভ্রম
কেকে
লিস
এইদিকে
ফ্যাক্টরি
সিয়া
লোকমান
মরহুম
১৪ই
December
Ac
অরে
লবন
##কলি
##َس
১৩৩
যুগান্ত
চেম্বারের
##িমির
১১১
লালমোহন
##ক্ষেপণ
উৎকণ্ঠা
কৈলাস
এরম
কোর্সের
শিরীন
খেয়ালই
##শাল্লাহ
১৯৩৮
Internet
##দগ্ধ
আদ্র
আওতাধীন
ইসরাইলের
চিলি
সমকালীন
ওয়ার্ন
রক্ষক
স্নো
জুটিতে
দস্যু
টেকে
অনেক্ষন
##echt
##নির্ম
##াক্টর
সবরকম
নাকো
একইরকম
উপার্জনের
স্বনামধন্য
সেবক
##কলার
##ুনায়
উজ্জল
গার্মেন্ট
সানগ্লাস
found
জওহর
স্লে
##for
প্রশংসনীয়
উচ্চশিক্ষার
এভারেস্ট
একটিবার
##ভেনে
better
AM
রকি
##ধাঁ
দিনগুলোর
রাজউক
##ibon
গণ্ডগোল
##acy
ফরাস
১৯৩৭
##চিত্তে
আরাধ্য
মেসিকে
##ভিস
১৯টি
ঔপন্য
মেইলে
শায়েস্তা
Of
সওয়ার
চেটে
রেখার
মেয়েও
ভাটার
জিম্ম
মঙ্গোল
বহুনির্বাচনি
74
relig
দৃপ্ত
লিখিতভাবে
হাড়ের
কিসিঞ্জার
cricket
##ংকে
মানেন
##প্রেশন
১১৬
কণ্ঠের
গুগলে
সীতারাম
bes
তাঁদেরই
পৌঁছল
##ন্নেসা
শোল
##জাই
শোরগোল
কুঁকড়ে
প্রশংসার
সারোয়ার
পুনর্বাসনের
mark
ল্যাপটপের
##pro
বেগমকে
যত্রতত্র
গদি
উপরি
নবনী
প্রসূতি
শ্রেনীর
ল্যাবরেটরি
##কাজের
পরশুর
##োলজিস্ট
বেকারত্ব
কালিয়াক
নির্বাচক
ক্যানভাসে
বার্ষিকী
অনুতপ্ত
##্য্য
মশায়
শ্বশুরবাড়িতে
রেগ
বরদ
অসুখে
account
##িনারি
সংমিশ্র
অপবিত্র
হার্দ
স্যালুট
মিউচুয়াল
সিএসই
বিঃদ্রঃ
অপারেট
ওয়াদ
##টেনশন
ব্যবসাপ্রতিষ্ঠ
শৃং
##হাউ
১৭৯
সৃষ্টিতে
মুভিটি
##াগি
হাসানকে
বীমা
চোপড়া
ফার্ন
স্বাস্থ্যকর
উন্মোচিত
মজে
সুগার
স্কোয়ার
প্রশ্নগুলো
১৯৭১ঃ
সমন্বয়কারী
আসীন
মৃতদেহের
মাছরা
##ustom
ধোঁয়ায়
ধর্মান্ত
Shah
সোয়েটার
তঁ
##য়ালী
পশ্চাতে
ফারিয়া
শালার
সুয়ার
##পাল্লার
শত্রুরা
##ucation
ভাইরাসে
মােশতাক
6f
each
##বেরি
শিওর
জরিমানার
কোল্ড
সর্প
প্রহরে
জলাধার
ইনশাআল্লাহ
কেলেঙ্কারির
ল্যাটিন
##ারকে
নিকে
সম্ভ্রান্ত
অংশটা
দায়িত
নিয়মিতভাবে
অতুলনীয়
ইউনাইটেডের
মানুষগুলোকে
দেশটাকে
মোকার
##ired
বীথি
ফ্যানের
ইন্ডাস্ট্রির
মতেই
##َم
হাসলাম
##িস্টিক
প্লাজার
big
##গ্রে
মুছিয়ে
জিতেছিল
লাঠির
সহযােগিতা
সওয়াল
ভাঙচুরের
চাষে
##duct
মূলধারার
ঝটকায়
##মিতার
ভয়টা
থাকতেও
অ্যাম্বুল্যান্স
নিকটতম
ফটোশপ
মূল্যবোধের
আত্মসাতের
রট
সেটিং
আহ্লাদ
কিছুকে
রাজাদের
সিজন
Ali
কাজেও
জাগা
##টাং
বাস্তবতায়
নিরুদ্দেশ
নিরবে
মিলাদ
সাজার
হুমড়ি
স্বত্বাধিকার
হালুয়া
সাঁকো
নুত
##ried
রাজবংশ
বল্লাম
এনএস
নরেন
##্রেশন
সাক্ষীর
সততার
February
head
চাঁপাইনবাবগঞ্জ
তরবারি
##োদের
যামু
সওয়া
অধঃ
মূলনীতি
১২০০
জিরা
নানি
বিবিসিকে
সৃজ
ঝম
ছাড়েনি
অমিল
স্যরি
ইতালিয়ান
টিনা
##পদ্ধতি
##টিএ
ঠেকানোর
ঝিনুকের
##َت
আইবি
বুঝানো
চাইছো
ডিজেল
এইচআইভি
একীভূত
##সেনার
দুলতে
দেখাচ্ছেন
গুন্ড
ফারহান
শিখি
তাজমহল
১৯৩৬
ধাঁচের
শশাঙ্ক
video
অসুবিধার
##মশ
##বেনা
সেগুলির
খোলস
SA
##18
##38
পরিবেশিত
ঠান্ডায়
নিত্যন
পরবর্তিতে
ছন্দের
##তিন
ভট্টাচার্যের
বুদ্ধিমানের
হিংসার
ফ্রিল্যান্সিং
প্রদীপের
মেঘার
##uth
প্রকৃতিতে
Car
ফিরবো
খাবারটা
মহারাষ্ট্রের
কটু
আমোদ
বিশেষায়িত
সমাজসে
মেশিনে
কঠোরভাবে
ফার্মে
কোন্দল
স্কুটি
শহরটা
মেটাল
লোল
পদচার
পাশ্চাত্যের
আলহামদুলিল্লাহ
যেটাকে
##েশুনে
মেহন
চাইছিলেন
কুয়
mean
##মৃত্যু
##্মার
দেখাচ্ছিল
গণভ
##ব্দে
আত্মরক্ষার
কিডন্যাপ
দেশলাই
গাফিলতি
##ষণে
দিশার
বিশেষণ
সৌমেন
বিচারকদের
শাহ্
অধিনায়কত্ব
স্মার্টফোনে
আলােচনার
ভাঙাচোরা
youtube
Po
##mber
বাদামী
জ্বালানো
##iven
রান্নাবান
##রু
##aye
শিরায়
অবিশ্বাসের
##সাহিত্য
কুহেল
সৎকার
মুষ্ট
তোমারও
##্বরী
খেতেই
##গাছি
আমিরুল
##চুম
খুলছে
রাে
চাইতাম
ফেভার
##ulo
মোকাবিলার
তসলিমা
##শ্বরের
খ্রিস্টাব্দের
পৃষ্ঠপোষকতা
চুয়াডা
ধুতে
##ত্দ
##দীতে
##চ্চু
বাকশাল
##মালায়
ভীষ্ম
অফিসাররা
সায়েম
শিলিগুড়ির
কৌতুহ
শম্ভু
ওলাম
সেপাই
পারের
আন্দ্রে
উত্তরপ্রদেশ
কেমিস্ট
ইকোনমিক
ধী
##লিপ
নিবো
##ask
ব্যাংকার
আড়ষ্ট
দারিদ্র্যের
সিবিআইয়ের
হত্যাকান্ডের
##চক্ষে
পিএসসি
ভেনেজুয়ে
মন্ত্রীরা
content
বেলের
শেক্স
ত্বরান্বিত
##ক্রিপশন
সুন্নি
ভ্রমর
অনুসারীরা
##ociety
র্যাঙ্কিংয়ে
January
উর্ধ্ব
##সেই
নিরুৎ
ক্রিয়েটিভ
বেচারি
নামলেন
দাভাই
বাক্যের
টার্ন
বিনিয়োগকারীদের
নিয়াজ
going
চর্ম
নহি
হুয
কিবোর্ড
রাজুর
প্রাইভে
##conom
ভবিষ্যদ্বাণী
ফন্দি
থাকাকালে
##খানেকের
##গোষ্ঠীর
আনুষঙ্গিক
ইষ্ট
আলমকে
আনুশ
ছেড়েছেন
ফরিদা
ফসকে
সিরিয়াসলি
ঘ্যান
পটুয়াখালীর
হসপিটালের
স্কলারশিপ
##ায়ারের
ওঠানামা
মিক্স
##উদ
##আত
##্নু
লাইগা
stat
নির্দেশনায়
ক্রীতদাস
##ুবে
##িক্য
বোঝো
দীর্ঘক্ষণ
ব্যাংককে
##পোস্ট
টুটুল
##itle
হামাগ
##ঞ্ছিত
অনুপস্থিতি
##29
##্তাই
ক্যানভাস
আবেশে
ধুপ
কাঙ্খিত
কিন্তুু
আফরো
শুভদীপ
স্বামীজী
dep
একটুক
উহু
এথ
##িচা
##79
পুনর্জ
উপত্যকার
##ba
##okia
##শিশু
West
##খুলি
মৌচ
রাইটার
নলকূপ
চারিত্রিক
##বস্ত্র
সমপর
খবরও
বছরেরও
খেলেও
লাহোর
ড্যানিয়েল
তারতম
জেফ
##ীকান্ত
বামন
পড়ালেখার
pat
প্প
দিছি
অবশ্যম্ভ
তাবিজ
বাটিতে
ঘটান
টিএম
খিচ
ফাক
##বোর
কাণ্ডের
হুমমম
কাফির
##োগের
##ised
নিশ্চিতভাবে
গ্রাহ্য
চিত্তরঞ্জন
ছোয়া
##ানুক
##প্টে
##ober
হোস্টেলের
পিয়ালী
বুড়োর
সমালোচিত
চিটাগাং
রফতানি
কথাসাহিত্যিক
Pal
##িমাণ
স্থগিতাদেশ
view
জলোচ্ছ
লকেট
##سلم
ক্ষত্র
জন্মবার্ষিকী
পৌঁছনোর
বৈশিষ্ট্যের
ক্রিমিনাল
##িন্দা
মাতব
##তাবোধ
সাঁত
vs
ভেবো
গুন্ডা
গোলাগুলি
##পারের
জয়ন্তী
ফুটপাতের
##দূতের
##৫৫
অঙ্কন
আশীর্ব
পরখ
##স্তরে
শুনো
ছুটো
##হোর
চারিপ
পাঠিয়েছিল
ব্যবসায়ীকে
কোহালির
১১৩
শুভেচ্ছ
কিছুরই
ফজিল
ব্যাটসম্যানরা
##পুরুষের
জ্যামাই
Gl
কার্
দুর্গত
##পন্থীরা
লাহা
সয়া
আয়তনের
কানাচে
ওয়াশিংটনে
##গেল
পান্না
##িটিং
মামুনুর
মাদারীপুর
ফাগুন
পরকীয়া
পারিপার্
prom
##লেমান
দীপার
ডাইনি
সঞ্চালন
নেমন্ত
full
##ওয়ারের
দরবেশ
বিদ্রুপ
মক্কার
story
কাশিম
মূসক
মণ্ডপ
নরমাল
মােট
সম্পুর্ন
নিকোলাস
ব্রীজ
ভুটানের
ডাকসু
##াক্ষর
শোয়
এক্ষণে
মুনীর
সম্পাদনের
শ্রীলঙ্কায়
বেমাল
##প্তা
ছাড়লেন
কিনলাম
রাফায়েল
মৃন্ময়ী
ক্যাটাগরিতে
##াগামী
Kar
স্বৈরাচারী
log
ভিসি
##ইউর
রাইয়ের
নূরজাহান
ইজার
ঘুণ
অভিজ্ঞতায়
টপিক
##কিস
সালিশ
নিউর
80
কুব
##গলি
ভাগ্নে
প্রবৃত্ত
নকশ
সন্ত্রস্ত
খেলোয়াড়ী
শর্মার
হাতেনাতে
ছাড়াতে
খোন্দকার
হায়দরাবাদ
মিটিমিটি
প্রেক্ষাগৃহে
ছেলেগুলো
অনুলিপি
টেরর
বহিষ্কৃত
দ্বিপাক্ষিক
গুপ
বাছুর
মন্ট
##ন্ডু
##ুশ্রী
##ailed
কথাবার্তায়
Sept
Ant
Just
pore
##ায়নাম
রেকর্ডের
সংস্কৃতিকে
কহিতে
হাদীসের
etc
July
সমস্বরে
বোম্ব
মিল্ক
হাইট
##সিকিউ
রমরমা
ফুলেল
হুজুরের
রথের
##াপুরের
মনিকা
উত্তরসূরি
কাঁটার
মেঘনার
keno
খপ্প
রসে
উলটে
কলেজছাত্র
মেয়াদি
##ovember
লঞ্চে
##নুর
নিধি
ট্রেনটা
সাফল্যে
believe
সুতপা
সামলানোর
##িডে
##িউজ
শিষ
শ্রীনি
ফিড
কায়েস
মনযোগ
ভাঁড়
##বিজ্ঞানে
ওয়াং
বেড়াজ
নিম্নোক্ত
কোলকাতায়
II
শফি
দেখছিলেন
শিখিয়েছে
পরদিনই
মধ্যবিত্তের
সকলকেই
চড়তে
সাম্প্রদায়িকতা
Roy
দৃঢ়ভাবে
বোরকা
ম্যাগাজিনের
ইবরাহীম
##ফিরে
##ালিয়া
তোড়া
##ন্ধা
অপরা
অত্যাব
শ্রীকান্ত
সুপারের
##ীতিকর
স্পন
উপভোগ্য
১৯২১
আনিসুজ্জামান
রোহিতের
আলপনা
ছাড়ুন
জিনিসগুলো
##hole
হাইল
আমিনের
হাতা
জমিন
চুলা
বেকারদের
মোহাম্মাদ
মাগর
##igital
দিয়াছেন
কিলার
হুংকার
বলবৎ
##udhu
গজগজ
মাওবাদী
eas
##দেহী
উদ্দাম
অপরাজিতা
যাযাবর
sing
যশোরে
##জুরি
##ny
রাওয়াল
নিজেরাও
কুছ
প্রেসিডেন্সি
চন্দ্রা
হানে
##াসুর
২৬শে
দুলছে
ইজিব
ছেলেই
বসিল
উদ্রেক
পাবেনা
সবেমাত্র
উজানের
বেমালুম
সুসম্পর্ক
##দায়িত্ব
চিঠিটি
sign
স্টাম্প
আত্মীয়দের
অ্যাজ
শেকড়
চিন্তাধারা
পুনশ্চ
আগামীর
##ross
##ৎসরিক
কুহেলি
ব্যভি
##স্কো
ওয়াও
অনূদিত
পুরী
জোরপূর্বক
সৈয়দা
##সংগঠন
প্রতিনিধিদলের
দেবয
সমস্যাগুলো
ব্রাজিলিয়ান
সভাপতিমণ্ডলীর
ক্ষমতাধর
নাদিয়া
Bo
প্রেশার
সালামের
মানবসম্পদ
থামার
stand
গেমটি
সােহরাওয়ার্দী
চিরাচরিত
Qur
কাস্ত
মানসম্মত
##ুড়ী
সফটওয়্যারের
Word
মুই
তথ্যমতে
ওলট
পারিতে
ভাবুক
গোলটেবিল
বালিকার
প্যারাস
অভিভাবকের
কাস্টমস
ভূগর্ভস্থ
##ন্সার
সব্জি
নিরাময়
আগমনে
ভাণ্ডার
উপস্থাপিত
পোষ্টে
টুপু
সোলায়মান
কবল
##াইয়ে
আস্বাদ
##োদয়ের
দেখিনা
ট্রফ
নিলু
ড্রাগন
Bas
Op
সখি
করোনি
লেস
ক্রিট
মহাসম
files
যুদ্ধবিমান
উৎসাহের
উপস্থাপক
চাবুক
নাপ
##র্পন
অর্থনীতিকে
##69
নম্বরঃ
মজাদার
##ething
সমালোচকদের
সুখি
বিজয়ীদের
আকর্ষণের
মেটে
হাসেন
ইনিয়ে
শাহজাদ
দেইনি
অ্যাডমিন
জাঁক
ইদ
কূপ
##মুন
কাদতে
মাহবু
ঠাকুরকে
2004
উসকে
বিব্রতকর
family
আশাবাদ
ফেদের
শর্মিলা
আফ্রিদি
SE
##ডস
##বিয়
সম্ভবতঃ
2012
Shi
ছেলেবেলার
##সংশ্লিষ্ট
চাপায়
মরেছে
হদিশ
হাঁটি
ষড়যন্ত্রে
মিতার
##াজল
গ্রাজ
রুমটা
প্রদানকারী
ক্যামনে
এমপিও
problem
ডানায়
comments
আর্কি
অক্সিজেনের
##oon
ঘোরাতে
হরতালে
##বোনা
তোমারি
খেসার
যাওয়াতে
এক্সিকিউ
হাদীসে
##প্রত্য
দেখিলেন
ভাড়ায়
##েতে
##িছু
সুবিশাল
নিম্নে
প্রণালি
##lood
ফকিরের
cour
আপনারাও
মশগুল
হার্ডডিস্ক
সিধু
মারণ
নিক্সন
##osh
বেদান্ত
ইন্দো
নিশির
গ্রামীন
গ্রেগর
করাল
টেলিগ্রাম
জিন্দাবাদ
##ৃৎ
লেখো
আয়শা
প্রার্থনার
বুঝেছিলাম
সঙ্গীর
কুরবান
##্যবশত
##রক্ষী
থ্রিলার
ক্ষয়ক্ষতির
##ূর্ষ
খোশ
ফর্মুলা
##💐💐
##িবাগ
##টিরও
স্তন্য
ভবঘ
সমূহের
##ঙ্কুশ
গবেষনা
লুঠ
অলিখিত
একচেটিয়া
এবাদ
##েষু
##ুঁকি
বাজান
মুন্সিগঞ্জ
দৌড়াদৌ
মহাবিদ
স্বায়ত্তশাসন
হিলার
১১৮
ভয়াবহতা
গনতন্ত্র
গম্বুজ
শুনেছিল
গাছটি
পর্যবেক্ষণের
সারাক্ষন
##ittle
##৪১
প্রাণপণ
নবজাতক
##চেতা
সাহসে
মর্টার
মিসাইল
খেলেছিলেন
এন্ড্রয়েড
##ডিয়েট
দেখাতেই
উল্টোদিকে
থেইকা
হন্তদন্ত
##দহে
##ْل
লোকও
আনলো
মাইরা
##iful
নিকাশ
দবির
##সিকে
সুজনের
রাখলেও
তরঙ্গের
নামাযের
মোর্চার
##ভঙ্গের
পাউর
রোহান
##র্ষক
##annel
Fil
Key
Sur
উপাদানের
আটকানোর
অ্যাক্সিডেন্ট
তারায়
##ক্ষর
কুইজ
ডিভিডি
কনফার্ম
লঞ্চের
কিকরে
জীবদ্দশায়
তিশার
বোতলে
হিড়
শয্যায়
দুর্জয়
##মুড়
বছরখানেক
পীয
বঁ
একতা
ছুটল
লণ্ড
তাপে
##ক্ষ্য
উঠছেন
পান্থ
জিএম
১৯২৯
ট্র্যাজে
John
এ্যাম
প্রলাপ
##ক্ষি
রাত্তিরে
উকি
কমলে
গণি
2000
##্যাচ
বুঝবি
উল্লা
চিকিৎসকরা
রিভার
মোরশেদ
লোভনীয়
সঞ্চালনা
ঘড়
উদ্ভিদের
অন্তর্ভূক্ত
কেরানীগঞ্জ
বর্ণাঢ্য
এ্যাক
##😭😭
বিগ্রহ
পুত্রকে
##্বরূপ
বৃষ
দাঁড়িয়েই
ম্যারেজ
সুষ্ঠুভাবে
ব্রাদার্স
আস্থার
অভিকে
তুলিতে
ইনচার্জ
ট্রিটমেন্ট
ইউনূস
##পৃষ্ঠ
##ঘটন
উইশ
তৃষার
আবাসনের
পং
##তাজা
##ীদেরকে
ওয়াইফ
ধামাচাপা
লালিত
2003
পাপে
সহাস
মারপিট
নিয়তির
আলীম
November
গার্দি
কয়েকমাস
নাতা
মুদ্রিত
ঘুট
##শতা
##্যাকার
নিয়েছিলো
নিরলস
বুঝিস
আধুনিকতার
আড়ত
সশ্রম
নজিরবিহীন
লুপ্ত
##পাতাড়ি
কেট
##িশোর
রাহুলকে
ডোবা
অমানুষিক
হাতাহাতি
##65
পেজের
টেকা
সুন্দরবনে
উইমেন
দুর্গার
শান্তিনিকেতন
প্রমোশন
উস্কে
উবুন
##রাকে
গোর্
তথ্যে
দ্বিতীয়টি
সুখকর
সানজিদ
পিতাকে
সুফিয়ান
ঋত্বিক
##ুং
গাধার
আলাইহিস
১৯৩৫
সোফার
তামান
##ِر
##াজীবন
হারমোন
সিংয়ের
প্রমিস
রেমি
সূর্য্য
এবছর
এতকিছু
##son
##লাভের
রেণু
আগামীতে
শামসুদ্দিন
ভ্লাদ
শোয়া
সোস
রানির
##োয়ায়
ছোঁড়া
বাঙ্গালীর
বালিশে
জানবেন
নিরঞ্জন
বেশ্যা
নেকড়ে
unt
##ামর
এতক্ষনে
পিসিমা
La
ছয়েক
##ار
ব্রিটিশরা
ধোয়ার
দুশো
পাঠাগার
##পেশ
আবোল
খেললে
হাঁসের
answer
কোয়ার্টারে
উফ্
Dawn
##পিন
সুসং
মেয়েমানুষ
মুক্তিপণ
মাল্টি
সিদ্ধির
বিগড়ে
দিগন্তের
সটান
##িয়নে
ফিল্টার
ফাইবার
amader
পাঞ্জাবের
উম্মে
Hel
##মামা
জ্বালানী
পুত্রবধূ
একাকীত্ব
হাসনাত
দেহর
শ্রীত
মাত্রাতিরিক্ত
কর্ণেল
আমন্ত্রণে
ইভিএম
বিপ্র
অভিলা
নিজেরও
নির্মলা
বুদ্ধিজী
মোদীকে
অধিবেশনের
অনুরাগের
হাইড্রোজেন
কারস
চাইতেই
ন্যাড়া
পেশাজীবী
একমু
রাখতাম
মন্ত্রমুগ্ধ
সিপাহী
তান্ড
কিন্তূ
টিপাই
ভাতিজা
টিয়ার
##থাই
আজমল
##২৭
##ার্থক
কালিদ
কাটছিল
মুঠোফোনের
মুর্শিদাবাদের
আলমারির
##এসে
শ্রমের
কৌটো
ফাইলের
##পোকা
তরু
প্রশাসনে
টলমল
##ষ্কাশন
থরে
নামাজে
অপার্থ
অলক
নৌপরিবহন
ফরিদপুরে
বর্জনের
পুঁজিবাদী
website
tra
ডাকাতের
গুরুত্বপূর্ন
পুষে
mediafire
প্রণোদনা
##্মের
দেড়টার
Mal
নর্
হেরা
ফুটের
প্রযুক্তিতে
দারুণভাবে
অপ্রীতিকর
স্টাডিজ
উয়েফা
Free
দম্ভ
চাইবো
বাঁধিয়া
নিম্নলিখিত
অভদ্র
তিলা
বিঁধ
মানবী
শিকারি
য়ুর
স্বীকারোক্তিমূলক
ভাতে
লেল
##ান্দি
##ides
এক্সাম
সাংসার
দৈন্য
google
ফটোক
সুফি
অধিকৃত
দালালের
জেঠু
Muj
ডলি
##go
##not
অসংগ
ফলক
টেলিস্ক
mother
##রিতে
যুক্তফ্রন্ট
রমিজ
কেহই
হিন্দুত্ব
##বক্সে
THE
দিপু
মিথ্যাব
##هُمْ
ইথিও
আফটার
হাসানুল
মর্মাহত
পুনর্মিল
হুন
মহাসাগরের
টুপুর
IP
দ্যুতি
Black
জুনায়েদ
while
বোনা
সঙ্কে
##োনিয়া
##িনেস
শ্রেয়ার
الن
ছিন্নভিন্ন
মোজা
ঘরটি
কম্পিত
পর্তুগাল
সুন্দরের
স্কাউট
মোশতাক
ল্যাঙ্গ
অখিলেশ
রক্ষী
হোতা
##ুঁটি
result
##দাসের
পানিব
##una
চকরিয়া
Let
প্রভৃতির
বেইজিং
আঞ্জ
##mer
তুলুন
নেমেছিলেন
ইয়ারে
তুমিতো
নিপীড়িত
পিএসজি
সর্ষ
দাঁড়াইল
গ্রামবাসীর
রানার্স
##ira
ঔপন্যাসিক
Fe
came
একচ
শিখবে
হাওরের
Mor
যন্ত্রে
পাঞ্চ
##হারী
তৎপরতায়
তাচ্ছিল্য
ট্র্যাফিক
44
keep
ঘায়েল
বিলু
নির্ঝর
বিক্ষত
পাণ্ডব
সাতক্ষীরার
খচ
ঢালা
##পী
##চকি
আনব
হারাল
ভূমিকম্পে
নীতীশ
গাইবান্ধার
তওবা
fact
প্রথমটি
##ুষ্ঠান
চিড়
##ডেড
##ewhere
##িভাইরাস
Pay
ছিলাে
প্রতিভ
ইচ্ছেমতো
নরকে
শুভ্রর
অতর্কিত
মাচ
স্থাবর
ভূতে
ভয়াল
বেরিয়েছিল
প্রাঙ্গণ
##ভ্রমণ
hard
দয়
পরোটা
পরীক্ষার্থীদের
দেউলিয়া
চললেও
ধৈর্যের
##্লু
today
প্যাচ
উচ
নিউমোন
##abi
September
পেরোতে
ধর্ষিতা
সেরকমই
খোঁজাখুঁজি
game
নার্গিস
জড়তা
শীতকাল
মৃধা
অনাগত
##amim
উচ্চস্বরে
সাবমিট
##order
উদ্যানের
বাটার
কেভিন
##দ্রা
বিছান
শনিবারের
##ected
মেশিনগান
##চক্রের
##্রাহাম
##ঃঃ
নিয়মান
বউমা
لا
সচ্ছল
##blog
হাতেখড়ি
##হীনভাবে
অর্ধশত
koto
শ্রুতির
রাষ্ট্রকে
সন্ধ্যাবেলা
চ্যাটার্জী
ফেলছেন
জোস
যমুনার
adv
##ledge
information
রাইড
বিশ্লেষকেরা
রাসূলের
প্রিন্সেস
##ত্ত্বে
##্যুয়াল
প্রতিপত্তি
Tw
বোতলের
যুক্তিযুক্ত
হামলাকারীদের
অবমাননার
6d
অয়নের
##াপাত
##গরম
##স্বী
সাজাপ্রাপ্ত
প্রমোদ
##😊😊
মাঝখানের
একেকজন
এমআই
বইসা
ভাংচুর
তদু
ইউক
ওয়েটার
এক্সপ্লো
কপিরাইট
জেসমিন
##cho
##োকের
ভূমধ্য
সচিবালয়ের
কটূ
কম্য
##াশার
আনাস
ক্রুজ
গাফ
টুথ
##ষেই
সারিয়ে
প্রাণিসম্পদ
70
কলহ
ধর্মাবলম্ব
১১৯
মায়াবতী
সহিংসতায়
হুইপ
গঞ্জ
শবর
পূজোর
চলছিলো
##OW
বাৎসরিক
##্টেম
রাজস্থানের
উনিই
নাগালের
##কেস
##িকারা
আরজ
##শােধ
##নিকের
খ্রিস্টাব্দ
তরমুজ
##থিকে
একনায়ক
বাড়লেও
##প্রীত
দেবতারা
শাস্ত্রীয়
সস্তায়
ডাইরেক্ট
নর্ম
একনিষ্ঠ
##য়াট
কমায়
কলস
মস্তিস্ক
ওমনি
পাইন
সোলার
##েনে
সুব্র
বিধির
হুরায়রা
##্দার
বিশ্বাসকে
Ke
ফটকে
##প্রচার
কৃতী
ঐকম
দহ
##পণ্য
সমতুল্য
নিরঙ্কুশ
পয়েন্টের
গলদ
সান্তনা
গাজা
ধোন
ফাকে
##ون
##্যাংশ
আঁকে
মিথুন
সাধিত
ধূমকে
ওয়ার্কিং
poss
দেখলি
যতক্ষন
##osp
হাঁটছি
অঙ্গন
অন্তরায়
সম্যক
পাড়িয়ে
সন্ধের
পতঙ্গ
##ুঃ
মুন্ন
##udd
শীলা
72
both
lo
শ্বশুরের
নবনির্বাচিত
সুষম
October
bro
নবু
রিসি
সেঁ
##বিদ্বেষ
আজার
ডাকো
মুদ্রায়
ক্যান্সারের
পরিচ্ছন্নতা
জিটি
##পিপ
হুসেইন
ত্বকে
প্রসূন
ইলেক্ট্রনিক
গেটস
পক্ষেও
ত্রৈ
জানবো
তাহাও
নরকের
দাঁড়াচ্ছে
Aust
পিয়াস
বক্র
প্রবেশাধিকার
চিত্রকর্ম
সুমিতা
আণ
কাটো
##্রেটের
আইল
দীপিকার
জ্যোতির্বিজ্ঞ
Cal
##orial
শহরটির
ফিলিংস
স্বার্থেই
সৌন্দর্য্য
##থিক
##্পি
রেখেছিলো
ভুলিয়া
নৌপথে
উৎপল
আখির
##াতলে
মানলে
আহাম্ম
গঠনমূলক
শত্রুকে
ফিকশন
প্রামাণিক
ফক্স
##rab
ব্যাঙের
ব্যাপী
সেলিমের
১০০টি
পিরিয়ড
পিরামিড
Reg
রাজনীতিকদের
ভজ
##ভালের
মধ্যরাত
রাজনাথ
##াত্রিক
##মূল্যের
রোজগারের
ভদ্রলোককে
বিশ্লেষণে
এইখানেই
লিভারপুলের
রচয়িতা
কাইল
পরনের
##হারি
খায়নি
মহাকর্ষ
##পরিষদের
গবাদিপ
কবুতর
আহ্ল
পাকড়াও
দুরত্ব
সূত্রেই
Inter
হৈল
অপার্থিব
কেসের
really
কাতাল
Oper
ছিঁ
জলটা
এলোপাতাড়ি
খাদ্যে
পাকাপাকি
মন্থর
অপ্রিয়
##ন্মে
সরফ
ডায়রি
ডিপো
ঘিরেই
স্ট্রী
তুমার
জিদান
##ামাক
মানচিত্রে
স্বাবলম্বী
যখনি
১২৪
জেনারেলের
স্লোগানে
ঝাড়গ্রাম
অবশ্যম্ভাবী
jai
ভরণ
লিঙ্গের
চোখকে
খেলব
দ্রৌ
##ামণি
মাঝির
ওয়াইল
রুপান্তর
##াইতেছে
১৯৩২
বৃদ্ধিতে
সুপ্রিয়া
38
ঢোঁ
নোক
মর্জ
##ِل
রাখাই
কয়েকশো
নারিকেল
নির্বাচনকালীন
দুঃসংবাদ
এক্সপ্রে
অক্ষরের
চরিতার্থ
আয়েশ
উড্ড
##mar
ফাঁসের
চকিতে
প্রতিবন্ধক
ওপরও
শ্রেষ্ঠত্ব
উঠিলেন
তদারক
অনাস্থা
ঝিরি
##ুষ্প
মনখার
ছাড়িয়েছে
শিরোপ
মৃত্যুদন্ড
পাকসেনারা
রূঢ়
দহন
বুঝতেও
সামান্যই
উপেক্ষিত
অনুষ্কা
জুমার
ডিসিশন
ক্যাপিটাল
সাংসারিক
টোন
গতকালই
অপরাধবোধ
নকশাল
click
সবিস্ত
ইফতারের
আগাগোড়া
##13
চলছি
ফিফার
সহধর্ম
উগ
##ঁচো
মিশিগ
করছিলে
জেনেটিক
কৈফিয়ত
সুবিচার
তৃতীয়ত
অদ্ভ
##ips
ফিলিপাইনের
ক্ষীর
বঙ্গের
ছুটিয়া
প্রমথ
ভাষ্যমতে
অ্যাঞ্জেলিনা
যেমনি
দেবব্রত
থামবে
পূর্বাঞ্চলের
called
##ography
এ্যান
ঝাঁকিয়ে
##গণকে
জান্নাতের
##িহান
কেদে
খেতাম
সুমাইয়া
মুমূর্ষ
অত্যাবশ্যক
ভঙ্গের
অস্বাস্থ
ছবিটার
রহিমা
##েরেসা
ভুলি
খাওয়াবে
সংগঠনগুলো
বাচ্চাটার
কাদেরের
দৃঢ়তা
কষাক
মধ্যযুগীয়
turn
dev
আফরোজ
কোনরূপ
পশ্চাদ
নিয়ােগ
##উব
আকাশি
শ্যামলা
হেরো
পারিপার্শ্বিক
নোন
হাতটি
কীরকম
স্টিভেন
মোনাজাত
চাকুরীর
##টিটিউট
সলিমুল্লাহ
Aj
##িলাভ
চালিয়েছিল
পদবী
বিস্ফারিত
জন্মগ্রহণকারী
মহাজোটের
ফেম
১২১
শক্তিমান
পারবনা
জন্মেছে
এরে
পেটা
তুষ্ট
জন্মগত
##ols
আওয়াজটা
চুকিয়ে
##াগতিক
কালকেই
##িস্টদের
##্যন্ত
##াবনের
পরিমানে
রক্ষাক
সিমেন্টের
ট্রফির
১২৯
হ্যামিল
##িসিপ
নেতাজি
মিনিটেই
##raf
সায়নের
স্যালাইন
মহাভারতের
সুয়ারেজ
ঘাপ
##hing
চারণ
কলিম
আয়ারল্যান্ডের
তৌহিদ
বেটি
লুকো
##oke
অবসন্ন
##ized
জুড
খুললে
দেবাশী
ঐকমত্য
Med
নুয়ে
মােক
ভাটি
খাতুনের
হামাগুড়ি
পকেটের
##wa
##টাকেও
মির্জাপুর
ছুড়তে
সন্দ্ব
##ন্নার
প্রথমা
বুঝেন
দায়িত্বও
##মণির
গাম্ভীর
##করি
##েনকে
যাচ
দেওয়াটা
##ভিষ
পূর্বোক্ত
##াগুলিতে
চাবিটা
ভিয়েতনামের
ডাস্টব
আল্লাহু
বিছানো
৫০০০
শুটিংয়ে
##াবুকে
সায়ন্ত
যোদ্ধাদের
ইমারত
হতদরিদ্র
সুযোগই
অন্বেষণ
অধম
খালেদার
অনিমেষের
Why
ব্রিফিংয়ে
প্রসেনজিৎ
وَال
চট্র
##দাসী
পারদ
মোমিন
আইল্যান্ড
ভোগান্তির
##িজমের
সংস্থাগুলো
পিপাসা
অনুষঙ্গ
আনছি
##iter
মিসবাহ
রেহমান
ভুগছিলেন
মহাশূন্য
##েন্স
##দেহে
উঠেছিলো
মুক্তার
খাইনি
জ্যেঠ
ঝাড়া
##র্থন
পঞ্জাব
##po
কালেকশন
##কারক
বেতনে
আবাল
শিক্ষাকে
২৪টি
বাক্সটা
কংক্রিটের
সেলফ
জেলখানায়
রাখেননি
##ield
##য়েশ
পরিক্ষা
এইট
অসমের
সন্নিবেশ
অচিন
Ki
থামা
##াগড়
খাঁর
সাঈদীর
##াকর্মী
different
তর্কে
সাগ্ন
##ora
অনুপাতে
ধোঁয়াশা
ডিঙিয়ে
সুটকেস
75
১১৭
পারলোনা
রিভলবার
মুর্তজা
গব
পালে
বেরুতে
সম্ভবনা
খোঁচ
দূরপাল্লার
friends
যত্ত
রোম্যান
##ভাঙ্গা
ইন্টেলিজেন্স
##িলাকে
নাবী
আসাদের
জারী
##hoo
বসন্তে
বিলাসিতা
হাজারটা
নির্দেশিত
অবিভক্ত
ফিলিস্তিনের
রাজনীতিকে
হিন্দুস্তান
ইয়েমেন
নিষ্পত্তির
মাতামাতি
প্রকাশন
নিম্নচাপ
আভ্য
ছন্ন
ভয়ভীতি
ভাবীর
লোকরা
শৈল্প
আমেনা
যেগুলোর
যৌগ
সুমির
##eek
কৃতিত্বের
উঠছি
মুনাফার
ফাংশন
ফান্ডের
আশ্রয়ের
বহুগুণ
##টিল
##বানে
হোসে
আফসার
##লালের
##্রান
##িশান
কর্মস্থল
ফিঙ্গার
বিসর্
ফ্যামিলির
##war
বড়দা
##ashe
নবাগত
গ্রাহকেরা
বিলম্বিত
বুর্জোয়া
public
wick
ঝঞ্
রাজবাড়ীর
আইপ
হেল্পলাইন
শিস
##াসনে
জানব
##ীতল
বহুদিনের
##ায়েত
Hasan
Sir
যতগুলো
ইউনিফর্ম
বুজতে
ভজন
সন্ম
রিহার্স
খাদিজা
রোদেলা
অবার
চ্যার
রিগ
সামান্যতম
যুগান্তকারী
##ঙ্কু
তৃষ
##টেইন
ক্রান্ত
সারওয়ার
বাহাদ
##াপ্তরিক
ব্রাজিলে
আরিফের
সঙ্কটের
নেমন্তন্ন
law
তিনতলা
অর্থমন্ত্রীর
বন্ধুত্বপূর্ণ
দুষ্কর
পাল্টাতে
Sun
light
ওরই
এসই
বনলতা
ইশতি
ধুলা
body
##বিবি
মিনিস্টার
গোধূলি
লিজা
বৌকে
সূর্যোদয়
প্রিয়াঙ্কার
prothom
আ্য
##ca
নাউ
গড়াতে
ঈশ্বরদী
ঝুলিতে
যৎ
খুট
জনবহুল
##য়োগে
##irth
মশারি
পদার্থবিজ্ঞান
খবরাখবর
এনগেজ
অ্যাডভোকেট
##ference
স্থিতিশীলতা
মকর
মিত্ত
কারু
যুক্তিত
##খ্যানে
অশ্বার
##পায়ী
##বেষ্টিত
দিয়
নামমাত্র
জন্মা
চিল্লা
যোগাযোগমাধ্যম
বিড়ম্বনা
পন্থায়
অংশবিশেষ
ক্ষেতের
কামনার
##emon
##িপা
মারো
এসকল
১২৬
সূর্যর
পেরেক
ভলান্টিয়ার
জিমি
##সানা
মুক্তিফৌ
সমন্বয়ের
রিচার্জ
সিএএ
ব্রায়ান
পূর্বাঞ্চলীয়
words
##েলিং
ভরিয়া
উপদেষ্ট
শর্মিষ্ঠ
Account
পার্শ্বে
একশত
সংগত
লাও
চালাকি
ফেরৎ
করিতেছিল
দাপ্তরিক
মানছে
বীরভূ
বীণ
রতনের
দর্শনার্থীদের
sun
##ডিআর
নীলাকে
জৈবিক
অনাবিল
বিধু
বলেছেনঃ
ক্যারিবি
Micro
ঢুঁ
মানদ
মহোদয়
##ন্ডারে
অন্তু
কনফে
ক্ষিপ্র
98
##RE
##স্তাধ
খুড়
কাজি
সোর
##রর
##ীচ
থেকেছি
##াবিহীন
##iction
নাৎসি
##ধাক
উঠেছিলাম
বনভো
আশ্চর্যজনক
পরিচ্ছদঃ
##নামে
##দপ্ত
সংস্থান
বিজেপিতে
নোটের
শিহরিত
##শত্র
##ica
বোধের
ভারতীয়রা
কীর্ত
ট্রাস্টি
সেতুম
কোদাল
##প্রিয়া
সমাজসেবা
আন্তর্জাতিকভাবে
বেহালা
দাতব্য
পোলাপান
প্রাদুর্ভাব
ঠাই
##াপ্তি
##টেকার
জমকালো
যাকগে
পদ্য
মূল্যস্ফ
নির্ভরতা
ঘোরার
পরাণ
চিত্রের
এড়ানোর
##থিং
কারুকার
##িমেয়
পরিণতির
সম্ভাবনাও
নিতু
রিমঝিম
ছোবল
খামো
##িই
##ला
কর্নার
##াবুদ
প্রস্তাবনা
চিড়িয়াখানা
পশুপা
প্রহার
বেডের
চিন্তাও
##মাল্য
পাদদেশে
প্রত্নতাত্ত্বিক
বর্মণ
Writ
ver
হাতল
সূর্যাস্তের
রিপাের্ট
গল্পঃ
##পাটে
৩৭০
উঁহু
চুলায়
amp
##াজনৈতিক
ফাহম
একজোট
জিলা
##acher
মোতালেব
অনিতা
তুলবেন
বিভাগকে
ভাড়
নাতির
সুধী
লিবিয়া
ব্যাংকটির
রজনীগ
##ধারীদের
চিরকালই
kichu
রিব
শুক্রবারের
অনির্বাণের
##ja
মাফিক
কথাতেই
গোলার
তুললাম
##ংসিত
স্বীকৃতির
2016
##intu
বগি
##বৃদ্ধির
কিংশ
meet
ফোলা
disc
Cap
লাইটের
টানটান
##ours
থুতু
সুইং
commun
জলখাবার
##সুখ
যাইয়া
স্যুপ
ঐক্যফ্রন্টের
ঝিমলি
উত্তোলনের
পইড়া
ent
##মেনের
করাবে
প্রানী
অর্চনা
বানাবে
বোলাররা
ডার্লিং
put
মোক্ষ
জায়গাটায়
সাঁজ
মিঠাই
খাড়
লেশ
##জিস্ট
মুরগীর
ঘণ্টাখানেক
জামালপুরের
প্রিমিয়াম
tell
##ঙ্গলে
ত্রুটির
##গাঁওয়ে
##বিসিসিআই
##র্ভে
##াঁর
ভ্রান্তি
##ঞ্জক
প্রতিক্রিয়ার
দড়ির
ঘুরেফিরে
তাড়নায়
shob
দেখাচ্ছি
বিপদজনক
ফেরেশতা
ব্যাক্তির
বিজিএমইএ
ডায়েট
খরি
জেনারেশন
নির্ভয়ে
একাডেমিতে
প্রট
বেকায়
শিক্ষাব্যবস্থা
লন
প্রাত্য
এটাতো
নীতিগত
অটোমেটিক
নয়নতারা
সংবলিত
##ines
যৌনা
নোঙর
বেধড়ক
nij
##Zoom
সাধনায়
উপকূলের
হাকিমের
কাউন্টারের
ডেস্কটপ
দৃষ্টিভঙ্গির
##হরের
শুট
মনী
ওয়েলস
সঙ্গীদের
এসেছিলে
আদিত্যর
একাকিত্ব
মুস্তফা
চুপসে
বাবারা
১৪৫
শিকারী
##বর্ণের
প্রেসক্লাব
সেফটি
ফোর্ট
বর্ণনার
অদৃষ্ট
##গণিত
ফিলিপাইন
রঙ্গিন
bowl
kind
বিরিয়ান
##দ্দৌ
মুরলী
জোনের
অন্তি
রাস্ট্র
##জেস
##ঁচি
যুদ্ধক্ষেত্রে
২১টি
চার্জশিট
আলেয়া
rar
নবি
কুহুর
নীলাম
সুইডেনের
কুকুরটা
সন্দিহান
বীরা
##gh
##াদিন
সবদিক
তুলেছি
অকথ্য
রুহীর
ক্লিনটন
বাস্কেট
দারা
কাচা
##ীয়রা
ধর্মভিত্তিক
ফেঁসে
হৈমন্তী
সাও
স্থানীয়রা
গ্লাসটা
##খাই
উত্তরণের
পিডিএফ
কম্পিটি
সন্ধ্যেবেলা
বান্ধবীদের
দাড়াও
present
##28
মাস্ট
ব্লাক
##জ্জায়
১৩৬
রোনাল্ডো
অপদার্থ
Time
ঘনী
##come
ফ্রা
রিহ
রম্য
আঁধারের
ক্যাসেট
##চৈ
##খেলা
##ify
ইহাকে
টর্চের
ক্রোধে
সেনাসদস্য
শিন
##ৈতি
পূব
বীর্য
সাধুবাদ
জনমনে
হাউমাউ
জেলেরা
মিটারের
নয়ই
হাটু
দূরবর্তী
পীড়িত
68
du
##টলে
##ول
কাজলের
সম্ভবপর
প্রার্থিতা
বক্ষে
মসল
##প্রযুক্তি
##ধুনা
অসাড়
কাকিমার
ভ্যানের
প্রয়ােজনীয়
##উদ্দীনের
##৪৩
##গোলের
শাস্ত্রে
উহাদের
আরোগ্য
চলুক
[...]
